{
  "version": "1.0",
  "truncation": null,
  "padding": null,
  "added_tokens": [
    {
      "id": 0,
      "content": "<pad>",
      "single_word": false,
      "lstrip": false,
      "rstrip": false,
      "normalized": false,
      "special": true
    },
    {
      "id": 1,
      "content": "<bos>",
      "single_word": false,
      "lstrip": false,
      "rstrip": false,
      "normalized": false,
      "special": true
    },
    {
      "id": 2,
      "content": "<eos>",
      "single_word": false,
      "lstrip": false,
      "rstrip": false,
      "normalized": false,
      "special": true
    },
    {
      "id": 3,
      "content": "<unk>",
      "single_word": false,
      "lstrip": false,
      "rstrip": false,
      "normalized": false,
      "special": true
    },
    {
      "id": 4,
      "content": "<state>",
      "single_word": false,
      "lstrip": false,
      "rstrip": false,
      "normalized": false,
      "special": true
    },
    {
      "id": 5,
      "content": "</state>",
      "single_word": false,
      "lstrip": false,
      "rstrip": false,
      "normalized": false,
      "special": true
    },
    {
      "id": 6,
      "content": "<q>",
      "single_word": false,
      "lstrip": false,
      "rstrip": false,
      "normalized": false,
      "special": true
    },
    {
      "id": 7,
      "content": "</q>",
      "single_word": false,
      "lstrip": false,
      "rstrip": false,
      "normalized": false,
      "special": true
    },
    {
      "id": 8,
      "content": "<opt>",
      "single_word": false,
      "lstrip": false,
      "rstrip": false,
      "normalized": false,
      "special": true
    },
    {
      "id": 9,
      "content": "</opt>",
      "single_word": false,
      "lstrip": false,
      "rstrip": false,
      "normalized": false,
      "special": true
    },
    {
      "id": 10,
      "content": "<decide>",
      "single_word": false,
      "lstrip": false,
      "rstrip": false,
      "normalized": false,
      "special": true
    },
    {
      "id": 11,
      "content": "<noul>",
      "single_word": false,
      "lstrip": false,
      "rstrip": false,
      "normalized": false,
      "special": true
    },
    {
      "id": 12,
      "content": "<choice>",
      "single_word": false,
      "lstrip": false,
      "rstrip": false,
      "normalized": false,
      "special": true
    },
    {
      "id": 13,
      "content": "<score>",
      "single_word": false,
      "lstrip": false,
      "rstrip": false,
      "normalized": false,
      "special": true
    }
  ],
  "normalizer": null,
  "pre_tokenizer": {
    "type": "ByteLevel",
    "add_prefix_space": false,
    "trim_offsets": true,
    "use_regex": true
  },
  "post_processor": null,
  "decoder": {
    "type": "ByteLevel",
    "add_prefix_space": true,
    "trim_offsets": true,
    "use_regex": true
  },
  "model": {
    "type": "BPE",
    "dropout": null,
    "unk_token": "<unk>",
    "continuing_subword_prefix": null,
    "end_of_word_suffix": null,
    "fuse_unk": false,
    "byte_fallback": false,
    "ignore_merges": false,
    "vocab": {
      "<pad>": 0,
      "<bos>": 1,
      "<eos>": 2,
      "<unk>": 3,
      "<state>": 4,
      "</state>": 5,
      "<q>": 6,
      "</q>": 7,
      "<opt>": 8,
      "</opt>": 9,
      "<decide>": 10,
      "<noul>": 11,
      "<choice>": 12,
      "<score>": 13,
      "!": 14,
      "\"": 15,
      "#": 16,
      "$": 17,
      "%": 18,
      "&": 19,
      "'": 20,
      "(": 21,
      ")": 22,
      "*": 23,
      "+": 24,
      ",": 25,
      "-": 26,
      ".": 27,
      "/": 28,
      "0": 29,
      "1": 30,
      "2": 31,
      "3": 32,
      "4": 33,
      "5": 34,
      "6": 35,
      "7": 36,
      "8": 37,
      "9": 38,
      ":": 39,
      ";": 40,
      "<": 41,
      "=": 42,
      ">": 43,
      "?": 44,
      "@": 45,
      "A": 46,
      "B": 47,
      "C": 48,
      "D": 49,
      "E": 50,
      "F": 51,
      "G": 52,
      "H": 53,
      "I": 54,
      "J": 55,
      "K": 56,
      "L": 57,
      "M": 58,
      "N": 59,
      "O": 60,
      "P": 61,
      "Q": 62,
      "R": 63,
      "S": 64,
      "T": 65,
      "U": 66,
      "V": 67,
      "W": 68,
      "X": 69,
      "Y": 70,
      "Z": 71,
      "[": 72,
      "\\": 73,
      "]": 74,
      "^": 75,
      "_": 76,
      "`": 77,
      "a": 78,
      "b": 79,
      "c": 80,
      "d": 81,
      "e": 82,
      "f": 83,
      "g": 84,
      "h": 85,
      "i": 86,
      "j": 87,
      "k": 88,
      "l": 89,
      "m": 90,
      "n": 91,
      "o": 92,
      "p": 93,
      "q": 94,
      "r": 95,
      "s": 96,
      "t": 97,
      "u": 98,
      "v": 99,
      "w": 100,
      "x": 101,
      "y": 102,
      "z": 103,
      "|": 104,
      "}": 105,
      "~": 106,
      "¡": 107,
      "¢": 108,
      "£": 109,
      "¤": 110,
      "¥": 111,
      "¦": 112,
      "§": 113,
      "¨": 114,
      "©": 115,
      "ª": 116,
      "«": 117,
      "¬": 118,
      "®": 119,
      "¯": 120,
      "°": 121,
      "±": 122,
      "²": 123,
      "³": 124,
      "´": 125,
      "µ": 126,
      "¶": 127,
      "·": 128,
      "¸": 129,
      "¹": 130,
      "º": 131,
      "»": 132,
      "¼": 133,
      "½": 134,
      "¾": 135,
      "¿": 136,
      "Â": 137,
      "Ã": 138,
      "Ä": 139,
      "Å": 140,
      "Æ": 141,
      "Ç": 142,
      "È": 143,
      "É": 144,
      "Ê": 145,
      "Ë": 146,
      "Ì": 147,
      "Í": 148,
      "Î": 149,
      "Ï": 150,
      "Ð": 151,
      "Ñ": 152,
      "Ò": 153,
      "Ó": 154,
      "Ô": 155,
      "Õ": 156,
      "Ö": 157,
      "×": 158,
      "Ø": 159,
      "Ù": 160,
      "Ú": 161,
      "Û": 162,
      "Ü": 163,
      "Ý": 164,
      "Þ": 165,
      "ß": 166,
      "à": 167,
      "á": 168,
      "â": 169,
      "ã": 170,
      "ä": 171,
      "å": 172,
      "æ": 173,
      "ç": 174,
      "è": 175,
      "é": 176,
      "ê": 177,
      "ë": 178,
      "ì": 179,
      "í": 180,
      "ï": 181,
      "ð": 182,
      "ĉ": 183,
      "Ċ": 184,
      "Ġ": 185,
      "Ģ": 186,
      "ģ": 187,
      "Ĥ": 188,
      "ĥ": 189,
      "Ħ": 190,
      "ħ": 191,
      "Ĩ": 192,
      "ĩ": 193,
      "Ī": 194,
      "ī": 195,
      "Ĭ": 196,
      "ĭ": 197,
      "Į": 198,
      "į": 199,
      "İ": 200,
      "ı": 201,
      "Ĳ": 202,
      "ĳ": 203,
      "Ĵ": 204,
      "ĵ": 205,
      "Ķ": 206,
      "ķ": 207,
      "ĸ": 208,
      "Ĺ": 209,
      "ĺ": 210,
      "Ļ": 211,
      "ļ": 212,
      "Ľ": 213,
      "ľ": 214,
      "Ŀ": 215,
      "ŀ": 216,
      "Ł": 217,
      "ł": 218,
      "Ń": 219,
      "Ġt": 220,
      "Ġa": 221,
      "he": 222,
      "in": 223,
      "re": 224,
      "Ġo": 225,
      "Ġthe": 226,
      "er": 227,
      "on": 228,
      "at": 229,
      "Ġs": 230,
      "en": 231,
      "Ġc": 232,
      "es": 233,
      "is": 234,
      "an": 235,
      "Ġw": 236,
      "or": 237,
      "it": 238,
      "Ġof": 239,
      "al": 240,
      "ed": 241,
      "Ġp": 242,
      "Ġan": 243,
      "Ġb": 244,
      "Ġf": 245,
      "ar": 246,
      "Ġin": 247,
      "ing": 248,
      "ic": 249,
      "Ġm": 250,
      "ou": 251,
      "Ġand": 252,
      "ion": 253,
      "Ġto": 254,
      "Ġd": 255,
      "le": 256,
      "ro": 257,
      "as": 258,
      "ent": 259,
      "Ġh": 260,
      "Ġth": 261,
      "ct": 262,
      "Ġe": 263,
      "il": 264,
      "Ġre": 265,
      "Ġl": 266,
      "ve": 267,
      "om": 268,
      "st": 269,
      "Ġn": 270,
      "ly": 271,
      "Ġis": 272,
      "Ġbe": 273,
      "ĠT": 274,
      "ol": 275,
      "ation": 276,
      "se": 277,
      "ow": 278,
      "ig": 279,
      "Ġg": 280,
      "im": 281,
      "id": 282,
      "ce": 283,
      "ĠA": 284,
      "et": 285,
      "ur": 286,
      "ut": 287,
      "ch": 288,
      "ĠS": 289,
      "ra": 290,
      "ot": 291,
      "Ġu": 292,
      "Ġfor": 293,
      "ver": 294,
      "ĠC": 295,
      "Ġon": 296,
      "Ġthat": 297,
      "ir": 298,
      "Ġst": 299,
      "ĠI": 300,
      "ul": 301,
      "am": 302,
      "el": 303,
      "âĢ": 304,
      "ay": 305,
      "Ġas": 306,
      "her": 307,
      "ad": 308,
      "Ġ(": 309,
      "ith": 310,
      "Ġ1": 311,
      "Ġcon": 312,
      "Ġpro": 313,
      "Ġare": 314,
      "Ġor": 315,
      "ĠM": 316,
      "ĠThe": 317,
      "Ġwith": 318,
      "ter": 319,
      "if": 320,
      "ĠP": 321,
      "th": 322,
      "Ġy": 323,
      "Ġwh": 324,
      "od": 325,
      "nd": 326,
      "Ġal": 327,
      "ist": 328,
      "igh": 329,
      "ge": 330,
      "op": 331,
      "Ġit": 332,
      "ment": 333,
      "ĠB": 334,
      "ate": 335,
      "ies": 336,
      "ab": 337,
      "Ġde": 338,
      "ers": 339,
      "us": 340,
      "pp": 341,
      "um": 342,
      "ere": 343,
      "Ġex": 344,
      "os": 345,
      "res": 346,
      "est": 347,
      "and": 348,
      "Ġby": 349,
      "ect": 350,
      "rom": 351,
      "ill": 352,
      "ĠH": 353,
      "ac": 354,
      "ore": 355,
      "Ġsu": 356,
      "ight": 357,
      "Ġcom": 358,
      "Ġhe": 359,
      "ity": 360,
      "ess": 361,
      "Ġv": 362,
      "em": 363,
      "ĠE": 364,
      "ri": 365,
      "Ġat": 366,
      "ld": 367,
      "our": 368,
      "ĠR": 369,
      "qu": 370,
      "ĠW": 371,
      "ĠD": 372,
      "ive": 373,
      "nt": 374,
      "ain": 375,
      "Ġwas": 376,
      "ant": 377,
      "Ġfrom": 378,
      "ud": 379,
      "Ġr": 380,
      "ĠN": 381,
      "ĠF": 382,
      "ci": 383,
      "ke": 384,
      "Ġch": 385,
      "Ġha": 386,
      "iv": 387,
      "Ġ2": 388,
      "Ġse": 389,
      "ort": 390,
      "00": 391,
      "ical": 392,
      "Ġne": 393,
      "ĠG": 394,
      "Ġsp": 395,
      "Ġob": 396,
      "ure": 397,
      "Ġcan": 398,
      "Ġle": 399,
      "ĠL": 400,
      "un": 401,
      "art": 402,
      "ap": 403,
      "Ġnot": 404,
      "og": 405,
      "Ġhave": 406,
      "Ġab": 407,
      "all": 408,
      "Ġsh": 409,
      "ich": 410,
      "ther": 411,
      "rou": 412,
      "Ġen": 413,
      "Ġobj": 414,
      "ated": 415,
      "The": 416,
      "'s": 417,
      "ions": 418,
      "gh": 419,
      "Ġthis": 420,
      "ost": 421,
      "ag": 422,
      "ine": 423,
      "low": 424,
      "ould": 425,
      "du": 426,
      "ĠJ": 427,
      "oc": 428,
      "ast": 429,
      "ear": 430,
      "ome": 431,
      "pt": 432,
      "ans": 433,
      "ĠO": 434,
      "ĠU": 435,
      "act": 436,
      "out": 437,
      "Ġpl": 438,
      "Ġim": 439,
      "Ġyou": 440,
      "Ġus": 441,
      "ell": 442,
      "ard": 443,
      "Ġwor": 444,
      "Ġwhich": 445,
      "Ġint": 446,
      "ally": 447,
      "ff": 448,
      "ĠIn": 449,
      "Ġ\"": 450,
      "âĢĻ": 451,
      "pl": 452,
      "Ġtheir": 453,
      "ia": 454,
      "so": 455,
      "per": 456,
      "ft": 457,
      "age": 458,
      "ous": 459,
      "ew": 460,
      "iz": 461,
      "ru": 462,
      "Ġ19": 463,
      "Ġwe": 464,
      "ide": 465,
      "Ġdis": 466,
      "Ġcont": 467,
      "Ġk": 468,
      "ak": 469,
      "ater": 470,
      "ult": 471,
      "ary": 472,
      "cl": 473,
      "ong": 474,
      "red": 475,
      "Ġwhe": 476,
      "ib": 477,
      "ood": 478,
      "cc": 479,
      "vel": 480,
      "ations": 481,
      "Ġthey": 482,
      "orm": 483,
      "ial": 484,
      "Ġres": 485,
      "Ġwere": 486,
      "end": 487,
      "Ġad": 488,
      "ĠâĢ": 489,
      "ust": 490,
      "Ġmore": 491,
      "Ġso": 492,
      "ec": 493,
      "Ġcomp": 494,
      "Ġother": 495,
      "ild": 496,
      "Ġcl": 497,
      "Ġhas": 498,
      "ence": 499,
      "Ġwill": 500,
      "ĠTh": 501,
      ").": 502,
      "Ġper": 503,
      "ks": 504,
      "able": 505,
      "Ġbut": 506,
      "Ġdo": 507,
      "ass": 508,
      "Ġman": 509,
      "ip": 510,
      "ry": 511,
      "ber": 512,
      "Ġone": 513,
      "ĠSt": 514,
      "av": 515,
      "ach": 516,
      "ish": 517,
      "reat": 518,
      "ents": 519,
      "ase": 520,
      "ress": 521,
      "ose": 522,
      "au": 523,
      "Ġar": 524,
      "are": 525,
      "ind": 526,
      "ove": 527,
      "ep": 528,
      "ction": 529,
      "Ġalso": 530,
      "ance": 531,
      "ign": 532,
      "Ġall": 533,
      "ory": 534,
      "ace": 535,
      "Ġinf": 536,
      "ition": 537,
      "Ġmay": 538,
      "Ġme": 539,
      "Ġpart": 540,
      "Ġun": 541,
      "ens": 542,
      "Ġte": 543,
      "Ġsy": 544,
      "ord": 545,
      "mer": 546,
      "Ġev": 547,
      "ound": 548,
      "Ġimp": 549,
      "ame": 550,
      "ub": 551,
      "Ġyour": 552,
      "ric": 553,
      "ount": 554,
      "olog": 555,
      "Ġapp": 556,
      "ian": 557,
      "Ġdi": 558,
      "Ġstud": 559,
      "ĠK": 560,
      "ite": 561,
      "ces": 562,
      "ang": 563,
      "Ġtim": 564,
      "Ġout": 565,
      "one": 566,
      "right": 567,
      "Ġabout": 568,
      "ack": 569,
      "ors": 570,
      "ree": 571,
      "ake": 572,
      "Ġhis": 573,
      "Ġthan": 574,
      "ice": 575,
      "over": 576,
      "ph": 577,
      "ower": 578,
      "Ġj": 579,
      "ates": 580,
      "ue": 581,
      "Ġwho": 582,
      "ok": 583,
      "Ġover": 584,
      "ĠCh": 585,
      "Ġpre": 586,
      "Ġbec": 587,
      "Ġyear": 588,
      "Ġbeen": 589,
      "Ġcomm": 590,
      "now": 591,
      "Ġits": 592,
      "Ġpe": 593,
      "pe": 594,
      "âĢĿ": 595,
      "erv": 596,
      "iff": 597,
      "ough": 598,
      "Ġinto": 599,
      "very": 600,
      "Ġra": 601,
      "ĠV": 602,
      "Ġsome": 603,
      "ons": 604,
      "Ġrel": 605,
      "rit": 606,
      "nder": 607,
      "Ġhad": 608,
      "Ġup": 609,
      "ie": 610,
      "ile": 611,
      "left": 612,
      "ike": 613,
      "Ġag": 614,
      "Ġthem": 615,
      "clud": 616,
      "vers": 617,
      "ail": 618,
      "ren": 619,
      "ĠIt": 620,
      "Ġqu": 621,
      "ms": 622,
      "Ġrec": 623,
      "ays": 624,
      "Ġcol": 625,
      "tern": 626,
      "Ġ3": 627,
      "Ġbl": 628,
      "Ġthese": 629,
      "Ġtw": 630,
      "ob": 631,
      "Ġgen": 632,
      "lect": 633,
      "rough": 634,
      "ause": 635,
      "ĠUn": 636,
      "pper": 637,
      "Ġwhen": 638,
      "ond": 639,
      "te": 640,
      "Ġro": 641,
      "ings": 642,
      "ys": 643,
      "Ġtra": 644,
      "irst": 645,
      "als": 646,
      "ople": 647,
      "Ġmost": 648,
      "ific": 649,
      "Ġ200": 650,
      "Ġthere": 651,
      "ational": 652,
      "Ġdiff": 653,
      "cre": 654,
      "Ġsuch": 655,
      "Ġ-": 656,
      "),": 657,
      "int": 658,
      "ĠThis": 659,
      "we": 660,
      "ll": 661,
      "Ġtime": 662,
      "stem": 663,
      "velop": 664,
      "Ġuse": 665,
      "Ġbet": 666,
      "Ġcons": 667,
      "ments": 668,
      "hed": 669,
      "Ġinclud": 670,
      "Ġunder": 671,
      "Ġact": 672,
      "ĠâĢľ": 673,
      "Ġwould": 674,
      "Ġnew": 675,
      "row": 676,
      "Ġdes": 677,
      "Ġhow": 678,
      "ple": 679,
      "Ġchild": 680,
      "Ġused": 681,
      "ced": 682,
      "lic": 683,
      "erm": 684,
      "ities": 685,
      "ffect": 686,
      "Ġknow": 687,
      "ire": 688,
      "Ġpeople": 689,
      "les": 690,
      "Ġwork": 691,
      "Ġfirst": 692,
      "Ġph": 693,
      "ular": 694,
      "iss": 695,
      "Ġtwo": 696,
      "ative": 697,
      "ĠY": 698,
      "Ġonly": 699,
      "Ġsur": 700,
      "ov": 701,
      "ual": 702,
      "Ġrep": 703,
      "Ġdevelop": 704,
      "oss": 705,
      "Ġacc": 706,
      "ious": 707,
      "Ġtr": 708,
      "Ġsa": 709,
      "rib": 710,
      "Ġprodu": 711,
      "Ġind": 712,
      "fter": 713,
      "Ġ20": 714,
      "ics": 715,
      "ning": 716,
      "ook": 717,
      "uring": 718,
      "Ġif": 719,
      "Ġprov": 720,
      "Ġam": 721,
      "Ġmany": 722,
      "Ġno": 723,
      "Ġany": 724,
      "round": 725,
      "Ġthrough": 726,
      "cess": 727,
      "Ġlike": 728,
      "ating": 729,
      "alth": 730,
      "Ġreg": 731,
      "ath": 732,
      "cial": 733,
      "its": 734,
      "Ġexp": 735,
      "Ġsystem": 736,
      "ne": 737,
      "Ġfl": 738,
      "land": 739,
      "ise": 740,
      "ark": 741,
      "Ġwater": 742,
      "ool": 743,
      "meric": 744,
      "ution": 745,
      "Ġfe": 746,
      "Ġoff": 747,
      "ures": 748,
      "Ġyears": 749,
      "arch": 750,
      "ange": 751,
      "ists": 752,
      "oth": 753,
      "Ġspec": 754,
      "ng": 755,
      "uc": 756,
      "Ġac": 757,
      "ited": 758,
      "Ġneed": 759,
      "ts": 760,
      "hen": 761,
      "ween": 762,
      "Ġpo": 763,
      "Ġdiffere": 764,
      "Ġsub": 765,
      "ied": 766,
      "aw": 767,
      "ble": 768,
      "Ġform": 769,
      "old": 770,
      "Ġear": 771,
      "ten": 772,
      "Ġ4": 773,
      "gan": 774,
      "Ġright": 775,
      "Ġ18": 776,
      "ert": 777,
      "Ġlower": 778,
      "Ġatt": 779,
      "ĠHe": 780,
      "Ġsm": 781,
      "ron": 782,
      "ible": 783,
      "Ġwhat": 784,
      "Ġlar": 785,
      "ased": 786,
      "Ġbetween": 787,
      "hes": 788,
      "In": 789,
      "Ġem": 790,
      "Ġhel": 791,
      "ĠAmeric": 792,
      "ade": 793,
      "Ġrem": 794,
      "Ġrese": 795,
      "Ġnum": 796,
      "ps": 797,
      "ram": 798,
      "ject": 799,
      "eth": 800,
      "hat": 801,
      "fore": 802,
      "cy": 803,
      "Ġ5": 804,
      "Ġcent": 805,
      "Ġpres": 806,
      "Ġsc": 807,
      "Ġcould": 808,
      "ful": 809,
      "ered": 810,
      "uch": 811,
      "ever": 812,
      "ility": 813,
      "ology": 814,
      "ually": 815,
      "Ġfound": 816,
      "ural": 817,
      "Ġinv": 818,
      "Ġour": 819,
      "ife": 820,
      "ĠAs": 821,
      "Ġadd": 822,
      "Ġsupp": 823,
      "ants": 824,
      "ink": 825,
      "ins": 826,
      "own": 827,
      "Ġhigh": 828,
      "ines": 829,
      "Ġtrans": 830,
      "ormation": 831,
      "ism": 832,
      "Ġpr": 833,
      "Ġcall": 834,
      "ick": 835,
      "ved": 836,
      "..": 837,
      "Ġwhere": 838,
      "sel": 839,
      "Ġshould": 840,
      "Ġmod": 841,
      "Ġexam": 842,
      "ily": 843,
      "ident": 844,
      "Ġinter": 845,
      "Ġwell": 846,
      "ract": 847,
      "ivers": 848,
      "xt": 849,
      "ict": 850,
      "ature": 851,
      "Ġupper": 852,
      "Ġty": 853,
      "Ġcar": 854,
      "Ġpol": 855,
      "Ġref": 856,
      "gy": 857,
      "cient": 858,
      "Ġafter": 859,
      "Ġinst": 860,
      "Ġdet": 861,
      "Ġgener": 862,
      "urn": 863,
      "19": 864,
      "Ġlong": 865,
      "cer": 866,
      "wn": 867,
      "Ġhelp": 868,
      "ds": 869,
      "cept": 870,
      "Ġco": 871,
      "Ġext": 872,
      "Ġsim": 873,
      "cent": 874,
      "10": 875,
      "vent": 876,
      "Ġhum": 877,
      "Ġeffect": 878,
      "Ġpers": 879,
      "Ġbu": 880,
      "Ġimport": 881,
      "chool": 882,
      "Ġincre": 883,
      "ĠAl": 884,
      "chn": 885,
      "ĠRe": 886,
      "ases": 887,
      "ĠPro": 888,
      "Ġdifferent": 889,
      "Ġed": 890,
      "Ġdist": 891,
      "Ġbecause": 892,
      "ically": 893,
      "other": 894,
      "Ġresult": 895,
      "Ġvar": 896,
      "Ġthen": 897,
      "the": 898,
      "ollow": 899,
      "Ġsign": 900,
      "Ġvery": 901,
      "Ġcount": 902,
      "Ġeach": 903,
      ".\"": 904,
      "||": 905,
      "con": 906,
      "itt": 907,
      "iew": 908,
      "Ġdef": 909,
      "Ġmed": 910,
      "ck": 911,
      "Ġgo": 912,
      "Ġduring": 913,
      "omm": 914,
      "Ġpartic": 915,
      "ars": 916,
      "Ġmake": 917,
      "Ġspe": 918,
      "Ġloc": 919,
      ".,": 920,
      "Ġinformation": 921,
      "Ġpub": 922,
      "Ġcell": 923,
      "ages": 924,
      "Ġchildren": 925,
      "Ġocc": 926,
      "ros": 927,
      "ĠNew": 928,
      "arm": 929,
      "outh": 930,
      "Ġmon": 931,
      "ruct": 932,
      "Ġsmall": 933,
      "Ġresp": 934,
      "ness": 935,
      "ized": 936,
      "Ġworld": 937,
      "ĠAr": 938,
      "000": 939,
      "Ġthose": 940,
      "iron": 941,
      "hem": 942,
      "Ġeven": 943,
      "Ġ6": 944,
      "Ġdep": 945,
      "overn": 946,
      "Ġprog": 947,
      "Ġher": 948,
      "get": 949,
      "Ġdisc": 950,
      "ues": 951,
      "Ġfact": 952,
      "Ġset": 953,
      "Ġsaid": 954,
      "Ġgra": 955,
      "ork": 956,
      "ale": 957,
      "ather": 958,
      "ection": 959,
      "Ġsee": 960,
      "Ġsame": 961,
      "Ġmade": 962,
      "Ġpat": 963,
      "ody": 964,
      "Ġhealth": 965,
      "Ġ199": 966,
      "Ġpop": 967,
      "iversity": 968,
      "oy": 969,
      "orn": 970,
      "Ġfollow": 971,
      "gg": 972,
      "Ġass": 973,
      "Ġgrou": 974,
      "ĠCon": 975,
      "ury": 976,
      "Ġmuch": 977,
      "Ġtest": 978,
      "orth": 979,
      "Ġabove": 980,
      "ex": 981,
      "ives": 982,
      "Ġexper": 983,
      "iel": 984,
      "Ġget": 985,
      "ata": 986,
      "Ġdise": 987,
      "ef": 988,
      "ety": 989,
      "Ġprocess": 990,
      "aking": 991,
      "ĠAn": 992,
      "led": 993,
      "Ġent": 994,
      "Ġway": 995,
      "ran": 996,
      "rect": 997,
      "Ġlevel": 998,
      "ward": 999,
      "Ġleft": 1000,
      "any": 1001,
      "Ġstudy": 1002,
      "ished": 1003,
      "Ġbeing": 1004,
      "Th": 1005,
      "ĠThey": 1006,
      "Ġjust": 1007,
      "imate": 1008,
      "Ġca": 1009,
      "ince": 1010,
      "ize": 1011,
      "Ġend": 1012,
      "Ġcalled": 1013,
      "ined": 1014,
      "Ġproble": 1015,
      "io": 1016,
      "Ġhist": 1017,
      "Ġrequ": 1018,
      "Ġaut": 1019,
      "rop": 1020,
      "Ġfam": 1021,
      "12": 1022,
      "Ġdec": 1023,
      "ĠFor": 1024,
      "Ġart": 1025,
      "Ġstudents": 1026,
      "Ġcre": 1027,
      "hers": 1028,
      "Ġnumber": 1029,
      "Ġoften": 1030,
      "Ġboth": 1031,
      "Ġimportant": 1032,
      "Ġtreat": 1033,
      "ral": 1034,
      "Ġsk": 1035,
      "und": 1036,
      "ix": 1037,
      "Ġke": 1038,
      "read": 1039,
      "Ġlead": 1040,
      "Ġcur": 1041,
      "ĠInd": 1042,
      "Ġlarge": 1043,
      "ute": 1044,
      "ergy": 1045,
      "Ġstr": 1046,
      "ax": 1047,
      "Ġelect": 1048,
      "Ġexpl": 1049,
      "Ġlear": 1050,
      "gen": 1051,
      "Ġshe": 1052,
      "Ġlife": 1053,
      "inal": 1054,
      "rol": 1055,
      "Ġland": 1056,
      "Ġtechn": 1057,
      "Ġfood": 1058,
      "Ġshow": 1059,
      "lower": 1060,
      "Ġgl": 1061,
      "ock": 1062,
      "Ġmin": 1063,
      "ty": 1064,
      "Ġcomple": 1065,
      "viron": 1066,
      "ting": 1067,
      "Ġbefore": 1068,
      "Ġest": 1069,
      ",\"": 1070,
      "Ġcommun": 1071,
      "Ġless": 1072,
      "Ġread": 1073,
      "Ġbelow": 1074,
      "Ġgrow": 1075,
      "ĠSp": 1076,
      "Ġav": 1077,
      "ulation": 1078,
      "Ġfind": 1079,
      "Ġcommon": 1080,
      "oh": 1081,
      "Ġsec": 1082,
      "Ġagain": 1083,
      "ides": 1084,
      "Ġstate": 1085,
      "ĠIf": 1086,
      "lap": 1087,
      "Ġown": 1088,
      "nce": 1089,
      "Ġ10": 1090,
      "Ġposs": 1091,
      "form": 1092,
      "Ġthree": 1093,
      "ier": 1094,
      "Ġplan": 1095,
      "Ġchar": 1096,
      "ger": 1097,
      "Ġcap": 1098,
      "Ġevery": 1099,
      "11": 1100,
      "omen": 1101,
      "ivid": 1102,
      "Ġval": 1103,
      "Ġins": 1104,
      "Ġback": 1105,
      "der": 1106,
      "acter": 1107,
      "Ġmem": 1108,
      "Ġprot": 1109,
      "Ġcond": 1110,
      "ains": 1111,
      "Ġorgan": 1112,
      "Ġdoes": 1113,
      "Ġknown": 1114,
      "âĢĶ": 1115,
      "ĠHow": 1116,
      "Ġsol": 1117,
      "aj": 1118,
      "ient": 1119,
      "ters": 1120,
      "ices": 1121,
      "Ġspecies": 1122,
      "Ġ7": 1123,
      "ĠWe": 1124,
      "Ġresearch": 1125,
      "ĠUniversity": 1126,
      "Ġperson": 1127,
      "ave": 1128,
      "Ġschool": 1129,
      "iod": 1130,
      "Ġpower": 1131,
      "hip": 1132,
      "ven": 1133,
      "up": 1134,
      "ves": 1135,
      "oms": 1136,
      "ah": 1137,
      "Ġmain": 1138,
      "Ġclass": 1139,
      "agn": 1140,
      "Ġnow": 1141,
      "aterial": 1142,
      "ton": 1143,
      "cience": 1144,
      "iqu": 1145,
      "Ġblood": 1146,
      "Ġhuman": 1147,
      "Ġactiv": 1148,
      "ĠAmerican": 1149,
      "ĠâĢĵ": 1150,
      "Ġbody": 1151,
      "vironment": 1152,
      "Ġusing": 1153,
      "uss": 1154,
      "itions": 1155,
      "Ġexample": 1156,
      "air": 1157,
      "Ġgovern": 1158,
      "Ġbo": 1159,
      "Ġris": 1160,
      "ted": 1161,
      "ĠSe": 1162,
      "Ġcontin": 1163,
      "Ġmet": 1164,
      "Ġ8": 1165,
      "rent": 1166,
      "'t": 1167,
      "akes": 1168,
      "Ġfun": 1169,
      "ving": 1170,
      "Ġwhile": 1171,
      "com": 1172,
      "rain": 1173,
      "Ġequ": 1174,
      "ium": 1175,
      "Ġcaus": 1176,
      "Ġ9": 1177,
      "Ġconst": 1178,
      "Ġbel": 1179,
      "osed": 1180,
      "Ġvis": 1181,
      "stand": 1182,
      "What": 1183,
      "ash": 1184,
      "Ġpoint": 1185,
      "Ġret": 1186,
      "raph": 1187,
      "Ġincluding": 1188,
      "Ġaround": 1189,
      "Ġser": 1190,
      "upper": 1191,
      "Ġdisease": 1192,
      "ĠIs": 1193,
      "Ġmust": 1194,
      "Ġdata": 1195,
      "ĠDe": 1196,
      "bers": 1197,
      "Ġlight": 1198,
      "Ġoccur": 1199,
      "âĢĵ": 1200,
      "eral": 1201,
      "Ġtem": 1202,
      "Ġscient": 1203,
      "Ġconf": 1204,
      "Ġdesign": 1205,
      "ull": 1206,
      "omet": 1207,
      "Ġdid": 1208,
      "Ġsl": 1209,
      "de": 1210,
      "Ġair": 1211,
      "Ġreport": 1212,
      "ected": 1213,
      "illion": 1214,
      "Ġday": 1215,
      "Ġredu": 1216,
      "Ġsym": 1217,
      "ĠEng": 1218,
      "ring": 1219,
      "ians": 1220,
      "Ġdown": 1221,
      "Ġcor": 1222,
      "ared": 1223,
      "ĠUnited": 1224,
      "ources": 1225,
      "lish": 1226,
      "man": 1227,
      "Ġhim": 1228,
      "Ġserv": 1229,
      "Ġconsid": 1230,
      "Ġgood": 1231,
      "ĠBut": 1232,
      "Ġarea": 1233,
      "Ġmat": 1234,
      "ional": 1235,
      "here": 1236,
      "ĠThese": 1237,
      "Ġsupport": 1238,
      "Ġhand": 1239,
      "This": 1240,
      "Ġmaterial": 1241,
      "ality": 1242,
      "ouse": 1243,
      "els": 1244,
      "to": 1245,
      "Ġgreat": 1246,
      "Ġtake": 1247,
      "Ġmeas": 1248,
      "ids": 1249,
      "Ġchang": 1250,
      "soci": 1251,
      "ross": 1252,
      "Ġtyp": 1253,
      "angu": 1254,
      "way": 1255,
      "ets": 1256,
      "ital": 1257,
      "arc": 1258,
      "Ġthough": 1259,
      "ĠPh": 1260,
      "iver": 1261,
      "uro": 1262,
      "Ġgre": 1263,
      "Ġinclude": 1264,
      "ug": 1265,
      "ological": 1266,
      "Ġmil": 1267,
      "Ġallow": 1268,
      "Ġanim": 1269,
      "lear": 1270,
      "day": 1271,
      "Ġearly": 1272,
      "ained": 1273,
      "ĠRes": 1274,
      "oun": 1275,
      "Ġenergy": 1276,
      "ination": 1277,
      "ĠStates": 1278,
      "ajor": 1279,
      "Ġmy": 1280,
      "Ġwithin": 1281,
      "ior": 1282,
      "ield": 1283,
      "Ġfew": 1284,
      "Ġphys": 1285,
      "Ġwar": 1286,
      ".âĢĿ": 1287,
      "Ġdirect": 1288,
      "gin": 1289,
      "ired": 1290,
      "Ġop": 1291,
      "ration": 1292,
      "Ġpublic": 1293,
      "20": 1294,
      "eng": 1295,
      "atural": 1296,
      "Ġpresent": 1297,
      "Ġstill": 1298,
      "iven": 1299,
      "Ġdesc": 1300,
      "ĠSo": 1301,
      "Ġimm": 1302,
      "Ġnear": 1303,
      "Ġappro": 1304,
      "rodu": 1305,
      "Ġstand": 1306,
      "lished": 1307,
      "Ġsever": 1308,
      "osp": 1309,
      "me": 1310,
      "ization": 1311,
      "Ġwrit": 1312,
      "Ġlook": 1313,
      "ries": 1314,
      "iving": 1315,
      "Ġhy": 1316,
      "Ġcells": 1317,
      "ission": 1318,
      "atic": 1319,
      "ole": 1320,
      "Ġbeh": 1321,
      "ern": 1322,
      "ified": 1323,
      "Ġchange": 1324,
      "Ġinc": 1325,
      "self": 1326,
      "ĠEar": 1327,
      "ense": 1328,
      "Ġadv": 1329,
      "ĠAt": 1330,
      "ource": 1331,
      "ites": 1332,
      "Ġfore": 1333,
      "ograph": 1334,
      "olution": 1335,
      "ertain": 1336,
      "Ġperiod": 1337,
      "ĠNational": 1338,
      "Ġvari": 1339,
      "Ġdevelopment": 1340,
      "ĠThere": 1341,
      "Ġanother": 1342,
      "Ġmight": 1343,
      "ien": 1344,
      "conom": 1345,
      "Ġbuild": 1346,
      "Ġant": 1347,
      "Ġplace": 1348,
      "Ġquest": 1349,
      "bs": 1350,
      "Ġ17": 1351,
      "ats": 1352,
      "Ġpass": 1353,
      "Ġ15": 1354,
      "Ġcour": 1355,
      "Ġrad": 1356,
      "Ġindivid": 1357,
      "ris": 1358,
      "though": 1359,
      "ĠCol": 1360,
      "ason": 1361,
      "Ġenvironment": 1362,
      "att": 1363,
      "Ġareas": 1364,
      "Ġmajor": 1365,
      "hy": 1366,
      "Ġident": 1367,
      "Ġcare": 1368,
      "Ġsecond": 1369,
      "Ġcause": 1370,
      "Ġseveral": 1371,
      "Ġter": 1372,
      "Ġmeth": 1373,
      "Ġide": 1374,
      "Ġdem": 1375,
      "Ġ[": 1376,
      "Ġbre": 1377,
      "Ġele": 1378,
      "Ġstart": 1379,
      "ision": 1380,
      "itive": 1381,
      "lu": 1382,
      "ffic": 1383,
      "Ġlaw": 1384,
      "face": 1385,
      "arent": 1386,
      "Ġgovernment": 1387,
      "Ġbas": 1388,
      "Ġpercent": 1389,
      "Ġorig": 1390,
      "Ġunderstand": 1391,
      "Ġcontrol": 1392,
      "Ġgroup": 1393,
      "ording": 1394,
      "ently": 1395,
      "ner": 1396,
      "Ġwithout": 1397,
      "ived": 1398,
      "hor": 1399,
      "ccess": 1400,
      "az": 1401,
      "Ġtre": 1402,
      "eg": 1403,
      "Ġmove": 1404,
      "Ġeas": 1405,
      "Ġlow": 1406,
      "ime": 1407,
      "Ġmus": 1408,
      "Ġeduc": 1409,
      "Ġve": 1410,
      "ww": 1411,
      "ĠAnd": 1412,
      "ator": 1413,
      "Ġes": 1414,
      "Ġagainst": 1415,
      "Ġpar": 1416,
      "ĠCl": 1417,
      "Ġunt": 1418,
      "Ġparticular": 1419,
      "Ġhistory": 1420,
      "Ġold": 1421,
      "Ġrisk": 1422,
      "ik": 1423,
      "erest": 1424,
      "Ġgu": 1425,
      "200": 1426,
      "par": 1427,
      "ĠAd": 1428,
      "less": 1429,
      "ential": 1430,
      "ption": 1431,
      "Ġpos": 1432,
      "Ġpract": 1433,
      "Ġbir": 1434,
      "Ġleg": 1435,
      "Ġrest": 1436,
      "Ġlangu": 1437,
      "Ġbelie": 1438,
      "Ġpur": 1439,
      "ox": 1440,
      "sy": 1441,
      "Ġ'": 1442,
      "ailable": 1443,
      "ina": 1444,
      "Ġlast": 1445,
      "ĠCan": 1446,
      "Ġoper": 1447,
      "ĠSh": 1448,
      "Ġ&": 1449,
      "urope": 1450,
      "Ġcult": 1451,
      "13": 1452,
      "Ġsays": 1453,
      "stit": 1454,
      "rist": 1455,
      "idence": 1456,
      "imes": 1457,
      "Ġpot": 1458,
      "Ġusually": 1459,
      "Ġobs": 1460,
      "etic": 1461,
      "Ġwomen": 1462,
      "Ġobject": 1463,
      "ards": 1464,
      "ĠHowever": 1465,
      "itional": 1466,
      "Ġcurrent": 1467,
      "Ġbecome": 1468,
      "ĠPl": 1469,
      "amp": 1470,
      "Ġeng": 1471,
      "Ġproject": 1472,
      "Ġbi": 1473,
      "ote": 1474,
      "ilar": 1475,
      "ering": 1476,
      "\".": 1477,
      "une": 1478,
      "ĠCent": 1479,
      "Ġfour": 1480,
      "ify": 1481,
      "view": 1482,
      "tt": 1483,
      "ided": 1484,
      "ĠComm": 1485,
      "Ġ0": 1486,
      "Ġprof": 1487,
      "Ġiss": 1488,
      "use": 1489,
      "abor": 1490,
      "ĠEn": 1491,
      "Ġprogram": 1492,
      "cing": 1493,
      "ames": 1494,
      "alk": 1495,
      "ĠEx": 1496,
      "Ġproper": 1497,
      "Ġcentury": 1498,
      "Ġlim": 1499,
      "Ġet": 1500,
      "of": 1501,
      "Ġtreatment": 1502,
      "Ġinvol": 1503,
      "ned": 1504,
      "Ġpossible": 1505,
      "ability": 1506,
      "Ġprop": 1507,
      "Ġplay": 1508,
      "ĠZ": 1509,
      "ead": 1510,
      "Ġ198": 1511,
      "Ġeconom": 1512,
      "Ġlater": 1513,
      "Ġopp": 1514,
      "Ġmen": 1515,
      "Ġfre": 1516,
      "ĠEurope": 1517,
      "irc": 1518,
      "ctor": 1519,
      "ĠBrit": 1520,
      "Ġorder": 1521,
      "Ġsince": 1522,
      "ĠAf": 1523,
      "iter": 1524,
      "18": 1525,
      "Ġproduct": 1526,
      "Ġvol": 1527,
      "Ġfollowing": 1528,
      "ended": 1529,
      "Ġaffect": 1530,
      "ples": 1531,
      "Ġamong": 1532,
      "ably": 1533,
      "atory": 1534,
      "Ġpress": 1535,
      "Ġnon": 1536,
      "ĠEarth": 1537,
      "Ġstruct": 1538,
      "ope": 1539,
      "Ġcancer": 1540,
      "Ġ.": 1541,
      "icle": 1542,
      "Ġcal": 1543,
      "ental": 1544,
      "Ġtimes": 1545,
      "Ġmethod": 1546,
      "Ġhig": 1547,
      "Ġthink": 1548,
      ",âĢĿ": 1549,
      "Ġinterest": 1550,
      "Ġhead": 1551,
      "Ġnatural": 1552,
      "Ġ16": 1553,
      "Ġtemper": 1554,
      "Ġsocial": 1555,
      "ggest": 1556,
      "Ġmar": 1557,
      "ories": 1558,
      "min": 1559,
      "resent": 1560,
      "Ġ12": 1561,
      "ĠQ": 1562,
      "ĠWhen": 1563,
      "Ġvir": 1564,
      "Ġimpro": 1565,
      "ĠWh": 1566,
      "Ġgiven": 1567,
      "Ġresearc": 1568,
      "ones": 1569,
      "Ġappear": 1570,
      "Ġuntil": 1571,
      "ĠYou": 1572,
      "Ġavailable": 1573,
      "Ġspace": 1574,
      "oint": 1575,
      "Ġanal": 1576,
      "Ġpain": 1577,
      "ittle": 1578,
      "cially": 1579,
      "Ġname": 1580,
      "Ġtype": 1581,
      "Ġprovide": 1582,
      "oid": 1583,
      "ae": 1584,
      "ĠâĢĶ": 1585,
      "SA": 1586,
      "Ġdev": 1587,
      "Ġgr": 1588,
      "ots": 1589,
      "Ġel": 1590,
      "ank": 1591,
      "omp": 1592,
      "orld": 1593,
      "Ġmillion": 1594,
      "Ġfamily": 1595,
      "ither": 1596,
      "Ġview": 1597,
      "Ġprevent": 1598,
      "Ġsuggest": 1599,
      "ĠGerm": 1600,
      "Ġproblems": 1601,
      "Ġheart": 1602,
      "ohn": 1603,
      "ptoms": 1604,
      "ogn": 1605,
      "ining": 1606,
      "urther": 1607,
      "Ġage": 1608,
      "ths": 1609,
      "Ġdeterm": 1610,
      "Ġsw": 1611,
      "Ġpopulation": 1612,
      "It": 1613,
      "Ġmeans": 1614,
      "be": 1615,
      "line": 1616,
      "ills": 1617,
      "Ġamount": 1618,
      "Ġtop": 1619,
      "ged": 1620,
      "Ġcertain": 1621,
      "Ġmark": 1622,
      "Ġsurface": 1623,
      "rap": 1624,
      "ways": 1625,
      "ĠMed": 1626,
      "ĠWar": 1627,
      "Ġben": 1628,
      "Ġopen": 1629,
      "Ġperform": 1630,
      "Ġplant": 1631,
      "pr": 1632,
      "Ġhere": 1633,
      "aken": 1634,
      "Ġfar": 1635,
      "Ġbased": 1636,
      "Ġlevels": 1637,
      "Ġtoo": 1638,
      "ĠOr": 1639,
      "50": 1640,
      "Ġmean": 1641,
      "Ġche": 1642,
      "Ġsignific": 1643,
      "Ġable": 1644,
      "Ġbro": 1645,
      "Ġhowever": 1646,
      "Ġhome": 1647,
      "Ġrece": 1648,
      "Ġchem": 1649,
      "ured": 1650,
      "__": 1651,
      "Ġtri": 1652,
      "Ġalong": 1653,
      "ĠAfric": 1654,
      "Ġcomput": 1655,
      "...": 1656,
      "ĠLe": 1657,
      "Ġassoci": 1658,
      "ĠTe": 1659,
      "Ġtrad": 1660,
      "ances": 1661,
      "Ġrecord": 1662,
      "Ġothers": 1663,
      "ention": 1664,
      "ling": 1665,
      "NA": 1666,
      "ends": 1667,
      "Ġindu": 1668,
      "pect": 1669,
      "ont": 1670,
      "Ġsay": 1671,
      "Ġcountry": 1672,
      "Ġcomb": 1673,
      "ĠOn": 1674,
      "Ġreal": 1675,
      "ĠAll": 1676,
      "Ġsimilar": 1677,
      "Ġlocal": 1678,
      "Ġsuccess": 1679,
      "Ġsing": 1680,
      "Ġwant": 1681,
      "Ġshort": 1682,
      "Ġbrain": 1683,
      "ised": 1684,
      "Ġlist": 1685,
      "Ġproblem": 1686,
      "bel": 1687,
      "Ġbetter": 1688,
      "Ġestab": 1689,
      "Ġpri": 1690,
      "ormal": 1691,
      "ape": 1692,
      "ym": 1693,
      "Ġbecame": 1694,
      "aves": 1695,
      "Ġer": 1696,
      "por": 1697,
      "icult": 1698,
      "Ġbest": 1699,
      "Ġcharacter": 1700,
      "Ġdescrib": 1701,
      "Ġdon": 1702,
      "not": 1703,
      "ane": 1704,
      "Ġconditions": 1705,
      "Ġdel": 1706,
      "ĠTo": 1707,
      "Ġlanguage": 1708,
      "ients": 1709,
      "ley": 1710,
      "Ġcase": 1711,
      "Ġchanges": 1712,
      "Ġexist": 1713,
      "Ġrelation": 1714,
      "ales": 1715,
      "ĠNorth": 1716,
      "Ġwee": 1717,
      "aper": 1718,
      "ternational": 1719,
      "ĠBe": 1720,
      "Ġpolit": 1721,
      "Ġresearchers": 1722,
      "ression": 1723,
      "Ġauthor": 1724,
      "Ġyoung": 1725,
      "Ġrun": 1726,
      "Ġfunction": 1727,
      "Ġsystems": 1728,
      "idd": 1729,
      "Ġturn": 1730,
      "âĢľ": 1731,
      "ler": 1732,
      "ately": 1733,
      "ĠChrist": 1734,
      "ĠJohn": 1735,
      "oks": 1736,
      "br": 1737,
      "Ġcirc": 1738,
      "Ġterm": 1739,
      "Ġline": 1740,
      "Ġsymptoms": 1741,
      "Ġdays": 1742,
      "bon": 1743,
      "Ġlittle": 1744,
      "amm": 1745,
      "ĠGe": 1746,
      "Ġlikely": 1747,
      "Ġprim": 1748,
      "Ġnorth": 1749,
      "Ġill": 1750,
      "Ġspecial": 1751,
      "vious": 1752,
      "ung": 1753,
      "Ġdeath": 1754,
      "Ġgeneral": 1755,
      "Ġmov": 1756,
      "Ġkeep": 1757,
      "aps": 1758,
      "by": 1759,
      "ands": 1760,
      "atial": 1761,
      "nal": 1762,
      "Ġresults": 1763,
      "most": 1764,
      "ĠWorld": 1765,
      "Ġfree": 1766,
      "ience": 1767,
      "ĠGen": 1768,
      "ators": 1769,
      "Ġdra": 1770,
      "ored": 1771,
      "ruction": 1772,
      "ray": 1773,
      "Ġfin": 1774,
      "ued": 1775,
      "pecially": 1776,
      "Ġlo": 1777,
      "Ġflu": 1778,
      "Ġmult": 1779,
      "aces": 1780,
      "mber": 1781,
      "alf": 1782,
      "Ġflow": 1783,
      "Ġplants": 1784,
      "app": 1785,
      "ences": 1786,
      "cul": 1787,
      "oman": 1788,
      "Ġdam": 1789,
      "Ġsouth": 1790,
      "af": 1791,
      "Ġrele": 1792,
      "aining": 1793,
      "orts": 1794,
      "Ġpred": 1795,
      "ĠSome": 1796,
      "Ġsignificant": 1797,
      "Ġbegin": 1798,
      "ribut": 1799,
      "acc": 1800,
      "Ġcost": 1801,
      "Ġey": 1802,
      "lement": 1803,
      "Ġspatial": 1804,
      "ode": 1805,
      "Ġinflu": 1806,
      "Ġseem": 1807,
      "erc": 1808,
      "ember": 1809,
      "overed": 1810,
      "Ġtru": 1811,
      "Ġdue": 1812,
      "Ġbehav": 1813,
      "Ġmass": 1814,
      "Ġleast": 1815,
      "Ġpast": 1816,
      "Ġ197": 1817,
      "Ġobserv": 1818,
      "rug": 1819,
      "Ġrepresent": 1820,
      "ret": 1821,
      "ott": 1822,
      "Ġdifficult": 1823,
      "Ġsaf": 1824,
      "val": 1825,
      "Ġ--": 1826,
      "ciety": 1827,
      "Ġpost": 1828,
      "Ġincrease": 1829,
      "Ġground": 1830,
      "Ġindic": 1831,
      "Ġspecific": 1832,
      "Ġcome": 1833,
      "ware": 1834,
      "atures": 1835,
      "Ġhard": 1836,
      "osis": 1837,
      "Ġz": 1838,
      "Ġhapp": 1839,
      "Ġput": 1840,
      "ĠCar": 1841,
      "Ġlet": 1842,
      "Ġ|": 1843,
      "Ġsite": 1844,
      "let": 1845,
      "Ġwords": 1846,
      "obal": 1847,
      "Ġside": 1848,
      "isc": 1849,
      "Ġcases": 1850,
      "ĠJew": 1851,
      "ially": 1852,
      "Ġbook": 1853,
      "ilt": 1854,
      "cle": 1855,
      "Ġprom": 1856,
      "Ġscientists": 1857,
      "ĠBl": 1858,
      "ĠAmerica": 1859,
      "aced": 1860,
      "Ġmedic": 1861,
      "Ġoverlap": 1862,
      "ĠSouth": 1863,
      "Ġgroups": 1864,
      "ending": 1865,
      "iation": 1866,
      "ann": 1867,
      "ĠCal": 1868,
      "erence": 1869,
      "eb": 1870,
      "ivil": 1871,
      "Ġeffects": 1872,
      "ometimes": 1873,
      "Ġclear": 1874,
      "Ġdeveloped": 1875,
      "ĠEnglish": 1876,
      "Ġlearn": 1877,
      "ument": 1878,
      "asing": 1879,
      "If": 1880,
      "elf": 1881,
      "iam": 1882,
      "Ġ14": 1883,
      "ges": 1884,
      "sp": 1885,
      "Ġhigher": 1886,
      "Ġthings": 1887,
      "sc": 1888,
      "plic": 1889,
      "Ġcy": 1890,
      "ively": 1891,
      "earch": 1892,
      "ĠSc": 1893,
      "Ġstrong": 1894,
      "Ġcountries": 1895,
      "ĠYork": 1896,
      "aim": 1897,
      "Ġtoget": 1898,
      "Ġtogether": 1899,
      "ĠGod": 1900,
      "aster": 1901,
      "Ġanimals": 1902,
      "for": 1903,
      "Ġteac": 1904,
      "work": 1905,
      "As": 1906,
      "--": 1907,
      "oon": 1908,
      "Ġstudies": 1909,
      "Ġconn": 1910,
      ".)": 1911,
      "above": 1912,
      "ledge": 1913,
      "Ġmic": 1914,
      "Ġimpact": 1915,
      "Ġteam": 1916,
      "below": 1917,
      "Ġenc": 1918,
      "ee": 1919,
      "Ġespecially": 1920,
      "Ġnecess": 1921,
      "iness": 1922,
      "Ġwind": 1923,
      "Ġsum": 1924,
      "Ġindust": 1925,
      "Ġscience": 1926,
      "ĠHealth": 1927,
      "Ġcomplete": 1928,
      "ches": 1929,
      "ober": 1930,
      "Ġast": 1931,
      "Ġaccess": 1932,
      "Ġmot": 1933,
      "istic": 1934,
      "obj": 1935,
      "15": 1936,
      "ĠWhat": 1937,
      "ique": 1938,
      "Ġ30": 1939,
      "Ġcreat": 1940,
      "ublic": 1941,
      "Ġcrit": 1942,
      "Ġtypes": 1943,
      "Ġvarious": 1944,
      "Ġcolle": 1945,
      "Ġnext": 1946,
      "30": 1947,
      "ĠMay": 1948,
      "ĠHist": 1949,
      "Ġri": 1950,
      "sw": 1951,
      "overlap": 1952,
      "ĠMar": 1953,
      "ocus": 1954,
      "Ġmaking": 1955,
      "Ġdiscuss": 1956,
      "edi": 1957,
      "Ġclimate": 1958,
      "Ġsun": 1959,
      "An": 1960,
      "oph": 1961,
      "ils": 1962,
      "Ġfil": 1963,
      "St": 1964,
      "my": 1965,
      "ours": 1966,
      "uture": 1967,
      "itu": 1968,
      "):": 1969,
      "Ġclose": 1970,
      "ird": 1971,
      "Ġenough": 1972,
      "Ġbenef": 1973,
      "Ġlearning": 1974,
      "Ġactivity": 1975,
      "Ġaway": 1976,
      "Ġfield": 1977,
      "Ġtoday": 1978,
      "Ġfurther": 1979,
      "Ġeither": 1980,
      "lands": 1981,
      "enn": 1982,
      "Ġevidence": 1983,
      "Ġparent": 1984,
      "14": 1985,
      "Ġsingle": 1986,
      "Ġur": 1987,
      "ency": 1988,
      "rad": 1989,
      "Ġwhether": 1990,
      "unt": 1991,
      "Ġoffic": 1992,
      "iting": 1993,
      "Ġrange": 1994,
      "Ġsize": 1995,
      "Ġge": 1996,
      "ploy": 1997,
      "port": 1998,
      "Ġsource": 1999,
      "omes": 2000,
      "Ġphot": 2001,
      "inci": 2002,
      "Ġred": 2003,
      "eter": 2004,
      "Ġsits": 2005,
      "ison": 2006,
      "itary": 2007,
      "Ġfrequ": 2008,
      "urch": 2009,
      "Ġdr": 2010,
      "Ġnational": 2011,
      "We": 2012,
      "like": 2013,
      "Ġprofess": 2014,
      "ĠBritish": 2015,
      "Ġseen": 2016,
      "ipp": 2017,
      "Ġprob": 2018,
      "Ġdeg": 2019,
      "Ġindividual": 2020,
      "ification": 2021,
      "Ġcommunity": 2022,
      "Ġacross": 2023,
      "16": 2024,
      "Ġpressure": 2025,
      "Ġgas": 2026,
      "ule": 2027,
      "itor": 2028,
      "atch": 2029,
      "org": 2030,
      "ilities": 2031,
      "ĠX": 2032,
      "Ġkind": 2033,
      "Ġsubject": 2034,
      "eds": 2035,
      "ortun": 2036,
      "yn": 2037,
      "Ġ196": 2038,
      "abit": 2039,
      "ateg": 2040,
      "acy": 2041,
      "selves": 2042,
      "Ġdri": 2043,
      "Ġrespons": 2044,
      "Ġblack": 2045,
      "estern": 2046,
      "rie": 2047,
      "17": 2048,
      "ĠRep": 2049,
      "duct": 2050,
      "ĠNe": 2051,
      "lo": 2052,
      "Ġtaken": 2053,
      "ĠBy": 2054,
      "There": 2055,
      "Ġeducation": 2056,
      "//": 2057,
      "Ġloss": 2058,
      "oot": 2059,
      "Ġbegan": 2060,
      "Ġnever": 2061,
      "Ġtext": 2062,
      "Ġsens": 2063,
      "Ġfeel": 2064,
      "Ġ$": 2065,
      "ream": 2066,
      "Ġproduction": 2067,
      "sych": 2068,
      "reg": 2069,
      "itud": 2070,
      "Ġgive": 2071,
      "ush": 2072,
      "Ġphysical": 2073,
      "Ġabs": 2074,
      "Ġevent": 2075,
      "Ġeff": 2076,
      "side": 2077,
      "Ġcourse": 2078,
      "Ġinvest": 2079,
      "Ġregion": 2080,
      "ystem": 2081,
      "Ġwhite": 2082,
      "agement": 2083,
      "ires": 2084,
      "ĠAust": 2085,
      "For": 2086,
      "Ġmeasure": 2087,
      "uel": 2088,
      "ething": 2089,
      "Ġfish": 2090,
      "eding": 2091,
      "Ġcity": 2092,
      "ols": 2093,
      "Ġrequire": 2094,
      "Ġfall": 2095,
      "vere": 2096,
      "ĠAb": 2097,
      "Ġdest": 2098,
      "Ġalways": 2099,
      "ournal": 2100,
      "epend": 2101,
      "Ġreturn": 2102,
      "Ġprotect": 2103,
      "Ġask": 2104,
      "omething": 2105,
      "Ġfive": 2106,
      "Ġdom": 2107,
      "Ġconcer": 2108,
      "Ġword": 2109,
      "Ġ13": 2110,
      "Ġrather": 2111,
      "Ġfocus": 2112,
      "Ġresources": 2113,
      "onst": 2114,
      "Ġfull": 2115,
      "ĠAm": 2116,
      "ume": 2117,
      "rel": 2118,
      "amin": 2119,
      "Ġver": 2120,
      "Ġhaving": 2121,
      "reme": 2122,
      "ĠOne": 2123,
      "aching": 2124,
      "sh": 2125,
      "ĠStud": 2126,
      "Ġworks": 2127,
      "Ġcho": 2128,
      "Ġparts": 2129,
      "rams": 2130,
      "Ġupon": 2131,
      "Ġfuture": 2132,
      "ĠState": 2133,
      "Ġreact": 2134,
      "://": 2135,
      "Ġlay": 2136,
      "put": 2137,
      "Ġactivities": 2138,
      "ttp": 2139,
      "iet": 2140,
      "Ġmedical": 2141,
      "Ġstates": 2142,
      "Ġpublished": 2143,
      "Ġdrug": 2144,
      "apan": 2145,
      "ĠâĢĺ": 2146,
      "ysis": 2147,
      "Ġsound": 2148,
      "ĠDep": 2149,
      "Ġmembers": 2150,
      "Ġbr": 2151,
      "Ġ194": 2152,
      "gest": 2153,
      "Ġ=": 2154,
      "ĠInstit": 2155,
      "artment": 2156,
      "Ġcollect": 2157,
      "Ġconsidered": 2158,
      "rict": 2159,
      "Ġcreate": 2160,
      "Ġfac": 2161,
      "Ġvalue": 2162,
      "ĠUS": 2163,
      "Ġconsider": 2164,
      "aut": 2165,
      "Ġrelig": 2166,
      "Ġsent": 2167,
      "Ġwide": 2168,
      "ening": 2169,
      "oles": 2170,
      "Ġtechnology": 2171,
      "Ġapplic": 2172,
      "Ġproduce": 2173,
      "ready": 2174,
      "Ġtot": 2175,
      "yl": 2176,
      "Ġchemical": 2177,
      "Ġrecogn": 2178,
      "olic": 2179,
      "Ġpolitical": 2180,
      "Ġhistor": 2181,
      "cean": 2182,
      "Ġmodern": 2183,
      "Ġgrowth": 2184,
      "Ġadult": 2185,
      "Ġskin": 2186,
      "ened": 2187,
      "Ġways": 2188,
      "ibr": 2189,
      "Ġcaused": 2190,
      "Ġrate": 2191,
      "Ġrole": 2192,
      "Ġincreased": 2193,
      "Ġaddition": 2194,
      "ĠII": 2195,
      "Ġdone": 2196,
      "Ġcame": 2197,
      "ĠIm": 2198,
      "Ġrelations": 2199,
      "opy": 2200,
      "Ġstat": 2201,
      "Ġcreated": 2202,
      "Ġcr": 2203,
      "Ġreason": 2204,
      "ask": 2205,
      "Ġrelated": 2206,
      "pid": 2207,
      "Ġtoward": 2208,
      "Ġmodel": 2209,
      "Ġsomething": 2210,
      "Ġcarbon": 2211,
      "Ġkey": 2212,
      "ĠAct": 2213,
      "ĠGu": 2214,
      "Ġassociated": 2215,
      "Ġess": 2216,
      "Ġsepar": 2217,
      "Ġhalf": 2218,
      "Ġforest": 2219,
      "Ġann": 2220,
      "Ġlive": 2221,
      "Ġpatients": 2222,
      "ery": 2223,
      "199": 2224,
      "Ġbus": 2225,
      "Ġdetail": 2226,
      "illed": 2227,
      "Ġcover": 2228,
      "raft": 2229,
      "fer": 2230,
      "iment": 2231,
      "Ġprote": 2232,
      "Ġdoctor": 2233,
      "Ġneeded": 2234,
      "erve": 2235,
      "Ġrights": 2236,
      "west": 2237,
      "iol": 2238,
      "alt": 2239,
      "Ġmaterials": 2240,
      "roll": 2241,
      "Ġliving": 2242,
      "Ġfund": 2243,
      "Ġarg": 2244,
      "ington": 2245,
      "chie": 2246,
      "Ġitself": 2247,
      "ĠScience": 2248,
      "Ġconcept": 2249,
      "Ġinit": 2250,
      "Ġintrodu": 2251,
      "ĠWith": 2252,
      "Ġthought": 2253,
      "Ġfail": 2254,
      "Ġworking": 2255,
      "Ġwhy": 2256,
      "Ġpaper": 2257,
      "Al": 2258,
      "sequ": 2259,
      "ĠMan": 2260,
      "Ġquestion": 2261,
      "Ġaccount": 2262,
      "Ġdecl": 2263,
      "Ġalready": 2264,
      "Ġtemperature": 2265,
      "rated": 2266,
      "Ġaccording": 2267,
      "acks": 2268,
      "Ġalmost": 2269,
      "Ġport": 2270,
      "Ġarticle": 2271,
      "How": 2272,
      "Ġsuper": 2273,
      "iddle": 2274,
      "Ġsett": 2275,
      "Ġ2012": 2276,
      "inter": 2277,
      "lor": 2278,
      "Ġneeds": 2279,
      "attle": 2280,
      "Ġearth": 2281,
      "ĠCanad": 2282,
      "Ġthemselves": 2283,
      "ese": 2284,
      "Ch": 2285,
      "chan": 2286,
      "Ġknowledge": 2287,
      "pro": 2288,
      "fficient": 2289,
      "Ġengine": 2290,
      "Ġtry": 2291,
      "Ġpolic": 2292,
      "ai": 2293,
      "aring": 2294,
      "Ġcomplex": 2295,
      "ivity": 2296,
      "ables": 2297,
      "Ġentire": 2298,
      "Ġdiagn": 2299,
      "Ġsea": 2300,
      "Ġsam": 2301,
      "ĠJapan": 2302,
      "ibility": 2303,
      "apt": 2304,
      "Ġmonths": 2305,
      "ervation": 2306,
      "Ġmagn": 2307,
      "Ġhold": 2308,
      "ER": 2309,
      "Ġpotential": 2310,
      "Ġ100": 2311,
      "ips": 2312,
      "Ġrelative": 2313,
      "Ġcannot": 2314,
      "Ġpattern": 2315,
      "ried": 2316,
      "ops": 2317,
      "Ġonce": 2318,
      "oll": 2319,
      "Ġec": 2320,
      "Ġsubst": 2321,
      "mb": 2322,
      "ulations": 2323,
      "ederal": 2324,
      "augh": 2325,
      "ĠResearch": 2326,
      "Ġnort": 2327,
      "ront": 2328,
      "ections": 2329,
      "rate": 2330,
      "rown": 2331,
      "rench": 2332,
      "itted": 2333,
      "Ġcolon": 2334,
      "Ġbur": 2335,
      "ma": 2336,
      "Ġnet": 2337,
      "Ġimprove": 2338,
      "uals": 2339,
      "Ġquestions": 2340,
      "thern": 2341,
      "oney": 2342,
      "lying": 2343,
      "Ġdisord": 2344,
      "Ġbacter": 2345,
      "oses": 2346,
      "Ġdoc": 2347,
      "Ġprovided": 2348,
      "Ġsurv": 2349,
      "empt": 2350,
      "ricult": 2351,
      "mosp": 2352,
      "atter": 2353,
      "Ġprinci": 2354,
      "Ġtook": 2355,
      "Ġmakes": 2356,
      "hib": 2357,
      "Ġcondition": 2358,
      "wh": 2359,
      "Ġneg": 2360,
      "Ġspread": 2361,
      "ĠCo": 2362,
      "ĠComp": 2363,
      "Ġled": 2364,
      "Ġarch": 2365,
      "ney": 2366,
      "Ġcomputer": 2367,
      "oura": 2368,
      "Ġwhole": 2369,
      "ensive": 2370,
      "Ġ2011": 2371,
      "ĠThat": 2372,
      "ĠPress": 2373,
      "verage": 2374,
      "Ġcut": 2375,
      "Ġmeet": 2376,
      "Ġhouse": 2377,
      "Ġnature": 2378,
      "ĠEd": 2379,
      "ze": 2380,
      "Ġsoil": 2381,
      "Ġsix": 2382,
      "Ġorigin": 2383,
      "Ġreduce": 2384,
      "Ġbar": 2385,
      "Ġglobal": 2386,
      "ival": 2387,
      "Ġsometimes": 2388,
      "Ġexperience": 2389,
      "ĠNA": 2390,
      "Ġstep": 2391,
      "Ġlab": 2392,
      "Ġnut": 2393,
      "ĠRet": 2394,
      "Ġ2010": 2395,
      "Ġweight": 2396,
      "light": 2397,
      "Ġrequired": 2398,
      "Ġ25": 2399,
      "Ġcauses": 2400,
      "outhern": 2401,
      "ĠPr": 2402,
      "Ġopt": 2403,
      "Ġfactors": 2404,
      "hern": 2405,
      "Ġproduced": 2406,
      "Ġtheory": 2407,
      "Ġwr": 2408,
      "Ġparticip": 2409,
      "bo": 2410,
      "Ġ50": 2411,
      "Ġgenerally": 2412,
      "Ġstructure": 2413,
      "aged": 2414,
      "ĠDr": 2415,
      "Ã©": 2416,
      "Ġnormal": 2417,
      "Ġconsum": 2418,
      "Ġfamil": 2419,
      "Ġforms": 2420,
      "Ġtravel": 2421,
      "Ġsitu": 2422,
      "Ġeconomic": 2423,
      "Ġbig": 2424,
      "lt": 2425,
      "Ġansw": 2426,
      "Ġvirus": 2427,
      "igure": 2428,
      "Ġla": 2429,
      "ĠCont": 2430,
      "Ġbuilding": 2431,
      "Ġself": 2432,
      "Ġachie": 2433,
      "Ġdig": 2434,
      "Ġwild": 2435,
      "Ġnumbers": 2436,
      "Ġthroughout": 2437,
      "Ġsat": 2438,
      "Ġsqu": 2439,
      "Ġvers": 2440,
      "Ġemer": 2441,
      "Ġability": 2442,
      "Ġtotal": 2443,
      "Ġheat": 2444,
      "nces": 2445,
      "Ġproducts": 2446,
      "Ġpurp": 2447,
      "Ġ11": 2448,
      "Ġprovides": 2449,
      "Ġliter": 2450,
      "Ġclaim": 2451,
      "Ġice": 2452,
      "Ġforce": 2453,
      "Ġrecomm": 2454,
      "ĠPres": 2455,
      "thing": 2456,
      "Ġgreen": 2457,
      "ĠEm": 2458,
      "iction": 2459,
      "Ġimage": 2460,
      "ĠÂ": 2461,
      "ĠKing": 2462,
      "fact": 2463,
      "Ġcolor": 2464,
      "Ġmaint": 2465,
      "ores": 2466,
      "Ġgoing": 2467,
      "To": 2468,
      "Ġstudent": 2469,
      "ĠAfter": 2470,
      "Ġcommunic": 2471,
      "Ġrul": 2472,
      "imately": 2473,
      "Ġsimple": 2474,
      "aries": 2475,
      "rought": 2476,
      "Ġfeet": 2477,
      "Ġaddress": 2478,
      "Ġshows": 2479,
      "ID": 2480,
      "When": 2481,
      "abet": 2482,
      "Ġtell": 2483,
      "Ġyet": 2484,
      "urs": 2485,
      "ternal": 2486,
      "Ġlink": 2487,
      "Ġcle": 2488,
      "ĠPe": 2489,
      "Ġquick": 2490,
      "ĠIS": 2491,
      "ĠHis": 2492,
      "Ġrev": 2493,
      "umb": 2494,
      "minist": 2495,
      "Ġstory": 2496,
      "Ġlate": 2497,
      "utes": 2498,
      "Ġox": 2499,
      "Ġactually": 2500,
      "ched": 2501,
      "Ġterms": 2502,
      "Ġhttp": 2503,
      "iding": 2504,
      "vey": 2505,
      "ĠCenter": 2506,
      "Ġprevious": 2507,
      "Ġunderstanding": 2508,
      "Ġoil": 2509,
      "Ġheav": 2510,
      "arily": 2511,
      "Ġbehavior": 2512,
      "oes": 2513,
      "Ġwarm": 2514,
      "ene": 2515,
      "Ġeffective": 2516,
      "Ġfat": 2517,
      "ĠWill": 2518,
      "icles": 2519,
      "amed": 2520,
      "Ġgreater": 2521,
      "Ġcontact": 2522,
      "Ġnecessary": 2523,
      "Ġconduct": 2524,
      "mon": 2525,
      "rial": 2526,
      "ĠCalif": 2527,
      "rans": 2528,
      "rieved": 2529,
      "Ġbuilt": 2530,
      "Ġmatter": 2531,
      "Ġrecent": 2532,
      "onse": 2533,
      "\",": 2534,
      "lex": 2535,
      "dom": 2536,
      "ĠInstitute": 2537,
      "Ġposition": 2538,
      "ript": 2539,
      "Ġlonger": 2540,
      "idge": 2541,
      "Ġinfection": 2542,
      "irm": 2543,
      "son": 2544,
      "heast": 2545,
      "usion": 2546,
      "ĠShe": 2547,
      "IV": 2548,
      "rapy": 2549,
      "Ġfem": 2550,
      "Ġquality": 2551,
      "inary": 2552,
      "Ġpage": 2553,
      "hing": 2554,
      "Ġfire": 2555,
      "Ġsex": 2556,
      "Ġincreasing": 2557,
      "Ġ2009": 2558,
      "Ġmole": 2559,
      "ĠGerman": 2560,
      "Ġago": 2561,
      "Ġshown": 2562,
      "Ġsources": 2563,
      "ĠPar": 2564,
      "Ġrepl": 2565,
      "Ġidea": 2566,
      "Ġthreat": 2567,
      "ength": 2568,
      "ashington": 2569,
      "Ġenvironmental": 2570,
      "Ġmor": 2571,
      "Ġuses": 2572,
      "ĠInf": 2573,
      "ump": 2574,
      "Ġmechan": 2575,
      "ĠRiver": 2576,
      "25": 2577,
      "Ġpoll": 2578,
      "ĠFrench": 2579,
      "ging": 2580,
      "Ġatmosp": 2581,
      "ached": 2582,
      "lies": 2583,
      "ĠAug": 2584,
      "ius": 2585,
      "Ġmovement": 2586,
      "ctions": 2587,
      "osition": 2588,
      "Ġ2008": 2589,
      "Ġstandard": 2590,
      "het": 2591,
      "Ġfarm": 2592,
      "Ġregard": 2593,
      "aging": 2594,
      "Ġpath": 2595,
      "Ġcoast": 2596,
      "ES": 2597,
      "Ġx": 2598,
      "Ġrefer": 2599,
      "ĠJan": 2600,
      "Ġreading": 2601,
      "Ġreally": 2602,
      "Ġlarger": 2603,
      "ĠJu": 2604,
      "erous": 2605,
      "Ġtiss": 2606,
      "Ġoriginal": 2607,
      "Ġscientific": 2608,
      "Ġmilitary": 2609,
      "ief": 2610,
      "Ġaverage": 2611,
      "ĠNo": 2612,
      "itation": 2613,
      "Ġpict": 2614,
      "ography": 2615,
      "ĠHar": 2616,
      "ornia": 2617,
      "Ġvacc": 2618,
      "Ġcontain": 2619,
      "Ġhyd": 2620,
      "ronic": 2621,
      "ropri": 2622,
      "Ġhours": 2623,
      "Ġremov": 2624,
      "ecause": 2625,
      "Ġdeb": 2626,
      "ĠHistory": 2627,
      "Ġanimal": 2628,
      "Ġestablished": 2629,
      "Ġattempt": 2630,
      "ĠAustral": 2631,
      "Ġemploy": 2632,
      "uary": 2633,
      "ister": 2634,
      "itis": 2635,
      "Ġaction": 2636,
      "Ġ24": 2637,
      "Ġalthough": 2638,
      "Ġparticularly": 2639,
      "istance": 2640,
      "see": 2641,
      "ply": 2642,
      "Ġattack": 2643,
      "ades": 2644,
      "Ġhabit": 2645,
      "ĠFran": 2646,
      "Ġfru": 2647,
      "Ġ2007": 2648,
      "izing": 2649,
      "Ġevents": 2650,
      "ns": 2651,
      "Ġever": 2652,
      "inc": 2653,
      "pril": 2654,
      "know": 2655,
      "edia": 2656,
      "Ġsure": 2657,
      "Ġhumans": 2658,
      "istics": 2659,
      "ĠRetrieved": 2660,
      "Ġassess": 2661,
      "isms": 2662,
      "Ġinteract": 2663,
      "Ġaccept": 2664,
      "ĠSchool": 2665,
      "Ġnuc": 2666,
      "Ġdiv": 2667,
      "Ġseries": 2668,
      "Ġincludes": 2669,
      "Ġrelationship": 2670,
      "Ġchall": 2671,
      "Ġestim": 2672,
      "ĠMany": 2673,
      "bor": 2674,
      "Ġparents": 2675,
      "Ġdesigned": 2676,
      "Ġcat": 2677,
      "Ġdamage": 2678,
      "Ġprobably": 2679,
      "uck": 2680,
      "ĠIndian": 2681,
      "ĠBo": 2682,
      "go": 2683,
      "vention": 2684,
      "itude": 2685,
      "issions": 2686,
      "Ġsense": 2687,
      "Ġpractice": 2688,
      "Ġsolar": 2689,
      "Ġweek": 2690,
      "www": 2691,
      "Ġtar": 2692,
      "utions": 2693,
      "atives": 2694,
      "duc": 2695,
      "ĠGree": 2696,
      "overy": 2697,
      "Ġindepend": 2698,
      "ĠDepartment": 2699,
      "Ġprograms": 2700,
      "Ġmiles": 2701,
      "ellow": 2702,
      "ban": 2703,
      "Ġreported": 2704,
      "Ġcivil": 2705,
      "Ġsevere": 2706,
      "Ġpopular": 2707,
      "ĠCalifornia": 2708,
      "Ġvariety": 2709,
      "anced": 2710,
      "ĠPer": 2711,
      "Ġskills": 2712,
      "ĠWashington": 2713,
      "emic": 2714,
      "Ġschools": 2715,
      "ĠWest": 2716,
      "Ġpriv": 2717,
      "leep": 2718,
      "Ġindividuals": 2719,
      "Ġdeep": 2720,
      "Ġdeveloping": 2721,
      "Ġthous": 2722,
      "Ġwritten": 2723,
      "Ġbab": 2724,
      "Ġir": 2725,
      "AR": 2726,
      "Ġthus": 2727,
      "ster": 2728,
      "cies": 2729,
      "ĠEuropean": 2730,
      "eration": 2731,
      "Ġpp": 2732,
      "Ġcapt": 2733,
      "ĠMin": 2734,
      "Ġsuff": 2735,
      "ĠSec": 2736,
      "Ġslow": 2737,
      "Ġextreme": 2738,
      "Ġinvolved": 2739,
      "can": 2740,
      "ĠMost": 2741,
      "hood": 2742,
      "Ġfri": 2743,
      "Ġincluded": 2744,
      "bre": 2745,
      "aff": 2746,
      "Ġlog": 2747,
      "Ġsil": 2748,
      "Ġmeaning": 2749,
      "cles": 2750,
      "Ġste": 2751,
      "osure": 2752,
      "ccording": 2753,
      "Ġevolution": 2754,
      "Ġexerc": 2755,
      "undred": 2756,
      "fully": 2757,
      "Ġapproach": 2758,
      "ĠCong": 2759,
      "ĠOther": 2760,
      "Ġconcent": 2761,
      "Ġmanagement": 2762,
      "Ġlabor": 2763,
      "rogen": 2764,
      "Ġelectric": 2765,
      "Ġwood": 2766,
      "Ġdispl": 2767,
      "Ġtrue": 2768,
      "Ġinj": 2769,
      "based": 2770,
      "Ġissues": 2771,
      "Ġens": 2772,
      "Ġwest": 2773,
      "Ġtaking": 2774,
      "esc": 2775,
      "Ġbreak": 2776,
      "Ġdetermine": 2777,
      "ĠSu": 2778,
      "Ġmount": 2779,
      "ĠMarch": 2780,
      "Ġtests": 2781,
      "verse": 2782,
      "Ġcamp": 2783,
      "Ġtur": 2784,
      "ilos": 2785,
      "ĠFr": 2786,
      "ider": 2787,
      "ĠQu": 2788,
      "ights": 2789,
      "Ġconsist": 2790,
      "Ġheld": 2791,
      "Ġresponse": 2792,
      "Ġdiet": 2793,
      "Ġplanet": 2794,
      "ĠMe": 2795,
      "Ġanalysis": 2796,
      "ĠJune": 2797,
      "Ġserious": 2798,
      "Ġoutside": 2799,
      "Ġrock": 2800,
      "ĠAnt": 2801,
      "inct": 2802,
      "Ġdemonst": 2803,
      "cil": 2804,
      "ĠPart": 2805,
      "On": 2806,
      "Ġbasic": 2807,
      "ĠOct": 2808,
      "Ġcentral": 2809,
      "wise": 2810,
      "ĠAugust": 2811,
      "iers": 2812,
      "ribution": 2813,
      "Ġmusic": 2814,
      "Ġtend": 2815,
      "Ġce": 2816,
      "ressed": 2817,
      "Ġservices": 2818,
      "Ġsoft": 2819,
      "asc": 2820,
      "Ġstri": 2821,
      "Ġopportun": 2822,
      "aches": 2823,
      "Ġcontent": 2824,
      "rig": 2825,
      "Ġmicro": 2826,
      "Ġmethods": 2827,
      "che": 2828,
      "Ġcompon": 2829,
      "Ġreview": 2830,
      "ĠAfrica": 2831,
      "ĠAfrican": 2832,
      "part": 2833,
      "ift": 2834,
      "ino": 2835,
      "yle": 2836,
      "isions": 2837,
      "ads": 2838,
      "Ġnation": 2839,
      "Ġcoun": 2840,
      "Ġsites": 2841,
      "ĠCount": 2842,
      "ĠSept": 2843,
      "80": 2844,
      "gar": 2845,
      "ĠCons": 2846,
      "abetes": 2847,
      "alu": 2848,
      "Ġpsych": 2849,
      "Ġmind": 2850,
      "Ġquant": 2851,
      "ising": 2852,
      "Ġissue": 2853,
      "Wh": 2854,
      "ĠAlthough": 2855,
      "Ġpoor": 2856,
      "Ġculture": 2857,
      "Ġ40": 2858,
      "Ġtown": 2859,
      "erg": 2860,
      "ĠPre": 2861,
      "Ġdou": 2862,
      "Ġstop": 2863,
      "Ġeast": 2864,
      "Ġtrees": 2865,
      "Ġprimary": 2866,
      "'re": 2867,
      "Ġmach": 2868,
      "ows": 2869,
      "aving": 2870,
      "ĠEl": 2871,
      "rim": 2872,
      "Ġpay": 2873,
      "where": 2874,
      "ĠDav": 2875,
      "ground": 2876,
      "BN": 2877,
      "bit": 2878,
      "ĠDNA": 2879,
      "Ġimages": 2880,
      "ounds": 2881,
      "Ġemb": 2882,
      "exic": 2883,
      "ĠChild": 2884,
      "Ġservice": 2885,
      "Ġdefin": 2886,
      "Ġpric": 2887,
      "60": 2888,
      "erson": 2889,
      "Ġbusiness": 2890,
      "Ġviol": 2891,
      "Ġrare": 2892,
      "water": 2893,
      "elling": 2894,
      "22": 2895,
      "Ġcoll": 2896,
      "But": 2897,
      "Ġbirds": 2898,
      "Ġwhose": 2899,
      "Ġlargest": 2900,
      "ulf": 2901,
      "Ġsociety": 2902,
      "Ġrespect": 2903,
      "Ġlot": 2904,
      "ĠSm": 2905,
      "Ġobjects": 2906,
      "Ġinvestig": 2907,
      "Ġtransm": 2908,
      "urity": 2909,
      "Ġcross": 2910,
      "lease": 2911,
      "new": 2912,
      "AT": 2913,
      "ĠWhile": 2914,
      "Ġwriting": 2915,
      "ĠApril": 2916,
      "reng": 2917,
      "Ġut": 2918,
      "ĠChar": 2919,
      "Ġoccurs": 2920,
      "lied": 2921,
      "Ġsold": 2922,
      "Ġwall": 2923,
      "Ġforces": 2924,
      "Ġ/": 2925,
      "Ġmultip": 2926,
      "ĠEngland": 2927,
      "oly": 2928,
      "ille": 2929,
      "inks": 2930,
      "Ġidentify": 2931,
      "Ġhundred": 2932,
      "aly": 2933,
      "rast": 2934,
      "40": 2935,
      "Ġproced": 2936,
      "ĠAg": 2937,
      "Ġgenetic": 2938,
      "useum": 2939,
      "ĠJuly": 2940,
      "Ġveget": 2941,
      "omy": 2942,
      "sect": 2943,
      "hold": 2944,
      "uk": 2945,
      "Ġeye": 2946,
      "Ġinstead": 2947,
      "Ġdirectly": 2948,
      "na": 2949,
      "Ġsimply": 2950,
      "ĠRuss": 2951,
      "aters": 2952,
      "Ġtree": 2953,
      "Ġbacteria": 2954,
      "ĠEduc": 2955,
      "gency": 2956,
      "You": 2957,
      "Ġhealthy": 2958,
      "haps": 2959,
      "Ġtax": 2960,
      "ancy": 2961,
      "ĠAc": 2962,
      "omb": 2963,
      "Ġrapid": 2964,
      "Ġlack": 2965,
      "Ġreflect": 2966,
      "Ġcomes": 2967,
      "ĠServ": 2968,
      "Ġregular": 2969,
      "Ġexcept": 2970,
      "Ġnearly": 2971,
      "Ġinternational": 2972,
      "Ġancient": 2973,
      "Ġmoney": 2974,
      "Ġdiseases": 2975,
      "cks": 2976,
      "lier": 2977,
      "astic": 2978,
      "Ġtherefore": 2979,
      "Ġformed": 2980,
      "Ġinteg": 2981,
      "Ġdecre": 2982,
      "Ġappropri": 2983,
      "Ġetc": 2984,
      "ĠChina": 2985,
      "Ġofficial": 2986,
      "Ġord": 2987,
      "Ġexperien": 2988,
      "ĠWilliam": 2989,
      "craft": 2990,
      "Ġstar": 2991,
      "Ġtarget": 2992,
      "Ġavoid": 2993,
      "reen": 2994,
      "ĠInternational": 2995,
      "ields": 2996,
      "Ġbirth": 2997,
      "Ġcheck": 2998,
      "Ġfront": 2999,
      "Ġsection": 3000,
      "Ġimmedi": 3001,
      "Ġselect": 3002,
      "Ġagricult": 3003,
      "Ġcit": 3004,
      "oor": 3005,
      "ension": 3006,
      "ĠPol": 3007,
      "Ġthird": 3008,
      "ĠGl": 3009,
      "Ġeat": 3010,
      "Ġlength": 3011,
      "Ġbelieve": 3012,
      "uge": 3013,
      "ĠISBN": 3014,
      "dd": 3015,
      "Ġder": 3016,
      ");": 3017,
      "ĠMexic": 3018,
      "room": 3019,
      "ĠApp": 3020,
      "hel": 3021,
      "rection": 3022,
      "ford": 3023,
      "imum": 3024,
      "Ġinside": 3025,
      "Ġadditional": 3026,
      "cont": 3027,
      "ĠGreat": 3028,
      "Ġelectr": 3029,
      "Ġteachers": 3030,
      "ror": 3031,
      "Ġsus": 3032,
      "Ġbeginning": 3033,
      "Ġvisit": 3034,
      "elt": 3035,
      "osa": 3036,
      "Ġnight": 3037,
      "Ġsal": 3038,
      "cember": 3039,
      "Ġadded": 3040,
      "uman": 3041,
      "Ġhor": 3042,
      "Ġactive": 3043,
      "Ġinstru": 3044,
      "Ġeth": 3045,
      "Ġcontinue": 3046,
      "ĠNASA": 3047,
      "ĠMc": 3048,
      "Ġacid": 3049,
      "mar": 3050,
      "iot": 3051,
      "IS": 3052,
      "Ġdescribed": 3053,
      "ties": 3054,
      "Ġ193": 3055,
      "Ġang": 3056,
      "ĠMore": 3057,
      "Ġgrowing": 3058,
      "Ġonline": 3059,
      "ises": 3060,
      "Ġradiation": 3061,
      "ĠBar": 3062,
      "Ġcontains": 3063,
      "Ġfa": 3064,
      "life": 3065,
      "Ġtalk": 3066,
      "Ġbroad": 3067,
      "ĠFeb": 3068,
      "Ġmarket": 3069,
      "23": 3070,
      "Ġdraw": 3071,
      "anish": 3072,
      "Ġmill": 3073,
      "Ġarm": 3074,
      "Ġdiscovered": 3075,
      "Ġpersonal": 3076,
      "Ġface": 3077,
      "ĠHer": 3078,
      "ula": 3079,
      "Ġsoon": 3080,
      "ĠAmericans": 3081,
      "ĠCanada": 3082,
      "24": 3083,
      "ĠPresident": 3084,
      "aily": 3085,
      "uries": 3086,
      "Ġ2006": 3087,
      "Ġcorrect": 3088,
      "ĠUnion": 3089,
      "ceed": 3090,
      "Ġmother": 3091,
      "Ġdocument": 3092,
      "Ġbring": 3093,
      "Ġpoints": 3094,
      "Ġfuel": 3095,
      "OR": 3096,
      "ovember": 3097,
      "ĠInt": 3098,
      "ON": 3099,
      "Ġbase": 3100,
      "Ġdark": 3101,
      "Ġegg": 3102,
      "Ġtakes": 3103,
      "ha": 3104,
      "Ġstreng": 3105,
      "ĠRoman": 3106,
      "term": 3107,
      "Ġobt": 3108,
      "roy": 3109,
      "IN": 3110,
      "Ġhar": 3111,
      "Ġencoura": 3112,
      "Ġclean": 3113,
      "gn": 3114,
      "ĠRec": 3115,
      "Ġlocated": 3116,
      "Ġcompet": 3117,
      "ĠIndia": 3118,
      "ulate": 3119,
      "ste": 3120,
      "Ġsequ": 3121,
      "Ġideas": 3122,
      "Ġshall": 3123,
      "estic": 3124,
      "Ġhost": 3125,
      "Ġrout": 3126,
      "Ġreve": 3127,
      "ems": 3128,
      "Ġfav": 3129,
      "Ġaff": 3130,
      "odies": 3131,
      "lection": 3132,
      "Ġprint": 3133,
      "Ġattention": 3134,
      "Ġlimited": 3135,
      "Ġindustry": 3136,
      "rag": 3137,
      "Ġep": 3138,
      "Ġcommand": 3139,
      "ondon": 3140,
      "ana": 3141,
      "set": 3142,
      "ica": 3143,
      "Ġpositive": 3144,
      "Ġquickly": 3145,
      "rote": 3146,
      "Ġfoods": 3147,
      "Ġlives": 3148,
      "bur": 3149,
      "Ġsmaller": 3150,
      "iency": 3151,
      "Ġtraditional": 3152,
      "Ġevalu": 3153,
      "ĠAssoci": 3154,
      "ĠVir": 3155,
      "ufact": 3156,
      "Ġspeed": 3157,
      "ĠMon": 3158,
      "Ġocean": 3159,
      "year": 3160,
      "Ġdry": 3161,
      "Ġstress": 3162,
      "iles": 3163,
      "ingu": 3164,
      "Ġinstit": 3165,
      "____": 3166,
      "hemat": 3167,
      "ĠChristian": 3168,
      "Ġscre": 3169,
      "Ġsleep": 3170,
      "ĠSeptember": 3171,
      "ĠChurch": 3172,
      "Ġelements": 3173,
      "Ġinterp": 3174,
      "Ġlines": 3175,
      "wo": 3176,
      "Ġperm": 3177,
      "Ġ21": 3178,
      "Ġ,": 3179,
      "Ġcenter": 3180,
      "Ġbott": 3181,
      "rs": 3182,
      "Ġcarry": 3183,
      "Ġsafe": 3184,
      "Ġaccur": 3185,
      "Ġhighly": 3186,
      "Ġbrought": 3187,
      "Ġaltern": 3188,
      "ibrary": 3189,
      "ĠCongress": 3190,
      "ĠProg": 3191,
      "Ġreligious": 3192,
      "Ġwebs": 3193,
      "Ġfeatures": 3194,
      "Ġlost": 3195,
      "osing": 3196,
      "cell": 3197,
      "ĠUs": 3198,
      "Ġgene": 3199,
      "Ġvide": 3200,
      "used": 3201,
      "Ġult": 3202,
      "Ġ2000": 3203,
      "ĠJanuary": 3204,
      "Ġapprox": 3205,
      "Ġquite": 3206,
      "ĠSw": 3207,
      "lin": 3208,
      "Ġpolicy": 3209,
      "inated": 3210,
      "Ġsearch": 3211,
      "aling": 3212,
      "ĠMars": 3213,
      "ĠJewish": 3214,
      "Ġsurround": 3215,
      "Ġarri": 3216,
      "Ġbooks": 3217,
      "Ġfeed": 3218,
      "ĠSch": 3219,
      "ming": 3220,
      "ription": 3221,
      "Ġunc": 3222,
      "Ġrain": 3223,
      "Ġeasily": 3224,
      "Ġremains": 3225,
      "ĠDo": 3226,
      "ext": 3227,
      "Ġprep": 3228,
      "Ġcommunities": 3229,
      "Ġprotein": 3230,
      "Ġweeks": 3231,
      "Ġbal": 3232,
      "ĠGovern": 3233,
      "ls": 3234,
      "Ġthing": 3235,
      "ulated": 3236,
      "eed": 3237,
      "Ġestablish": 3238,
      "Ġuseful": 3239,
      "PA": 3240,
      "ĠCor": 3241,
      "rees": 3242,
      "istry": 3243,
      "ruary": 3244,
      "Ġimplement": 3245,
      "Ġshare": 3246,
      "Ġdisp": 3247,
      "Ġinfluence": 3248,
      "Ġcommer": 3249,
      "ĠGeneral": 3250,
      "Ġsupply": 3251,
      "Ġatmosphere": 3252,
      "isl": 3253,
      "Ġmid": 3254,
      "ĠJournal": 3255,
      "Ġharm": 3256,
      "Ġadults": 3257,
      "ĠOctober": 3258,
      "asons": 3259,
      "rael": 3260,
      "lim": 3261,
      "ĠSur": 3262,
      "men": 3263,
      "Ġhot": 3264,
      "Ġremain": 3265,
      "alled": 3266,
      "Ġtools": 3267,
      "Ġreceived": 3268,
      "Ġcontinued": 3269,
      "Ġ23": 3270,
      "Ġseason": 3271,
      "ners": 3272,
      "Ġking": 3273,
      "uth": 3274,
      "anks": 3275,
      "70": 3276,
      "ev": 3277,
      "Ġcontribut": 3278,
      "ously": 3279,
      "hens": 3280,
      "Ġ195": 3281,
      "Ġtransport": 3282,
      "ygen": 3283,
      "Ġ2005": 3284,
      "Ġdifference": 3285,
      "Ġvalues": 3286,
      "inese": 3287,
      "Ġfamilies": 3288,
      "Ġfederal": 3289,
      "ĠSociety": 3290,
      "arr": 3291,
      "ĠPark": 3292,
      "rab": 3293,
      "Ġleading": 3294,
      "Ġmess": 3295,
      "Ġwa": 3296,
      "Ġcool": 3297,
      "ĠMus": 3298,
      "Ġsymb": 3299,
      "Ġprogress": 3300,
      "Ġvit": 3301,
      "Ġadminist": 3302,
      "iques": 3303,
      "iber": 3304,
      "Ġweather": 3305,
      "29": 3306,
      "oke": 3307,
      "Ġdang": 3308,
      "Ġexact": 3309,
      "uments": 3310,
      "yond": 3311,
      "Ġeasy": 3312,
      "Ġsust": 3313,
      "Ġprior": 3314,
      "Ġjob": 3315,
      "Ġprocesses": 3316,
      "ĠConf": 3317,
      "Ġcompared": 3318,
      "atin": 3319,
      "Ġwent": 3320,
      "Ġearlier": 3321,
      "Ġcold": 3322,
      "Ġlif": 3323,
      "Ġpan": 3324,
      "Ġhyp": 3325,
      "Ġpredict": 3326,
      "Ġwinter": 3327,
      "Ġstra": 3328,
      "Ġfollowed": 3329,
      "Ġlaws": 3330,
      "ĠEast": 3331,
      "IC": 3332,
      "gery": 3333,
      "ĠJews": 3334,
      "Ġi": 3335,
      "Ġsummer": 3336,
      "Ġoccup": 3337,
      "Ġspir": 3338,
      "Ġtraining": 3339,
      "Ġregions": 3340,
      "Ġcam": 3341,
      "pite": 3342,
      "Ġcapital": 3343,
      "Ġtypically": 3344,
      "Ġexposure": 3345,
      "ĠDecember": 3346,
      "Ġprotection": 3347,
      "oma": 3348,
      "Ġmemory": 3349,
      "Ġleaders": 3350,
      "ĠReg": 3351,
      "ech": 3352,
      "Ġrelatively": 3353,
      "Ġpatient": 3354,
      "Ġtrade": 3355,
      "Ġplaces": 3356,
      "Ġnetwork": 3357,
      "Ġdog": 3358,
      "Ġunique": 3359,
      "Ġprec": 3360,
      "aul": 3361,
      "ĠHIV": 3362,
      "ching": 3363,
      "Ġefforts": 3364,
      "Ġtissue": 3365,
      "Ġmanufact": 3366,
      "Ġmiddle": 3367,
      "Ġriver": 3368,
      "Ġallows": 3369,
      "ĠSan": 3370,
      "ocr": 3371,
      "ero": 3372,
      "Ġadop": 3373,
      "ĠFrom": 3374,
      "vest": 3375,
      "bl": 3376,
      "Ġdiabetes": 3377,
      "ĠFirst": 3378,
      "inical": 3379,
      "ony": 3380,
      "ĠSystem": 3381,
      "Ġpen": 3382,
      "Ġdrugs": 3383,
      "Ġanswer": 3384,
      "ensity": 3385,
      "apter": 3386,
      "Ġcru": 3387,
      "ham": 3388,
      "Ġseems": 3389,
      "Ġsn": 3390,
      "Ġcommonly": 3391,
      "yp": 3392,
      "ĠNovember": 3393,
      "Ġbehind": 3394,
      "ĠGermany": 3395,
      "Ġplaced": 3396,
      "Ġdied": 3397,
      "Ġcontinu": 3398,
      "Ġbillion": 3399,
      "Ġfoot": 3400,
      "ĠLondon": 3401,
      "Ġantib": 3402,
      "olar": 3403,
      "ĠVol": 3404,
      "Ġolder": 3405,
      "ĠBi": 3406,
      "78": 3407,
      "Ġmultiple": 3408,
      "iments": 3409,
      "Ġmonth": 3410,
      "rome": 3411,
      "Ġbeg": 3412,
      "Ġbasis": 3413,
      "He": 3414,
      "Ġspeak": 3415,
      "ĠWeb": 3416,
      "Ġjo": 3417,
      "Ġmission": 3418,
      "Ġrise": 3419,
      "Ġnamed": 3420,
      "Ġfight": 3421,
      "ixed": 3422,
      "itte": 3423,
      "Ġappropriate": 3424,
      "AN": 3425,
      "Ġborn": 3426,
      "ĠDuring": 3427,
      "Ġappears": 3428,
      "Ġaffected": 3429,
      "airs": 3430,
      "Ġkids": 3431,
      "gypt": 3432,
      "imal": 3433,
      "ky": 3434,
      "Ġappe": 3435,
      "inate": 3436,
      "Ġdrink": 3437,
      "ĠIsrael": 3438,
      "Ex": 3439,
      "Ġrates": 3440,
      "Ġjud": 3441,
      "oud": 3442,
      "ĠDes": 3443,
      "Ġbul": 3444,
      "One": 3445,
      "Ġformer": 3446,
      "ĠArch": 3447,
      "Ġstars": 3448,
      "Ġpopulations": 3449,
      "Ġten": 3450,
      "At": 3451,
      "Ġexc": 3452,
      "Ġ22": 3453,
      "Ġphilos": 3454,
      "Ġproperty": 3455,
      "ĠPhil": 3456,
      "oming": 3457,
      "ĠFrance": 3458,
      "ologists": 3459,
      "Ġconstit": 3460,
      "Ġcritical": 3461,
      "ternet": 3462,
      "Ġbecomes": 3463,
      "Ġdistance": 3464,
      "iny": 3465,
      "Ġstarted": 3466,
      "Ġadj": 3467,
      "ought": 3468,
      "Ġhands": 3469,
      "pire": 3470,
      "ĠChinese": 3471,
      "Ġdoing": 3472,
      "Ġpregn": 3473,
      "entially": 3474,
      "Ġachieve": 3475,
      "head": 3476,
      "Ġsouthern": 3477,
      "ĠGr": 3478,
      "Ġmut": 3479,
      "Ġconver": 3480,
      "Ġnews": 3481,
      "odes": 3482,
      "ama": 3483,
      "tes": 3484,
      "oe": 3485,
      "Ġwrote": 3486,
      "known": 3487,
      "arian": 3488,
      "Ġmig": 3489,
      "Ġves": 3490,
      "Ġgenes": 3491,
      "Ġnorthern": 3492,
      "Ġdestroy": 3493,
      "Ġund": 3494,
      "Ġinsect": 3495,
      "Ġcalcul": 3496,
      "Ġeight": 3497,
      "emy": 3498,
      "off": 3499,
      "Ġdate": 3500,
      "orks": 3501,
      "ocks": 3502,
      "Ġbone": 3503,
      "ologist": 3504,
      "Ġvict": 3505,
      "Ġtransl": 3506,
      "Ġcontroll": 3507,
      "Ġgradu": 3508,
      "oration": 3509,
      "Ġtum": 3510,
      "By": 3511,
      "Ġextra": 3512,
      "uls": 3513,
      "hest": 3514,
      "ĠYour": 3515,
      "Ġelse": 3516,
      "enth": 3517,
      "izations": 3518,
      "Ġoxygen": 3519,
      "ĠRed": 3520,
      "Ġtable": 3521,
      "equ": 3522,
      "Ġagree": 3523,
      "rest": 3524,
      "Ġdepend": 3525,
      "Ġequal": 3526,
      "Ġdetect": 3527,
      "ĠDis": 3528,
      "Ġson": 3529,
      "Ġnames": 3530,
      "Ġexpected": 3531,
      "Ġastron": 3532,
      "26": 3533,
      "Ġradio": 3534,
      "Ġperformance": 3535,
      "28": 3536,
      "udd": 3537,
      "ĠNot": 3538,
      "Ġsafety": 3539,
      "Ġ186": 3540,
      "fect": 3541,
      "Ġ60": 3542,
      "orms": 3543,
      "Ġtub": 3544,
      "Ġmap": 3545,
      "ĠLaw": 3546,
      "Ġwrite": 3547,
      "itting": 3548,
      "Ġallowed": 3549,
      "ĠEducation": 3550,
      "Ġreach": 3551,
      "EN": 3552,
      "ĠArt": 3553,
      "Ġfoss": 3554,
      "Ġpurpose": 3555,
      "antic": 3556,
      "Ġgetting": 3557,
      "Ġshape": 3558,
      "Ġblock": 3559,
      "Ġdead": 3560,
      "Ġessential": 3561,
      "ĠFebruary": 3562,
      "Ġlooking": 3563,
      "Ġminutes": 3564,
      "ari": 3565,
      "Ġfast": 3566,
      "Ġaspect": 3567,
      "Ġrequires": 3568,
      "Ġcard": 3569,
      "atur": 3570,
      "omas": 3571,
      "orge": 3572,
      "Ġprivate": 3573,
      "Ġtherapy": 3574,
      "ĠProt": 3575,
      "Ġbenefits": 3576,
      "Ġrule": 3577,
      "Ġdifferences": 3578,
      "These": 3579,
      "ĠCity": 3580,
      "Ġgold": 3581,
      "Ġsaw": 3582,
      "Ġlung": 3583,
      "Ġrecently": 3584,
      "Ġresponsible": 3585,
      "Ġdirection": 3586,
      "Ġhimself": 3587,
      "house": 3588,
      "Ġscale": 3589,
      "Ġidentified": 3590,
      "Ġlocation": 3591,
      "Ġtemperatures": 3592,
      "Ġnegative": 3593,
      "Ġstage": 3594,
      "Ġfram": 3595,
      "So": 3596,
      "ipment": 3597,
      "asion": 3598,
      "ĠEgypt": 3599,
      "izes": 3600,
      "27": 3601,
      "Ġball": 3602,
      "ĠBecause": 3603,
      "Ġâ": 3604,
      "aled": 3605,
      "Ġcapac": 3606,
      "ĠTechn": 3607,
      "II": 3608,
      "king": 3609,
      "Ġ+": 3610,
      "Ġtechniques": 3611,
      "ĠKe": 3612,
      "Ġdaily": 3613,
      "21": 3614,
      "ĠCam": 3615,
      "Ġ2004": 3616,
      "rops": 3617,
      "AS": 3618,
      "ogen": 3619,
      "Ġ190": 3620,
      "Ġaware": 3621,
      "Ġbreat": 3622,
      "Ġmonitor": 3623,
      "coh": 3624,
      "Ġtrib": 3625,
      "Ġcitiz": 3626,
      "Ġstream": 3627,
      "Ġjoint": 3628,
      "more": 3629,
      "Ġcopy": 3630,
      "Ġrot": 3631,
      "Ġexercise": 3632,
      "ĠGreek": 3633,
      "Ġhelps": 3634,
      "resh": 3635,
      "Ġimportance": 3636,
      "Ġbit": 3637,
      "Ġnative": 3638,
      "su": 3639,
      "Ġcultural": 3640,
      "Some": 3641,
      "ests": 3642,
      "Ġtox": 3643,
      "âĢ¢": 3644,
      "Ġpack": 3645,
      "Ġterrit": 3646,
      "ida": 3647,
      "Ġdisorder": 3648,
      "Ġ26": 3649,
      "Ġsituation": 3650,
      "Ġcop": 3651,
      "Ġexpect": 3652,
      "Ġstandards": 3653,
      "Ġrespond": 3654,
      "ĠMedic": 3655,
      "Ġunit": 3656,
      "Ġeyes": 3657,
      "Ġden": 3658,
      "ara": 3659,
      "Ġgal": 3660,
      "Ġspect": 3661,
      "resp": 3662,
      "Ġdoesn": 3663,
      "bed": 3664,
      "erved": 3665,
      "ĠEnvironment": 3666,
      "Ġpoly": 3667,
      "Ġvessel": 3668,
      "oring": 3669,
      "Ġbaby": 3670,
      "wide": 3671,
      "ĠCoun": 3672,
      "Ġleaves": 3673,
      "Ġfinal": 3674,
      "Ġreduced": 3675,
      "Ġobserved": 3676,
      "Ġcompan": 3677,
      "Ġimmune": 3678,
      "IT": 3679,
      "Ġmember": 3680,
      "ĠCom": 3681,
      "Ġtreated": 3682,
      "Ġstructures": 3683,
      "ĠAssociation": 3684,
      "ĠCounty": 3685,
      "90": 3686,
      "Ġwalk": 3687,
      "ĠRev": 3688,
      "ĠSince": 3689,
      "Ġbelieved": 3690,
      "Ġfile": 3691,
      "Ġbound": 3692,
      "ĠVal": 3693,
      "iar": 3694,
      "semb": 3695,
      "ĠSee": 3696,
      "ographic": 3697,
      "Ġcompany": 3698,
      "Ġ28": 3699,
      "ĠDavid": 3700,
      "amic": 3701,
      "Ġmodels": 3702,
      "Ġworkers": 3703,
      "Ġanaly": 3704,
      "Ġapplied": 3705,
      "Ġstrateg": 3706,
      "Ġwebsite": 3707,
      "era": 3708,
      "ĠSun": 3709,
      "Ġdemand": 3710,
      "Ġwaste": 3711,
      "ndrome": 3712,
      "Ġcollection": 3713,
      "Ġtit": 3714,
      "Ġillness": 3715,
      "Ġconstruction": 3716,
      "ĠSpace": 3717,
      "cip": 3718,
      "Ġpassed": 3719,
      "Ġteaching": 3720,
      "Ġelement": 3721,
      "rog": 3722,
      "Ġsch": 3723,
      "Ġliqu": 3724,
      "Ġacqu": 3725,
      "Ġmedia": 3726,
      "Ġconstant": 3727,
      "Ġones": 3728,
      "iverse": 3729,
      "Ġseparate": 3730,
      "uff": 3731,
      "ED": 3732,
      "Ġcorn": 3733,
      "Ġbeyond": 3734,
      "Ġtesting": 3735,
      "atric": 3736,
      "Ġkill": 3737,
      "Ġabsor": 3738,
      "Ġtele": 3739,
      "ĠDevelop": 3740,
      "iece": 3741,
      "ĠHigh": 3742,
      "encies": 3743,
      "ĠJames": 3744,
      "aught": 3745,
      "Ġconsequ": 3746,
      "Ġteacher": 3747,
      "ĠWestern": 3748,
      "yd": 3749,
      "Ġapproximately": 3750,
      "Ġdevice": 3751,
      "Ġhistorical": 3752,
      "Ġexamples": 3753,
      "Ġsomeone": 3754,
      "Ġpatterns": 3755,
      "acific": 3756,
      "Ġreceive": 3757,
      "Ġmouth": 3758,
      "Ġconstruct": 3759,
      "Ġrepe": 3760,
      "Ġgives": 3761,
      "Ġfindings": 3762,
      "Ġconflic": 3763,
      "Ġ2013": 3764,
      "Ġgave": 3765,
      "ospital": 3766,
      "ĠCour": 3767,
      "co": 3768,
      "Ġpresence": 3769,
      "Ġmeasures": 3770,
      "ophy": 3771,
      "ĠSpanish": 3772,
      "ĠAustralia": 3773,
      "Ġexec": 3774,
      "Ġanti": 3775,
      "back": 3776,
      "osystem": 3777,
      "ĠCur": 3778,
      "Ġcurrently": 3779,
      "ĠDay": 3780,
      "Ġrat": 3781,
      "See": 3782,
      "ĠCath": 3783,
      "imens": 3784,
      "omic": 3785,
      "ĠRepublic": 3786,
      "ĠTra": 3787,
      "Ġfunctions": 3788,
      "ĠAlso": 3789,
      "ĠJapanese": 3790,
      "Ġstatus": 3791,
      "Ġeventually": 3792,
      "Ġcode": 3793,
      "Ġmajority": 3794,
      "Ġeffort": 3795,
      "Ġ27": 3796,
      "Ġcompletely": 3797,
      "olved": 3798,
      "AC": 3799,
      "Ġdisplay": 3800,
      "Ġproperties": 3801,
      "ĠPal": 3802,
      "Ġ2003": 3803,
      "Ġfather": 3804,
      "Ġdecision": 3805,
      "ĠRo": 3806,
      "Ġchalleng": 3807,
      "ĠTheir": 3808,
      "Ġfemale": 3809,
      "Ġvideo": 3810,
      "Ġadvant": 3811,
      "Ġemissions": 3812,
      "Ġmoving": 3813,
      "ĠTrans": 3814,
      "Ġblue": 3815,
      "Ġiron": 3816,
      "ying": 3817,
      "Ġillust": 3818,
      "ĠSim": 3819,
      "ald": 3820,
      "Ġparticles": 3821,
      "ender": 3822,
      "Ġgoal": 3823,
      "Ġthousands": 3824,
      "erate": 3825,
      "Ġperhaps": 3826,
      "ĠCommun": 3827,
      "Ġinfl": 3828,
      "ĠHouse": 3829,
      "ologies": 3830,
      "Ġ:": 3831,
      "Ġassum": 3832,
      "ĠMexico": 3833,
      "Ġdegree": 3834,
      "ully": 3835,
      "Ġstay": 3836,
      "ittee": 3837,
      "Ġvirt": 3838,
      "Ġsolution": 3839,
      "Ġbreast": 3840,
      "Ġoffer": 3841,
      "Ġsuggests": 3842,
      "Ġnuclear": 3843,
      "Ġequipment": 3844,
      "oted": 3845,
      "Ġincreases": 3846,
      "Ġalone": 3847,
      "Ġlaun": 3848,
      "time": 3849,
      "Ġversion": 3850,
      "Ar": 3851,
      "ctic": 3852,
      "Ġaud": 3853,
      "sec": 3854,
      "Ġhous": 3855,
      "itect": 3856,
      "arge": 3857,
      "Ġcust": 3858,
      "Ġsigns": 3859,
      "Ġcities": 3860,
      "ĠCO": 3861,
      "Ġdefined": 3862,
      "Ġapplication": 3863,
      "ĠMod": 3864,
      "idents": 3865,
      "Ġreprodu": 3866,
      "ira": 3867,
      "ander": 3868,
      "ĠBr": 3869,
      "Ġsuccessful": 3870,
      "ĠRober": 3871,
      "Ġtro": 3872,
      "Ġmathemat": 3873,
      "Ġkid": 3874,
      "Ġexperiment": 3875,
      "Ġcarried": 3876,
      "Ġestimated": 3877,
      "Ġprojects": 3878,
      "Ġstru": 3879,
      "Ġbran": 3880,
      "Ġcompar": 3881,
      "ĠMich": 3882,
      "Ġmom": 3883,
      "Ġemot": 3884,
      "vant": 3885,
      "ĠMy": 3886,
      "oday": 3887,
      "aint": 3888,
      "Ġconservation": 3889,
      "clus": 3890,
      "ĠEach": 3891,
      "que": 3892,
      "ĠBlack": 3893,
      "Ġdevices": 3894,
      "come": 3895,
      "ĠProf": 3896,
      "astern": 3897,
      "Ġvary": 3898,
      "Ġlegisl": 3899,
      "Ġfactor": 3900,
      "Ġdivid": 3901,
      "nov": 3902,
      "ĠVirgin": 3903,
      "Ġpicture": 3904,
      "Ġlat": 3905,
      "Ġalt": 3906,
      "Ġpow": 3907,
      "phas": 3908,
      "Ġforeign": 3909,
      "ords": 3910,
      "pped": 3911,
      "ĠEven": 3912,
      "Ġexpand": 3913,
      "cular": 3914,
      "Ġsurgery": 3915,
      "Ġchanged": 3916,
      "ciences": 3917,
      "Ġensure": 3918,
      "ĠWater": 3919,
      "ĠThus": 3920,
      "Ġveh": 3921,
      "rew": 3922,
      "ĠProgram": 3923,
      "Ġcred": 3924,
      "Ġapplications": 3925,
      "Ġcry": 3926,
      "Ġtowards": 3927,
      "ĠAccording": 3928,
      "Ġphysic": 3929,
      "ĠMiss": 3930,
      "Ġneigh": 3931,
      "rief": 3932,
      "Ġshowed": 3933,
      "Un": 3934,
      "ĠInter": 3935,
      "ĠMount": 3936,
      "Ġgame": 3937,
      "Ġcateg": 3938,
      "ĠAng": 3939,
      "45": 3940,
      "Ġmoved": 3941,
      "Ġdegrees": 3942,
      "Ġmax": 3943,
      "ĠPhys": 3944,
      "Ġassign": 3945,
      "Ġarmy": 3946,
      "33": 3947,
      "Ġinfections": 3948,
      "Ġ2001": 3949,
      "Â°": 3950,
      "enty": 3951,
      "ht": 3952,
      "Ġphen": 3953,
      "ken": 3954,
      "itable": 3955,
      "cohol": 3956,
      "ĠFl": 3957,
      "ribute": 3958,
      "ĠPlan": 3959,
      "book": 3960,
      "iant": 3961,
      "Ġmale": 3962,
      "aign": 3963,
      "nes": 3964,
      "Americ": 3965,
      "Ġflood": 3966,
      "ĠService": 3967,
      "Ġimag": 3968,
      "Ġbad": 3969,
      "Ġdistinct": 3970,
      "Ġspring": 3971,
      "Ġcou": 3972,
      "oxide": 3973,
      "Ġsquare": 3974,
      "Ġlimit": 3975,
      "ament": 3976,
      "Ġpowerful": 3977,
      "Ġaim": 3978,
      "Ġlegal": 3979,
      "aid": 3980,
      "âĢ¦": 3981,
      "ĠGreen": 3982,
      "itch": 3983,
      "cycl": 3984,
      "Ġweak": 3985,
      "ĠAtl": 3986,
      "ĠPeople": 3987,
      "Ġwet": 3988,
      "ĠMuseum": 3989,
      "Ġnothing": 3990,
      "Ġheavy": 3991,
      "Ġslight": 3992,
      "Ġtold": 3993,
      "Ġrules": 3994,
      "raw": 3995,
      "stitution": 3996,
      "ĠMary": 3997,
      "ĠMor": 3998,
      "Ġcosts": 3999,
      "Ġroom": 4000,
      "ibly": 4001,
      "Ġdistribution": 4002,
      "Ġ2002": 4003,
      "Ġweb": 4004,
      "Ġeating": 4005,
      "Ġmention": 4006,
      "ĠPacific": 4007,
      "ST": 4008,
      "win": 4009,
      "ĠAv": 4010,
      "ormally": 4011,
      "Ġexplain": 4012,
      "ĠIsland": 4013,
      "Ġwaters": 4014,
      "Ġintroduced": 4015,
      "ĠCouncil": 4016,
      "ĠCivil": 4017,
      "aped": 4018,
      "outheast": 4019,
      "Ġenter": 4020,
      "pir": 4021,
      "Ġfields": 4022,
      "Ġmental": 4023,
      "Ġasked": 4024,
      "ĠArmy": 4025,
      "Ġmis": 4026,
      "Ġsugar": 4027,
      "Ġ...": 4028,
      "Ġcommercial": 4029,
      "rane": 4030,
      "Ġgot": 4031,
      "pris": 4032,
      "Ġgard": 4033,
      "AL": 4034,
      "ĠLou": 4035,
      "ĠTex": 4036,
      "Ġpeace": 4037,
      "tical": 4038,
      "Ġhabitat": 4039,
      "ĠChildren": 4040,
      "ams": 4041,
      "Ġvisual": 4042,
      "Ġsample": 4043,
      "Ġproviding": 4044,
      "za": 4045,
      "And": 4046,
      "ĠBra": 4047,
      "Ġpresident": 4048,
      "Ġresistance": 4049,
      "198": 4050,
      "hors": 4051,
      "Ġcele": 4052,
      "Ġchurch": 4053,
      "Ġcreating": 4054,
      "Ġbra": 4055,
      "Ġinfluen": 4056,
      "Ġpet": 4057,
      "opes": 4058,
      "Ġfigure": 4059,
      "Ġfair": 4060,
      "Ġsatell": 4061,
      "ĠThen": 4062,
      "igen": 4063,
      "Ġgraph": 4064,
      "35": 4065,
      "Ġseven": 4066,
      "Ġjournal": 4067,
      "ĠUse": 4068,
      "ĠTur": 4069,
      "75": 4070,
      "Ġbelief": 4071,
      "met": 4072,
      "orpor": 4073,
      "Ġkil": 4074,
      "Ġinh": 4075,
      "Ġremoved": 4076,
      "roph": 4077,
      "Ġreasons": 4078,
      "With": 4079,
      "Ġtransfer": 4080,
      "ĠPublic": 4081,
      "ĠRead": 4082,
      "Ġcomplic": 4083,
      "Ġkm": 4084,
      "Ph": 4085,
      "edom": 4086,
      "fort": 4087,
      "Ġsustain": 4088,
      "joy": 4089,
      "Ġresulting": 4090,
      "ĠLa": 4091,
      "rations": 4092,
      "Ġorganization": 4093,
      "Ġsecre": 4094,
      "ĠInc": 4095,
      "Res": 4096,
      "Ġthick": 4097,
      "Ġinstance": 4098,
      "cules": 4099,
      "Ġ29": 4100,
      "Ġchance": 4101,
      "Ġkilled": 4102,
      "Ġunits": 4103,
      "Ġcausing": 4104,
      "Ġreports": 4105,
      "ellig": 4106,
      "Ġvill": 4107,
      "Ġdisorders": 4108,
      "cious": 4109,
      "ĠMedical": 4110,
      "Ġleave": 4111,
      "Ġ1990": 4112,
      "ĠAre": 4113,
      "Ġcontrast": 4114,
      "ĠGeorge": 4115,
      "Ġvaccine": 4116,
      "with": 4117,
      "Ġdecades": 4118,
      "Ġtool": 4119,
      "ĠInst": 4120,
      "Ġisland": 4121,
      "Ġreferred": 4122,
      "Ġmaintain": 4123,
      "lege": 4124,
      "ears": 4125,
      "order": 4126,
      "related": 4127,
      "Ġwidely": 4128,
      "Ġrecords": 4129,
      "Ġsoftware": 4130,
      "Ġhair": 4131,
      "Ġfert": 4132,
      "Ġreleased": 4133,
      "Ġpractices": 4134,
      "Ġthinking": 4135,
      "Ġeconomy": 4136,
      "cers": 4137,
      "ias": 4138,
      "Ġfrequently": 4139,
      "Ġoccurred": 4140,
      "Ġsand": 4141,
      "Ġlove": 4142,
      "Ġmuscle": 4143,
      "Ġextremely": 4144,
      "rehens": 4145,
      "rupt": 4146,
      "New": 4147,
      "raction": 4148,
      "Ġfresh": 4149,
      "Ġbattle": 4150,
      "Ġlayer": 4151,
      "ĠBritain": 4152,
      "Ġmo": 4153,
      "Ġtrack": 4154,
      "Ġmer": 4155,
      "Ġcycle": 4156,
      "Ġesc": 4157,
      "ĠAsia": 4158,
      "wards": 4159,
      "Ġworked": 4160,
      "EC": 4161,
      "Ġlived": 4162,
      "respond": 4163,
      "ago": 4164,
      "ria": 4165,
      "Ġrecommend": 4166,
      "hesis": 4167,
      "Ġbehavi": 4168,
      "Ġcommunication": 4169,
      "Ġfruit": 4170,
      "Ġrelease": 4171,
      "Ġmamm": 4172,
      "Ġsurvey": 4173,
      "Ġmotion": 4174,
      "ĠFound": 4175,
      "Ġanything": 4176,
      "Ġbodies": 4177,
      "Pro": 4178,
      "Ġimmediately": 4179,
      "ĠBer": 4180,
      "Ġindustrial": 4181,
      "Ġmal": 4182,
      "Ġwon": 4183,
      "uses": 4184,
      "edic": 4185,
      "Ġwoman": 4186,
      "Ġstim": 4187,
      "Ġswe": 4188,
      "Ġwestern": 4189,
      "ii": 4190,
      "Ġexpress": 4191,
      "Ġparty": 4192,
      "Ġecosystem": 4193,
      "gl": 4194,
      "Ġinteresting": 4195,
      "mark": 4196,
      "After": 4197,
      "ĠMedicine": 4198,
      "Ġsed": 4199,
      "atab": 4200,
      "Ġhope": 4201,
      "ĠRich": 4202,
      "ĠHuman": 4203,
      "Ġprofessional": 4204,
      "Ġgalax": 4205,
      "ctors": 4206,
      "Ġmedicine": 4207,
      "Ġcombination": 4208,
      "arrow": 4209,
      "cast": 4210,
      "Ġperformed": 4211,
      "Ġcomponents": 4212,
      "Ġfully": 4213,
      "ĠEv": 4214,
      "Ġdyn": 4215,
      "Ġcoal": 4216,
      "iable": 4217,
      "Ġtradition": 4218,
      "ĠAss": 4219,
      "roup": 4220,
      "ĠNort": 4221,
      "rates": 4222,
      "ĠUnder": 4223,
      "Ġcovered": 4224,
      "eces": 4225,
      "ĠGovernment": 4226,
      "och": 4227,
      "Ġremained": 4228,
      "Ġmel": 4229,
      "Ġexposed": 4230,
      "ĠProject": 4231,
      "Ġnutri": 4232,
      "Ġrob": 4233,
      "ĠAD": 4234,
      "ĠLatin": 4235,
      "Ġresource": 4236,
      "Ġrich": 4237,
      "Ġarr": 4238,
      "Ġgoes": 4239,
      "Ġsyndrome": 4240,
      "Ġeggs": 4241,
      "Ġsac": 4242,
      "Ġnan": 4243,
      "orial": 4244,
      "Ġdetermined": 4245,
      "ĠBas": 4246,
      "Ġhon": 4247,
      "Ġhighest": 4248,
      "ĠMart": 4249,
      "Ġindependent": 4250,
      "ĠFin": 4251,
      "Ġreaction": 4252,
      "Ġoffice": 4253,
      "Ġpresented": 4254,
      "idel": 4255,
      "ios": 4256,
      "Ġvia": 4257,
      "Ġ80": 4258,
      "ĠRel": 4259,
      "ĠJe": 4260,
      "Ġcontract": 4261,
      "ĠDem": 4262,
      "which": 4263,
      "ĠLear": 4264,
      "itz": 4265,
      "ĠOff": 4266,
      "Ġcoming": 4267,
      "Ġbottom": 4268,
      "Ġreference": 4269,
      "Ġdeal": 4270,
      "Ġelectricity": 4271,
      "Ġexisting": 4272,
      "istant": 4273,
      "ĠOf": 4274,
      "Ġprofessor": 4275,
      "Ġhom": 4276,
      "Ġmetal": 4277,
      "Ġcitizens": 4278,
      "Ġcharacteristics": 4279,
      "leg": 4280,
      "Ġexhib": 4281,
      "Ġfluid": 4282,
      "ĠInternet": 4283,
      "Ġnote": 4284,
      "ĠLabor": 4285,
      "ĠAcad": 4286,
      "ĠTexas": 4287,
      "Ġamounts": 4288,
      "Ġwarming": 4289,
      "Ġbenefit": 4290,
      "Ġmag": 4291,
      "Ġcourt": 4292,
      "Ġformation": 4293,
      "Ġnoted": 4294,
      "Ġlanguages": 4295,
      "Ġcapacity": 4296,
      "Ġdiagnosis": 4297,
      "Ġeducational": 4298,
      "ĠUN": 4299,
      "Ġburn": 4300,
      "Ġdetails": 4301,
      "ĠScient": 4302,
      "Ġactual": 4303,
      "Ġfriends": 4304,
      "All": 4305,
      "Ġcompanies": 4306,
      "Ġmoon": 4307,
      "ĠHen": 4308,
      "ĠDi": 4309,
      "ĠSov": 4310,
      "ĠNow": 4311,
      "Ġ1999": 4312,
      "Ġdram": 4313,
      "ĠVirginia": 4314,
      "Ġfamous": 4315,
      "ĠSea": 4316,
      "Ġfeature": 4317,
      "ĠPort": 4318,
      "Ġenh": 4319,
      "Ġletter": 4320,
      "Ġspeech": 4321,
      "While": 4322,
      "Ġfinan": 4323,
      "reet": 4324,
      "Ġmachine": 4325,
      "load": 4326,
      "abilities": 4327,
      "Ġenjoy": 4328,
      "oyal": 4329,
      "Ġplans": 4330,
      "Ġgrav": 4331,
      "ĠChe": 4332,
      "Ġemphas": 4333,
      "Ġinstruct": 4334,
      "Ġprocedure": 4335,
      "Be": 4336,
      "36": 4337,
      "Ġconnect": 4338,
      "Ġspirit": 4339,
      "Ġpiece": 4340,
      "Ġturned": 4341,
      "Ġoverall": 4342,
      "Ġbox": 4343,
      "Ġfailure": 4344,
      "ped": 4345,
      "anted": 4346,
      "zing": 4347,
      "ĠBay": 4348,
      "ĠHere": 4349,
      "elesc": 4350,
      "ĠDise": 4351,
      "cyclop": 4352,
      "ĠCollege": 4353,
      "Ġurban": 4354,
      "ĠDevelopment": 4355,
      "onic": 4356,
      "isher": 4357,
      "Ġminor": 4358,
      "mal": 4359,
      "Ġinitial": 4360,
      "ares": 4361,
      "ĠAir": 4362,
      "Ġtechnique": 4363,
      "ĠFore": 4364,
      "Ġclassroom": 4365,
      "change": 4366,
      "ĠAdd": 4367,
      "Ġsignal": 4368,
      "ĠNet": 4369,
      "porary": 4370,
      "Ġpreviously": 4371,
      "Ġreached": 4372,
      "Ġsnow": 4373,
      "bert": 4374,
      "Ġfig": 4375,
      "ocal": 4376,
      "ype": 4377,
      "Ġopportunity": 4378,
      "Ġefficient": 4379,
      "berg": 4380,
      "Although": 4381,
      "uit": 4382,
      "ession": 4383,
      "orage": 4384,
      "that": 4385,
      "enge": 4386,
      "Ġsexual": 4387,
      "Ġnumerous": 4388,
      "38": 4389,
      "Ġautom": 4390,
      "icip": 4391,
      "Ġtou": 4392,
      "cest": 4393,
      "Ġtrying": 4394,
      "Ġvision": 4395,
      "ĠPat": 4396,
      "ĠJes": 4397,
      "Ġprimarily": 4398,
      "Other": 4399,
      "ĠOver": 4400,
      "Ġconducted": 4401,
      "ference": 4402,
      "Ġdiscovery": 4403,
      "rum": 4404,
      "Ġinternal": 4405,
      "rition": 4406,
      "ĠPaul": 4407,
      "ĠIts": 4408,
      "tion": 4409,
      "Ġoperations": 4410,
      "key": 4411,
      "rosc": 4412,
      "Ġbiological": 4413,
      "ropical": 4414,
      "uted": 4415,
      "ET": 4416,
      "pan": 4417,
      "rian": 4418,
      "Ġgrass": 4419,
      "Ġstyle": 4420,
      "Ġship": 4421,
      "Ġsecurity": 4422,
      "Ġforests": 4423,
      "Ġelim": 4424,
      "Ġorganic": 4425,
      "Ġrang": 4426,
      "ĠSen": 4427,
      "ĠSpe": 4428,
      "Ġglass": 4429,
      "ĠCatholic": 4430,
      "Ġbird": 4431,
      "ifically": 4432,
      "ĠColumb": 4433,
      "Ġcontext": 4434,
      "Ġisol": 4435,
      "Ġroad": 4436,
      "zz": 4437,
      "ĠThomas": 4438,
      "Ġdivers": 4439,
      "Ġmolecules": 4440,
      "Ġexcess": 4441,
      "road": 4442,
      "iated": 4443,
      "ĠRobert": 4444,
      "chers": 4445,
      "Ġnotes": 4446,
      "Ġsynt": 4447,
      "Ġmiss": 4448,
      "Ġarchitect": 4449,
      "Ġthin": 4450,
      "48": 4451,
      "ĠLouis": 4452,
      "Ġcorrespond": 4453,
      "Ġconfirm": 4454,
      "Ġfrequency": 4455,
      "Ġgeneration": 4456,
      "Ġuser": 4457,
      "Ġfavor": 4458,
      "Ġmostly": 4459,
      "Ġactions": 4460,
      "ĠOld": 4461,
      "Ġvitamin": 4462,
      "htm": 4463,
      "ĠCarol": 4464,
      "ĠSam": 4465,
      "Ġindicate": 4466,
      "Ġliterature": 4467,
      "Ġeffic": 4468,
      "ĠBC": 4469,
      "umn": 4470,
      "roke": 4471,
      "ulum": 4472,
      "Ġproposed": 4473,
      "Ġsolid": 4474,
      "Ġattract": 4475,
      "nic": 4476,
      "Ġdescribe": 4477,
      "Ġunivers": 4478,
      "ĠJer": 4479,
      "Ġliquid": 4480,
      "Ġsteps": 4481,
      "Ġnor": 4482,
      "Ġ189": 4483,
      "Ġelectrical": 4484,
      "Ġgiving": 4485,
      "iance": 4486,
      "Ġpurch": 4487,
      "ĠMil": 4488,
      "normal": 4489,
      "ĠFlor": 4490,
      "Ġserve": 4491,
      "ĠNews": 4492,
      "Ġpi": 4493,
      "ĠMass": 4494,
      "essor": 4495,
      "Ġclearly": 4496,
      "ĠMat": 4497,
      "Ġalg": 4498,
      "alle": 4499,
      "Ġcenturies": 4500,
      "amental": 4501,
      "Ġ90": 4502,
      "ĠCentral": 4503,
      "col": 4504,
      "Ġfinding": 4505,
      "Ġclinical": 4506,
      "Ã¡": 4507,
      "Ġstrength": 4508,
      "uild": 4509,
      "Ġ1998": 4510,
      "apers": 4511,
      "Ġmagnetic": 4512,
      "Ġcand": 4513,
      "Ġdoub": 4514,
      "Ġauthors": 4515,
      "Ġlargely": 4516,
      "unction": 4517,
      "inf": 4518,
      "Ġcampaign": 4519,
      "Most": 4520,
      "Ġteach": 4521,
      "well": 4522,
      "lick": 4523,
      "Ġdiscussion": 4524,
      "Ġbuildings": 4525,
      "ĠGo": 4526,
      "Ġvolume": 4527,
      "ĠStudents": 4528,
      "Ġmoment": 4529,
      "ĠCourt": 4530,
      "Ġagg": 4531,
      "Ġcere": 4532,
      "Ġtroops": 4533,
      "Ġpun": 4534,
      "Ġneut": 4535,
      "'ll": 4536,
      "Ġalcohol": 4537,
      "Ġannual": 4538,
      "Ġorganisms": 4539,
      "ĠArab": 4540,
      "HE": 4541,
      "Ġadapt": 4542,
      "tle": 4543,
      "ĠSer": 4544,
      "Ġbright": 4545,
      "Ġstrategies": 4546,
      "Ġhem": 4547,
      "Ġmeasured": 4548,
      "Ġgir": 4549,
      "Ġproteins": 4550,
      "Ġinfected": 4551,
      "Ġlearned": 4552,
      "med": 4553,
      "Ġrace": 4554,
      "ado": 4555,
      "ortion": 4556,
      "76": 4557,
      "Ġcreation": 4558,
      "Ġmilk": 4559,
      "Ġyellow": 4560,
      "Ġserved": 4561,
      "DA": 4562,
      "'ve": 4563,
      "ĠOcean": 4564,
      "ĠJust": 4565,
      "force": 4566,
      "Ġtrig": 4567,
      "Ġbeaut": 4568,
      "Ġign": 4569,
      "ĠSocial": 4570,
      "Ġhuge": 4571,
      "Ġphenomen": 4572,
      "ĠMic": 4573,
      "Ġdivided": 4574,
      "ĠStand": 4575,
      "van": 4576,
      "Ġseed": 4577,
      "ressive": 4578,
      "Ġprice": 4579,
      "Ġoutput": 4580,
      "RO": 4581,
      "Ġround": 4582,
      "Ġtask": 4583,
      "Ġnav": 4584,
      "Ġsupported": 4585,
      "pat": 4586,
      "Ġinterpret": 4587,
      "Ġpersons": 4588,
      "otes": 4589,
      "irect": 4590,
      "rich": 4591,
      "erences": 4592,
      "Ġchief": 4593,
      "ĠSl": 4594,
      "Ġstories": 4595,
      "Ġsoci": 4596,
      "vision": 4597,
      "ensus": 4598,
      "Äģ": 4599,
      "ods": 4600,
      "andom": 4601,
      "Ġextent": 4602,
      "Ġinstrument": 4603,
      "Ġperiods": 4604,
      "39": 4605,
      "Ġliver": 4606,
      "ĠInformation": 4607,
      "lements": 4608,
      "Ġagricultural": 4609,
      ".;": 4610,
      "Ġrecorded": 4611,
      "Ġforward": 4612,
      "Ġmarine": 4613,
      "Ġchanging": 4614,
      "Ġsignificantly": 4615,
      "Ġ70": 4616,
      "Is": 4617,
      "ĠGra": 4618,
      "Ġconv": 4619,
      "Ġfossil": 4620,
      "Ġnit": 4621,
      "ĠSub": 4622,
      "Ġwaves": 4623,
      "ĠWild": 4624,
      "ĠTreat": 4625,
      "Ġalternative": 4626,
      "Ġstaff": 4627,
      "Ġpal": 4628,
      "Ġrunning": 4629,
      "atically": 4630,
      "kin": 4631,
      "Ġcolleag": 4632,
      "Ġcounter": 4633,
      "ributed": 4634,
      "ĠSmith": 4635,
      "ĠNav": 4636,
      "Ġdie": 4637,
      "ymph": 4638,
      "ael": 4639,
      "Ġadm": 4640,
      "omers": 4641,
      "rence": 4642,
      "ĠMD": 4643,
      "Ġap": 4644,
      "Ġperfect": 4645,
      "Ġforced": 4646,
      "ounced": 4647,
      "Ġcharge": 4648,
      "Ġteeth": 4649,
      "Ġcircum": 4650,
      "Ġcook": 4651,
      "Ġsyn": 4652,
      "ĠNature": 4653,
      "Ġchemicals": 4654,
      "Ġshar": 4655,
      "Ġexplore": 4656,
      "olid": 4657,
      "isp": 4658,
      "Ġbelong": 4659,
      "Ġclos": 4660,
      "Ġchronic": 4661,
      "otic": 4662,
      "Ġapply": 4663,
      "ĠCharles": 4664,
      "Ġdro": 4665,
      "Ġcombined": 4666,
      "ĠDon": 4667,
      "Ġsamples": 4668,
      "Ġancest": 4669,
      "Ġappoint": 4670,
      "Ġoperation": 4671,
      "ĠIr": 4672,
      "Ġinvolves": 4673,
      "Ġcollabor": 4674,
      "PS": 4675,
      "Ġbecoming": 4676,
      "Ġ1997": 4677,
      "omin": 4678,
      "Ġremove": 4679,
      "ĠSy": 4680,
      "Ġbegins": 4681,
      "Ġdepression": 4682,
      "Ġbalance": 4683,
      "Ġgain": 4684,
      "Ġdefic": 4685,
      "Ġrapidly": 4686,
      "Ġmedications": 4687,
      "Ġdu": 4688,
      "Ġeverything": 4689,
      "ĠWhite": 4690,
      "Ġchoose": 4691,
      "Ġdioxide": 4692,
      "ĠSoviet": 4693,
      "ĠOrgan": 4694,
      "Ġconclud": 4695,
      "Ġarticles": 4696,
      "Ġperman": 4697,
      "Ġplanning": 4698,
      "Ġboard": 4699,
      "Many": 4700,
      "Ġ35": 4701,
      "ĠTest": 4702,
      "itors": 4703,
      "Ġstem": 4704,
      "Ġorganizations": 4705,
      "Sh": 4706,
      "Ġconsumption": 4707,
      "Ġhorm": 4708,
      "Ġdistingu": 4709,
      "Ġtrou": 4710,
      "Ġnorthwest": 4711,
      "Ġitems": 4712,
      "ĠâĨ": 4713,
      "Ġkept": 4714,
      "CO": 4715,
      "46": 4716,
      "ĠJud": 4717,
      "Ġreligion": 4718,
      "Ġnortheast": 4719,
      "aste": 4720,
      "Ġwhom": 4721,
      "Ġreplace": 4722,
      "osite": 4723,
      "Ġuniverse": 4724,
      "Ġinvolve": 4725,
      "Ġdiam": 4726,
      "Ġdust": 4727,
      "Ġapparent": 4728,
      "burg": 4729,
      "active": 4730,
      "Ġwatch": 4731,
      "ĠEnergy": 4732,
      "wood": 4733,
      "Ġrecommended": 4734,
      "eck": 4735,
      "Ġauthority": 4736,
      "ĠIsl": 4737,
      "Ġsect": 4738,
      "amb": 4739,
      "Ġpollution": 4740,
      "ĠLake": 4741,
      "Ġfilm": 4742,
      "ĠCommission": 4743,
      "Ġcoord": 4744,
      "Ġguide": 4745,
      "ĠMiddle": 4746,
      "Ġmeeting": 4747,
      "clusion": 4748,
      "Ġsufficient": 4749,
      "ĠAut": 4750,
      "Ġpul": 4751,
      "Ġsoutheast": 4752,
      "American": 4753,
      "Ġstudied": 4754,
      "Ġvisible": 4755,
      "Ġexactly": 4756,
      "ishes": 4757,
      "eties": 4758,
      "Ġsouthwest": 4759,
      "Ġwave": 4760,
      "Ġpurposes": 4761,
      "ĠHistor": 4762,
      "Ġexpression": 4763,
      "Ġther": 4764,
      "Ġadvanced": 4765,
      "Ġvo": 4766,
      "ented": 4767,
      "heric": 4768,
      "oper": 4769,
      "celer": 4770,
      "Ġexistence": 4771,
      "Ġdiscover": 4772,
      "Ġdiss": 4773,
      "Ġacad": 4774,
      "Ġreturned": 4775,
      "Ġsusp": 4776,
      "lers": 4777,
      "Ġqual": 4778,
      "Ġhelped": 4779,
      "AM": 4780,
      "pective": 4781,
      "ÃŃ": 4782,
      "ett": 4783,
      "ux": 4784,
      "Ġstation": 4785,
      "Ġcontaining": 4786,
      "Ġprinciples": 4787,
      "Ġdefinition": 4788,
      "Ġcore": 4789,
      "Ġsem": 4790,
      "rolog": 4791,
      "Ġroot": 4792,
      "Cl": 4793,
      "ager": 4794,
      "Ġsuggested": 4795,
      "Ġincorpor": 4796,
      "Ġ188": 4797,
      "Ġremember": 4798,
      "ault": 4799,
      "RE": 4800,
      "Ġbatter": 4801,
      "iring": 4802,
      "Ġbones": 4803,
      "aks": 4804,
      "ville": 4805,
      "itness": 4806,
      "Ġdepos": 4807,
      "Ġstrugg": 4808,
      "ĠSouthern": 4809,
      "Ġtoxic": 4810,
      "inction": 4811,
      "Ġsong": 4812,
      "Ġsurrounding": 4813,
      "Ġchoice": 4814,
      "Ġpick": 4815,
      "Ġlib": 4816,
      "hetic": 4817,
      "Ġpages": 4818,
      "Ġheight": 4819,
      "ĠMac": 4820,
      "Ġfort": 4821,
      "Ġinjury": 4822,
      "Ġfine": 4823,
      "Ġphase": 4824,
      "Ġadvantage": 4825,
      "ĠReview": 4826,
      "Ġfaith": 4827,
      "earing": 4828,
      "Ġportion": 4829,
      "Ġdigital": 4830,
      "des": 4831,
      "Ġclim": 4832,
      "Ġcrops": 4833,
      "Ġdidn": 4834,
      "Ġconvers": 4835,
      "Ġvolcan": 4836,
      "Ġdetailed": 4837,
      "Ġhunt": 4838,
      "Ġlesson": 4839,
      "uration": 4840,
      "ĠOx": 4841,
      "ĠOb": 4842,
      "such": 4843,
      "ĠPsych": 4844,
      "Ġopin": 4845,
      "Ġhour": 4846,
      "Ġaspects": 4847,
      "Ġfif": 4848,
      "Ġassessment": 4849,
      "pal": 4850,
      "Ġcelebr": 4851,
      "Ġquar": 4852,
      "Ġeastern": 4853,
      "Ġbrief": 4854,
      "Sp": 4855,
      "ĠFre": 4856,
      "Ġexperiments": 4857,
      "Ġdepending": 4858,
      "ĠPers": 4859,
      "Ġstore": 4860,
      "Ġcollected": 4861,
      "RI": 4862,
      "Ġinput": 4863,
      "Ġhappen": 4864,
      "Ġlands": 4865,
      "Ġkinds": 4866,
      "Ġmob": 4867,
      "Ġbackground": 4868,
      "ĠDiv": 4869,
      "ĠMal": 4870,
      "aker": 4871,
      "Ġtechnologies": 4872,
      "37": 4873,
      "55": 4874,
      "Ġbed": 4875,
      "eal": 4876,
      "Ġintended": 4877,
      "ixt": 4878,
      "Ġax": 4879,
      "Ġelev": 4880,
      "Ġbank": 4881,
      "Ġstorage": 4882,
      "Ġhousehold": 4883,
      "Ġstatement": 4884,
      "ĠHol": 4885,
      "Ġclasses": 4886,
      "Ġsurpris": 4887,
      "Ġmainly": 4888,
      ".|": 4889,
      "Ġlandsc": 4890,
      "Ġconflict": 4891,
      "They": 4892,
      "ĠConstitution": 4893,
      "34": 4894,
      "stein": 4895,
      "Ġconsists": 4896,
      "ĠElect": 4897,
      "Ġreb": 4898,
      "ĠFranc": 4899,
      "ĠBel": 4900,
      "ĠOur": 4901,
      "oughly": 4902,
      "Ġnovel": 4903,
      "Ġfinancial": 4904,
      "Ġlic": 4905,
      "rows": 4906,
      "Ġcompleted": 4907,
      "eters": 4908,
      "ĠTwo": 4909,
      "Ġoffers": 4910,
      "Ġdomestic": 4911,
      "Ġtiny": 4912,
      "ĠJose": 4913,
      "ĠPM": 4914,
      "Ġcomprehens": 4915,
      "cipl": 4916,
      "Ġchrom": 4917,
      "ĠFlorida": 4918,
      "ception": 4919,
      "Ġclosely": 4920,
      "Ġsoldiers": 4921,
      "Ġprefer": 4922,
      "Ġ1980": 4923,
      "Ġsalt": 4924,
      "Ġrecognized": 4925,
      "ĠLibrary": 4926,
      "Ġlinked": 4927,
      "100": 4928,
      "Ġnations": 4929,
      "rier": 4930,
      "Ġisn": 4931,
      "Ġprepar": 4932,
      "bridge": 4933,
      "cyclopedia": 4934,
      "Ġsubsequ": 4935,
      "what": 4936,
      "Ġappeared": 4937,
      "nel": 4938,
      "Ġhur": 4939,
      "From": 4940,
      "Ġfriend": 4941,
      "ĠSecond": 4942,
      "Ġnormally": 4943,
      "tic": 4944,
      "bal": 4945,
      "ras": 4946,
      "ĠWhy": 4947,
      "CC": 4948,
      "Ġconcepts": 4949,
      "Ġpark": 4950,
      "Ġvast": 4951,
      "Ġstarting": 4952,
      "Ġobservations": 4953,
      "fall": 4954,
      "Ġslightly": 4955,
      "ĠHel": 4956,
      "ĠFederal": 4957,
      "Ġfinally": 4958,
      "Ġpig": 4959,
      "Ġrail": 4960,
      "Ġsort": 4961,
      "Ġhearing": 4962,
      "Ġshell": 4963,
      "Ġfreedom": 4964,
      "Ġdisapp": 4965,
      "bi": 4966,
      "ycl": 4967,
      "Ġimmig": 4968,
      "Ġstone": 4969,
      "ample": 4970,
      "32": 4971,
      "Ġnarrow": 4972,
      "Ġletters": 4973,
      "Ġimproved": 4974,
      "alian": 4975,
      "Ġconnected": 4976,
      "Ġfarmers": 4977,
      "Ġmulti": 4978,
      "Ġexplan": 4979,
      "ĠWork": 4980,
      "Ġvolunt": 4981,
      "ĠBur": 4982,
      "Ġconcern": 4983,
      "mic": 4984,
      "ingly": 4985,
      "Ġspot": 4986,
      "ĠHenry": 4987,
      "gra": 4988,
      "vis": 4989,
      "Ġcontrolled": 4990,
      "Ġtrend": 4991,
      "ĠCompany": 4992,
      "oo": 4993,
      "Ġworth": 4994,
      "Ġsides": 4995,
      "itage": 4996,
      "Ġflight": 4997,
      "Ġhyper": 4998,
      "Ġvessels": 4999,
      "osc": 5000,
      "ĠMet": 5001,
      "Ġnerv": 5002,
      "Ġinstruction": 5003,
      "Ġfol": 5004,
      "ĠSuch": 5005,
      "Ġwond": 5006,
      "Im": 5007,
      "acing": 5008,
      "ĠFoundation": 5009,
      "Ġusers": 5010,
      "cript": 5011,
      "ĠTechnology": 5012,
      "ball": 5013,
      "illing": 5014,
      "Ġchann": 5015,
      "aria": 5016,
      "roid": 5017,
      "Ġ1995": 5018,
      "Ġmeant": 5019,
      "field": 5020,
      "ĠRussian": 5021,
      "Ġhundreds": 5022,
      "Ġdecisions": 5023,
      "Ġdouble": 5024,
      "Ġgreatest": 5025,
      "44": 5026,
      "war": 5027,
      "Ġengineering": 5028,
      "Ġ1996": 5029,
      "ĠAlex": 5030,
      "ĠLet": 5031,
      "Ġspl": 5032,
      "Ġsequence": 5033,
      "add": 5034,
      "Ġrequirements": 5035,
      "Ġfever": 5036,
      "ava": 5037,
      "ĠJesus": 5038,
      "atabase": 5039,
      "ossible": 5040,
      "fish": 5041,
      "Ġincome": 5042,
      "ĠMuslim": 5043,
      "Ġtypical": 5044,
      "Ġsubstant": 5045,
      "acters": 5046,
      "Ġsymbol": 5047,
      "ĠDef": 5048,
      "ules": 5049,
      "Ġhomes": 5050,
      "Ġplease": 5051,
      "Ġeveryone": 5052,
      "Ġrevolution": 5053,
      "ĠBook": 5054,
      "iling": 5055,
      "apes": 5056,
      "Ġtreatments": 5057,
      "Ġinches": 5058,
      "Ġhappens": 5059,
      "point": 5060,
      "Ġintellig": 5061,
      "Ġmountain": 5062,
      "Ġfle": 5063,
      "Ġcolleagues": 5064,
      "Ab": 5065,
      "More": 5066,
      "Ġwin": 5067,
      "itan": 5068,
      "ĠHaw": 5069,
      "anguage": 5070,
      "ota": 5071,
      "Ġreducing": 5072,
      "Ġmassive": 5073,
      "oul": 5074,
      "ĠSal": 5075,
      "65": 5076,
      "Ġvent": 5077,
      "Ġdecided": 5078,
      "ĠFood": 5079,
      "ĠÃ": 5080,
      "Ġhospital": 5081,
      "Ġ<": 5082,
      "99": 5083,
      "pre": 5084,
      "Ġband": 5085,
      "Ġgets": 5086,
      "ĠIndians": 5087,
      "ognitive": 5088,
      "Ġload": 5089,
      "ecies": 5090,
      "Ġlinks": 5091,
      "crib": 5092,
      "standing": 5093,
      "Ġwrong": 5094,
      "ĠTer": 5095,
      "Ġpieces": 5096,
      "Ġtopic": 5097,
      "De": 5098,
      "ĠOnce": 5099,
      "Ġorbit": 5100,
      "icial": 5101,
      "Ġfib": 5102,
      "Ġcast": 5103,
      "ails": 5104,
      "ĠEnvironmental": 5105,
      "Ġprepared": 5106,
      "Ġdin": 5107,
      "Ġinform": 5108,
      "name": 5109,
      "Ġcontinues": 5110,
      "ĠNor": 5111,
      "ss": 5112,
      "ĠEmpire": 5113,
      "Ġhypot": 5114,
      "aur": 5115,
      "Ġsounds": 5116,
      "Ġplate": 5117,
      "Ġple": 5118,
      "ĠBen": 5119,
      "Ġnucle": 5120,
      "ĠLife": 5121,
      "ĠBoth": 5122,
      "Ġobvious": 5123,
      "onds": 5124,
      "Ġpolicies": 5125,
      "Ġseeds": 5126,
      "Ġseg": 5127,
      "ĠOffice": 5128,
      "ĠMem": 5129,
      "Ġdrive": 5130,
      "Ġdial": 5131,
      "ij": 5132,
      "Ġinstitutions": 5133,
      "Ġraised": 5134,
      "ĠCD": 5135,
      "Ġlaboratory": 5136,
      "ĠUK": 5137,
      "ĠWind": 5138,
      "Ġmanner": 5139,
      "Ġfear": 5140,
      "Ġfing": 5141,
      "47": 5142,
      "Ġcoastal": 5143,
      "pd": 5144,
      "Ġaid": 5145,
      "ĠClass": 5146,
      "Ġ*": 5147,
      "ilit": 5148,
      "ĠMont": 5149,
      "Ġtested": 5150,
      "inet": 5151,
      "isted": 5152,
      "Ġsav": 5153,
      "cium": 5154,
      "oking": 5155,
      "oting": 5156,
      "Ġrefers": 5157,
      "Ġallerg": 5158,
      "Ġfrag": 5159,
      "ato": 5160,
      "Ġhaz": 5161,
      "Ġantibiot": 5162,
      "Ġwanted": 5163,
      "ĠNorthern": 5164,
      "ague": 5165,
      "ictionary": 5166,
      "Ġotherwise": 5167,
      "ĠAst": 5168,
      "omer": 5169,
      "throp": 5170,
      "ulating": 5171,
      "board": 5172,
      "Ġwealth": 5173,
      "Ġconnection": 5174,
      "ĠAp": 5175,
      "ĠBudd": 5176,
      "Ġaircraft": 5177,
      "31": 5178,
      "gov": 5179,
      "oln": 5180,
      "Ġlatter": 5181,
      "Ġvul": 5182,
      "Ġtruth": 5183,
      "iveness": 5184,
      "Ġhydrogen": 5185,
      "Ġdepends": 5186,
      "onia": 5187,
      "Ġmaximum": 5188,
      "ifying": 5189,
      "Ġaqu": 5190,
      "ship": 5191,
      "Ġscen": 5192,
      "Ġfaster": 5193,
      "ona": 5194,
      "Ġflat": 5195,
      "ini": 5196,
      "Ġdangerous": 5197,
      "avery": 5198,
      "Ġplanets": 5199,
      "Ġunf": 5200,
      "500": 5201,
      "During": 5202,
      "ocol": 5203,
      "ĠLord": 5204,
      "Ġmessage": 5205,
      "Ġallowing": 5206,
      "Ġconvent": 5207,
      "ĠCarolina": 5208,
      "Ġopportunities": 5209,
      "ĠRad": 5210,
      "Ġemergency": 5211,
      "Ġaffects": 5212,
      "Ġadopted": 5213,
      "Ġimplic": 5214,
      "Ġgoals": 5215,
      "Ġprotected": 5216,
      "Ġmere": 5217,
      "Ġplayed": 5218,
      "Ġmotor": 5219,
      "riculum": 5220,
      "Ġhear": 5221,
      "Ġrocks": 5222,
      "opl": 5223,
      "Ġmort": 5224,
      "osen": 5225,
      "Ġoriginally": 5226,
      "Ġobtained": 5227,
      "ĠNatural": 5228,
      "hist": 5229,
      "Ġregarding": 5230,
      "Ġble": 5231,
      "Ġflag": 5232,
      "Ġimpl": 5233,
      "li": 5234,
      "Ġsetting": 5235,
      "Ġderived": 5236,
      "Ġeasier": 5237,
      "ye": 5238,
      "Ġupd": 5239,
      "Ġleader": 5240,
      "idelines": 5241,
      "akers": 5242,
      "Ġcomponent": 5243,
      "Ġchallenge": 5244,
      "49": 5245,
      "Ġsky": 5246,
      "ĠDar": 5247,
      "ĠRome": 5248,
      "liam": 5249,
      "ĠMark": 5250,
      "Gen": 5251,
      "Ġonto": 5252,
      "Ġshowing": 5253,
      "Ġcharacters": 5254,
      "Ġspent": 5255,
      "overty": 5256,
      "Ġmuscles": 5257,
      "nam": 5258,
      "Ġwww": 5259,
      "Ġviolence": 5260,
      "Ġimpacts": 5261,
      "Ġarter": 5262,
      "othe": 5263,
      "Ġinject": 5264,
      "Ġpartners": 5265,
      "Ġprinciple": 5266,
      "BC": 5267,
      "ortunately": 5268,
      "ping": 5269,
      "Ġbill": 5270,
      "Ġgrade": 5271,
      "Ġequival": 5272,
      "Ġpregnancy": 5273,
      "earchers": 5274,
      "Ġmeat": 5275,
      "Ġdrinking": 5276,
      "Ġgun": 5277,
      "car": 5278,
      "Ġproperly": 5279,
      "icks": 5280,
      "rick": 5281,
      "Ġfundamental": 5282,
      "Ġprocessing": 5283,
      "incoln": 5284,
      "Ġrelationships": 5285,
      "Ġbrother": 5286,
      "Ġunknown": 5287,
      "US": 5288,
      "born": 5289,
      "Ġadjust": 5290,
      "ki": 5291,
      "ya": 5292,
      "Ġinsects": 5293,
      "Ġabund": 5294,
      "from": 5295,
      "amily": 5296,
      "ulin": 5297,
      "Ġrandom": 5298,
      "ĠGal": 5299,
      "zy": 5300,
      "ĠQue": 5301,
      "iate": 5302,
      "Ġimmun": 5303,
      "level": 5304,
      "Ġwalls": 5305,
      "Ġvictim": 5306,
      "vert": 5307,
      "Ġmillions": 5308,
      "OS": 5309,
      "Ġrisks": 5310,
      "Ġexperiences": 5311,
      "Ġ185": 5312,
      "Ġtour": 5313,
      "Ġelectron": 5314,
      "ĠAtlantic": 5315,
      "sembly": 5316,
      "ĠDist": 5317,
      "Ġsave": 5318,
      "Ġconstitution": 5319,
      "state": 5320,
      "Ġacceler": 5321,
      "Ġpractical": 5322,
      "ested": 5323,
      "Ġleads": 5324,
      "Ġ1970": 5325,
      "Ġofficials": 5326,
      "inating": 5327,
      "Ġexternal": 5328,
      "stream": 5329,
      "mit": 5330,
      "Con": 5331,
      "Ġterritory": 5332,
      "IDS": 5333,
      "ĠLand": 5334,
      "ocratic": 5335,
      "iful": 5336,
      "ĠCanadian": 5337,
      "Ġremaining": 5338,
      "Ġkilomet": 5339,
      "gans": 5340,
      "Ġ>": 5341,
      "irds": 5342,
      "Ġarms": 5343,
      "ĠRights": 5344,
      "ĠChic": 5345,
      "ĠAnother": 5346,
      "Ġconcerns": 5347,
      "ta": 5348,
      "sts": 5349,
      "iled": 5350,
      "riage": 5351,
      "olute": 5352,
      "Ġagriculture": 5353,
      "liament": 5354,
      "utive": 5355,
      "Ġoperating": 5356,
      "Ġharvest": 5357,
      "Ġsignals": 5358,
      "ĠStudies": 5359,
      "do": 5360,
      "Ġefficiency": 5361,
      "Ġweap": 5362,
      "works": 5363,
      "ĠPenn": 5364,
      "Ġdim": 5365,
      "hma": 5366,
      "called": 5367,
      "Ġages": 5368,
      "Ġships": 5369,
      "Ġinterested": 5370,
      "ĠPub": 5371,
      "ĠRussia": 5372,
      "77": 5373,
      "osion": 5374,
      "RC": 5375,
      "Ġtube": 5376,
      "resents": 5377,
      "Ġcloth": 5378,
      "ek": 5379,
      "Ġpictures": 5380,
      "olf": 5381,
      "ĠExpl": 5382,
      "faces": 5383,
      "Ġsurvive": 5384,
      "According": 5385,
      "Ġcomment": 5386,
      "Ġaccurate": 5387,
      "olars": 5388,
      "Ġthousand": 5389,
      "ena": 5390,
      "Ġgall": 5391,
      "stood": 5392,
      "Ġextensive": 5393,
      "Ġtrial": 5394,
      "Ġsick": 5395,
      "aturally": 5396,
      "Ġeffectively": 5397,
      "Ġstraight": 5398,
      "Ġfollows": 5399,
      "Ġmarked": 5400,
      "Ġstorm": 5401,
      "ĠRevolution": 5402,
      "Ġmanufacture": 5403,
      "ĠSum": 5404,
      "comp": 5405,
      "Ġtransform": 5406,
      "Ġexperts": 5407,
      "Ġaccepted": 5408,
      "Ind": 5409,
      "Ġgames": 5410,
      "Ġhoriz": 5411,
      "emia": 5412,
      "ĠSpain": 5413,
      "Ġappearance": 5414,
      "Ġreduction": 5415,
      "Ġinflamm": 5416,
      "ĠHam": 5417,
      "ĠFrank": 5418,
      "Ġplastic": 5419,
      "Ġencourage": 5420,
      "ĠOh": 5421,
      "That": 5422,
      "istan": 5423,
      "Ġdensity": 5424,
      "Ġrivers": 5425,
      "ĠâĨĳ": 5426,
      "organ": 5427,
      "Ġready": 5428,
      "elescope": 5429,
      "Ġfamiliar": 5430,
      "Ġaccomp": 5431,
      "Ġmovements": 5432,
      "Ġabnormal": 5433,
      "oto": 5434,
      "Ġattacks": 5435,
      "aser": 5436,
      "ache": 5437,
      "Ġoffered": 5438,
      "Pl": 5439,
      "Ġwildlife": 5440,
      "Ġsubstance": 5441,
      "Ġsatellite": 5442,
      "Ġsecret": 5443,
      "Ġlooks": 5444,
      "Ġkn": 5445,
      "igation": 5446,
      "ĠIll": 5447,
      "Ġindex": 5448,
      "Ġinstruments": 5449,
      "ada": 5450,
      "ĠPost": 5451,
      "ansion": 5452,
      "ĠColumbia": 5453,
      "Ġadvance": 5454,
      "Ġoptions": 5455,
      "igenous": 5456,
      "Se": 5457,
      "ĠAbout": 5458,
      "ercury": 5459,
      "Ġfly": 5460,
      "ĠOp": 5461,
      "omach": 5462,
      "Ġprison": 5463,
      "aughter": 5464,
      "umber": 5465,
      "ĠKore": 5466,
      "Ġargument": 5467,
      "dden": 5468,
      "Ġselection": 5469,
      "Ġmentioned": 5470,
      "isation": 5471,
      "Ġlooked": 5472,
      "Ġdiversity": 5473,
      "acts": 5474,
      "79": 5475,
      "Ġdefe": 5476,
      "ĠControl": 5477,
      "aus": 5478,
      "Ġorb": 5479,
      "Ġdecline": 5480,
      "Ġexplained": 5481,
      "Ġbrown": 5482,
      "However": 5483,
      "Ġstret": 5484,
      "aska": 5485,
      "Ġearthqu": 5486,
      "Ġsubjects": 5487,
      "Ġmoist": 5488,
      "Ġprecise": 5489,
      "Ġgarden": 5490,
      "long": 5491,
      "Ġtechnical": 5492,
      "Ġunus": 5493,
      "Ġcra": 5494,
      "ĠWomen": 5495,
      "Ġtried": 5496,
      "ĠSciences": 5497,
      "Ġcontained": 5498,
      "Ġpossibly": 5499,
      "Ġ300": 5500,
      "Ġregional": 5501,
      "Ġproducing": 5502,
      "Ġreality": 5503,
      "Ġlit": 5504,
      "ĠDisease": 5505,
      "Ġclick": 5506,
      "Ġphysics": 5507,
      "ĠMo": 5508,
      "Ġpip": 5509,
      "Ġpump": 5510,
      "Ġjour": 5511,
      "AP": 5512,
      "Ġrepresented": 5513,
      "Ġcontribute": 5514,
      "01": 5515,
      "ĠJoseph": 5516,
      "ĠFurther": 5517,
      "Ġrural": 5518,
      "Ġproduces": 5519,
      "Ġbow": 5520,
      "ĠToday": 5521,
      "Ġpromote": 5522,
      "ĠDec": 5523,
      "ĠCommon": 5524,
      "ructure": 5525,
      "Ġpil": 5526,
      "Ġdoi": 5527,
      "Ġgoods": 5528,
      "Ġvegetables": 5529,
      "rating": 5530,
      "Ġgreenhouse": 5531,
      "hemical": 5532,
      "bing": 5533,
      "Ġban": 5534,
      "Ġclust": 5535,
      "Ġrepresents": 5536,
      "Ġmath": 5537,
      "Ġroots": 5538,
      "Ġmaps": 5539,
      "ĠArctic": 5540,
      "unk": 5541,
      "Ġspacecraft": 5542,
      "Ġsurvival": 5543,
      "EL": 5544,
      "inding": 5545,
      "Ġ45": 5546,
      "Ġdoll": 5547,
      "osph": 5548,
      "Ġsudden": 5549,
      "going": 5550,
      "den": 5551,
      "ellect": 5552,
      "gal": 5553,
      "Ġchallenges": 5554,
      "Ġcapable": 5555,
      "ĠAcademy": 5556,
      "ĠDisc": 5557,
      "ĠFort": 5558,
      "Ġfloor": 5559,
      "Ġfacts": 5560,
      "Ġdocuments": 5561,
      "ĠTherefore": 5562,
      "ctive": 5563,
      "05": 5564,
      "Ġexcell": 5565,
      "Ġincreasingly": 5566,
      "Ġpossess": 5567,
      "ishing": 5568,
      "Ġformal": 5569,
      "Note": 5570,
      "DF": 5571,
      "abil": 5572,
      "ĠNative": 5573,
      "Ġrepeated": 5574,
      "Ġfacilities": 5575,
      "ĠIII": 5576,
      "Ġlisted": 5577,
      "Ġtun": 5578,
      "ĠRem": 5579,
      "Ġmist": 5580,
      "ĠItaly": 5581,
      "ipped": 5582,
      "Ġmonitoring": 5583,
      "Ġanyone": 5584,
      "Ġselected": 5585,
      "Ġreserv": 5586,
      "Ġexplains": 5587,
      "ĠSte": 5588,
      "Ġ1960": 5589,
      "Ġconcentration": 5590,
      "ĠPan": 5591,
      "Ġmix": 5592,
      "ĠEncyclopedia": 5593,
      "kins": 5594,
      "rin": 5595,
      "Ġsend": 5596,
      "Ġentirely": 5597,
      "Ġdestroyed": 5598,
      "umin": 5599,
      "Ġaer": 5600,
      "Ġextended": 5601,
      "MS": 5602,
      "asks": 5603,
      "Ġtitle": 5604,
      "Ġcos": 5605,
      "Ġapart": 5606,
      "rants": 5607,
      "Ġconcerned": 5608,
      "Ã¼": 5609,
      "hi": 5610,
      "ĠCommittee": 5611,
      "angered": 5612,
      "AD": 5613,
      "iced": 5614,
      "Ġ1994": 5615,
      "ĠNations": 5616,
      "Re": 5617,
      "Ġcrop": 5618,
      "Ġleaving": 5619,
      "Ġislands": 5620,
      "Ġpu": 5621,
      "reed": 5622,
      "Ġneighbor": 5623,
      "Ġdeaths": 5624,
      "ĠMoon": 5625,
      "Ġgreatly": 5626,
      "Ġ31": 5627,
      "Â·": 5628,
      "ĠGroup": 5629,
      "Ġheard": 5630,
      "Ġkidney": 5631,
      "].": 5632,
      "Ġunlike": 5633,
      "ĠLincoln": 5634,
      "Ġreplaced": 5635,
      "Ġexperienced": 5636,
      "Ġclaims": 5637,
      "Ġspecifically": 5638,
      "rust": 5639,
      "ĠPri": 5640,
      "Ġpotentially": 5641,
      "rant": 5642,
      "eria": 5643,
      "Ġstored": 5644,
      "Ġideal": 5645,
      "Ġcomputers": 5646,
      "Ġdescribes": 5647,
      "Ġconsequences": 5648,
      "Ġdomin": 5649,
      "ĠLaboratory": 5650,
      "Ġdirector": 5651,
      "ĠGeorg": 5652,
      "Ġslowly": 5653,
      "Ġstrate": 5654,
      "Ġconsult": 5655,
      "cluding": 5656,
      "edu": 5657,
      "ĠRichard": 5658,
      "ĠDan": 5659,
      "Ġstrategy": 5660,
      "iac": 5661,
      "Ġdecrease": 5662,
      "ĠBro": 5663,
      "Ġorgans": 5664,
      "inn": 5665,
      "Ġnutrients": 5666,
      "ĠEnd": 5667,
      "reland": 5668,
      "Ġrub": 5669,
      "Ġcontamin": 5670,
      "Ġseek": 5671,
      "Ġlymph": 5672,
      "ĠUsing": 5673,
      "Ġorganized": 5674,
      "Ġagencies": 5675,
      "iform": 5676,
      "ka": 5677,
      "ĠCancer": 5678,
      "ston": 5679,
      "oral": 5680,
      "uous": 5681,
      "Ġinnov": 5682,
      "ĠId": 5683,
      "Ġpermanent": 5684,
      "Now": 5685,
      "but": 5686,
      "urance": 5687,
      "ĠEngine": 5688,
      "Ġfelt": 5689,
      "Ġgovernments": 5690,
      "under": 5691,
      "Ġgar": 5692,
      "Ġscreen": 5693,
      "ION": 5694,
      "ompl": 5695,
      "Ġelectro": 5696,
      "Ġowners": 5697,
      "OT": 5698,
      "Ġtail": 5699,
      "exp": 5700,
      "Ġnotice": 5701,
      "Ġrenew": 5702,
      "Ġmetab": 5703,
      "Ġsets": 5704,
      "osal": 5705,
      "ĠEastern": 5706,
      "Ġscan": 5707,
      "Ġroll": 5708,
      "Ġsuc": 5709,
      "Ġstages": 5710,
      "ĠEconom": 5711,
      "Ġdespite": 5712,
      "Ġflex": 5713,
      "Ġpossibility": 5714,
      "Ġmeasurements": 5715,
      "Ġslaves": 5716,
      "ĠTem": 5717,
      "ĠOxford": 5718,
      "Ġgrown": 5719,
      "Ġprocedures": 5720,
      "ĠReport": 5721,
      "rison": 5722,
      "eor": 5723,
      "ĠColor": 5724,
      "Ġcloud": 5725,
      "olve": 5726,
      "Ġfit": 5727,
      "Ġvulner": 5728,
      "erals": 5729,
      "Ġfailed": 5730,
      "Ġdut": 5731,
      "Ġcryst": 5732,
      "indu": 5733,
      "Ġtaught": 5734,
      "Ġnest": 5735,
      "Ġparalle": 5736,
      "ND": 5737,
      "alog": 5738,
      "Ġpros": 5739,
      "Ġviews": 5740,
      "down": 5741,
      "Ġera": 5742,
      "itudes": 5743,
      "Ġarrived": 5744,
      "ella": 5745,
      "Ġsecondary": 5746,
      "Ġacademic": 5747,
      "ĠST": 5748,
      "Ġparticipants": 5749,
      "Ġviruses": 5750,
      "88": 5751,
      "Ġtransmission": 5752,
      "Ġcompl": 5753,
      "Ġworldwide": 5754,
      "iders": 5755,
      "....": 5756,
      "Ġprices": 5757,
      "Ġprevention": 5758,
      "rus": 5759,
      "no": 5760,
      "Ġstated": 5761,
      "Ġmild": 5762,
      "Ġ500": 5763,
      "ĠDel": 5764,
      "apping": 5765,
      "eenth": 5766,
      "athy": 5767,
      "Ġstomach": 5768,
      "imental": 5769,
      "ĠCambridge": 5770,
      "Ġethnic": 5771,
      "Ġreject": 5772,
      "Ġmeters": 5773,
      "liest": 5774,
      "Ġpure": 5775,
      "xi": 5776,
      "stone": 5777,
      "Ġhole": 5778,
      "Ġsan": 5779,
      "roat": 5780,
      "Ġchapter": 5781,
      "Ġnerve": 5782,
      "Ġcolors": 5783,
      "anta": 5784,
      "No": 5785,
      "olester": 5786,
      "zen": 5787,
      "Ġshared": 5788,
      "Ġtropical": 5789,
      "Ġflowers": 5790,
      "Ġpolar": 5791,
      "66": 5792,
      "Ġindicates": 5793,
      "ees": 5794,
      "ĠIreland": 5795,
      "ĠMichael": 5796,
      "Ġcontem": 5797,
      "Ġfigures": 5798,
      "peror": 5799,
      "Ġcris": 5800,
      "Ġimpossible": 5801,
      "95": 5802,
      "ĠPeter": 5803,
      "Ġaccompl": 5804,
      "obe": 5805,
      "Ġtumor": 5806,
      "Ġphilosophy": 5807,
      "Ġwire": 5808,
      "opic": 5809,
      "imer": 5810,
      "Ġsituations": 5811,
      "enses": 5812,
      "Ġmicrosc": 5813,
      "Ġopposite": 5814,
      "ĠConfed": 5815,
      "Ġmemb": 5816,
      "Ġcollege": 5817,
      "crete": 5818,
      "Ġfocused": 5819,
      "Ġsensitive": 5820,
      "Ġadequ": 5821,
      "Ġsaying": 5822,
      "Ġvalu": 5823,
      "Ġunless": 5824,
      "Ġnaturally": 5825,
      "Ġvariable": 5826,
      "Ġmales": 5827,
      "Ġdecade": 5828,
      "Ġrecognize": 5829,
      "Ġattached": 5830,
      "Ġhappened": 5831,
      "ĠValley": 5832,
      "ĠProfessor": 5833,
      "Ġequivalent": 5834,
      "ĠKen": 5835,
      "ĠChicago": 5836,
      "ĠFe": 5837,
      "ĠResources": 5838,
      "Ġatoms": 5839,
      "Ġstring": 5840,
      "ĠParty": 5841,
      "ĠStat": 5842,
      "Ġoral": 5843,
      "utch": 5844,
      "ansas": 5845,
      "ĠStudy": 5846,
      "rovers": 5847,
      "ML": 5848,
      "ĠBible": 5849,
      "Ġpret": 5850,
      "Ġpaint": 5851,
      "Ġlayers": 5852,
      "âĢĿ.": 5853,
      "Ġzone": 5854,
      "Ġexpressed": 5855,
      "ĠEc": 5856,
      "Ġpoverty": 5857,
      "Ġfertil": 5858,
      "Ġ#": 5859,
      "Ġnearby": 5860,
      "ĠAustralian": 5861,
      "Ġgenerated": 5862,
      "elled": 5863,
      "Ġmechanism": 5864,
      "Ġcalcium": 5865,
      "Ġunderstood": 5866,
      "anged": 5867,
      "Ġhelping": 5868,
      "Ġbud": 5869,
      "Ġidentity": 5870,
      "Ġphotograph": 5871,
      "Ġsubs": 5872,
      "uels": 5873,
      "Ġmoral": 5874,
      "Ġsen": 5875,
      "mp": 5876,
      "EP": 5877,
      "Ġfiles": 5878,
      "everal": 5879,
      "ĠProv": 5880,
      "Ġyourself": 5881,
      "Ġinterests": 5882,
      "alse": 5883,
      "Ġcomposed": 5884,
      "asure": 5885,
      "inations": 5886,
      "rem": 5887,
      "74": 5888,
      "Ġhorse": 5889,
      "Ġfract": 5890,
      "fe": 5891,
      "pread": 5892,
      "rine": 5893,
      "Ġmice": 5894,
      "Ġrein": 5895,
      "Ġmedium": 5896,
      "Ġoccasion": 5897,
      "Ġutil": 5898,
      "Ġexchange": 5899,
      "produ": 5900,
      "ĠWik": 5901,
      "Ġparas": 5902,
      "Ġdifficulty": 5903,
      "Ġedge": 5904,
      "Ġdivision": 5905,
      "gent": 5906,
      "Ġneu": 5907,
      "pping": 5908,
      "ĠLike": 5909,
      "ĠLong": 5910,
      "ĠAdminist": 5911,
      "ĠEarly": 5912,
      "Ġdrop": 5913,
      "Ġ(\"": 5914,
      "Ġvalid": 5915,
      "olesterol": 5916,
      "idespread": 5917,
      "iana": 5918,
      "Ġfruits": 5919,
      "Ġarchae": 5920,
      "Ġcredit": 5921,
      "ĠOut": 5922,
      "vironments": 5923,
      "rid": 5924,
      "Ġbuy": 5925,
      "Ġcandid": 5926,
      "Ġdogs": 5927,
      "Ġhit": 5928,
      "adel": 5929,
      "Another": 5930,
      "Ġleaf": 5931,
      "ĠMr": 5932,
      "Ġintest": 5933,
      "Ġ1992": 5934,
      "Ġimper": 5935,
      "Stud": 5936,
      "Ġshel": 5937,
      "Ġclosed": 5938,
      "Ġlocations": 5939,
      "Ġrelevant": 5940,
      "Ġgirls": 5941,
      "lets": 5942,
      "Ġsmoke": 5943,
      "ĠGuide": 5944,
      "ded": 5945,
      "Us": 5946,
      "ĠGold": 5947,
      "stances": 5948,
      "Ġstudying": 5949,
      "ĠList": 5950,
      "Ġapproaches": 5951,
      "ĠAnn": 5952,
      "Ġlegs": 5953,
      "Ġintroduction": 5954,
      "Ġestimates": 5955,
      "ua": 5956,
      "Ġreactions": 5957,
      "care": 5958,
      "Ġfounded": 5959,
      "place": 5960,
      "Ġabsolute": 5961,
      "press": 5962,
      "Ġdiscussed": 5963,
      "Ġlabel": 5964,
      "Ġfemales": 5965,
      "Ġneur": 5966,
      "Ġju": 5967,
      "Ġcertainly": 5968,
      "orter": 5969,
      "Ġstock": 5970,
      "Ġcomposition": 5971,
      "Ġacts": 5972,
      "Ġindependence": 5973,
      "opyright": 5974,
      "Ġbio": 5975,
      "Ġexpert": 5976,
      "ĠKingdom": 5977,
      "ĠInstead": 5978,
      "ĠEvery": 5979,
      "85": 5980,
      "Ġtwenty": 5981,
      "Ġglac": 5982,
      "Ġresulted": 5983,
      "Ġcompounds": 5984,
      "Ġdescription": 5985,
      "Ġrestrict": 5986,
      "Ġinher": 5987,
      "kes": 5988,
      "Ġbroken": 5989,
      "Ġnine": 5990,
      "ĠKh": 5991,
      "Ġresolution": 5992,
      "Ġyield": 5993,
      "Ġmorning": 5994,
      "Ġhouses": 5995,
      "ocy": 5996,
      "Ġtissues": 5997,
      "Ġgenerate": 5998,
      "Ġopening": 5999,
      "band": 6000,
      "ĠSupp": 6001,
      "Ġformat": 6002,
      "iest": 6003,
      "Ġresponsibility": 6004,
      "rors": 6005,
      "Ġpromin": 6006,
      "aph": 6007,
      "Ġpoison": 6008,
      "ĠÎ": 6009,
      "Ġaccum": 6010,
      "Ġexpansion": 6011,
      "Ġdiagnosed": 6012,
      "isters": 6013,
      "73": 6014,
      "Ġelectronic": 6015,
      "Ġremark": 6016,
      "iology": 6017,
      "Ġwife": 6018,
      "ĠLeg": 6019,
      "ediatric": 6020,
      "Ġdepth": 6021,
      "comm": 6022,
      "Ġlungs": 6023,
      "\")": 6024,
      "Ġconc": 6025,
      "Ġknew": 6026,
      "ĠBet": 6027,
      "Ġsupplies": 6028,
      "erent": 6029,
      "oples": 6030,
      "Ġpair": 6031,
      "Ġhydro": 6032,
      "Ġmaster": 6033,
      "ĠAccess": 6034,
      "ĠOnly": 6035,
      "Ġopened": 6036,
      "Ġrevealed": 6037,
      "ih": 6038,
      "Ġangle": 6039,
      "icon": 6040,
      "SD": 6041,
      "Ġrow": 6042,
      "Ġbiology": 6043,
      "Ġminimum": 6044,
      "Figure": 6045,
      "ĠWell": 6046,
      "Ġchildhood": 6047,
      "Ġtwice": 6048,
      "CR": 6049,
      "Ġparties": 6050,
      "ario": 6051,
      "EM": 6052,
      "Ġcart": 6053,
      "Ġsubstances": 6054,
      "Ġborder": 6055,
      "Ġjoined": 6056,
      "html": 6057,
      "Ġbear": 6058,
      "rays": 6059,
      "Ġdistrict": 6060,
      "Ġvolt": 6061,
      "Ġfeeding": 6062,
      "ĠIrish": 6063,
      "Ã¶": 6064,
      "ifies": 6065,
      "ding": 6066,
      "Ġtoler": 6067,
      "ĠWood": 6068,
      "Ġindeed": 6069,
      "ĠFree": 6070,
      "Ġlatest": 6071,
      "Ġfeeling": 6072,
      "Ġinfant": 6073,
      "ĠItalian": 6074,
      "esity": 6075,
      "Ġobtain": 6076,
      "rd": 6077,
      "Ġcalls": 6078,
      "Ġexists": 6079,
      "ouds": 6080,
      "Ġlose": 6081,
      "Ġinstall": 6082,
      "Ġsustainable": 6083,
      "Ġnewsp": 6084,
      "ĠRoyal": 6085,
      "Why": 6086,
      "comes": 6087,
      "ĠAgency": 6088,
      "ĠAgricult": 6089,
      "HO": 6090,
      "hand": 6091,
      "racy": 6092,
      "ects": 6093,
      "42": 6094,
      "08": 6095,
      "Ġvehicle": 6096,
      "ola": 6097,
      "iodiversity": 6098,
      "teen": 6099,
      "Ġ1993": 6100,
      "free": 6101,
      "asive": 6102,
      "Ġintellect": 6103,
      "06": 6104,
      "Ġconqu": 6105,
      "Ġbreeding": 6106,
      "Ġgases": 6107,
      "char": 6108,
      "Ġgluc": 6109,
      "Ġlandscape": 6110,
      "ificial": 6111,
      "Ġobl": 6112,
      "ĠConst": 6113,
      "pes": 6114,
      "Ġexpensive": 6115,
      "Our": 6116,
      "oster": 6117,
      "Ġimmediate": 6118,
      "Ġpowers": 6119,
      "Ġchromos": 6120,
      "09": 6121,
      "Ġwidespread": 6122,
      "Ġadvice": 6123,
      "sey": 6124,
      "Ġraise": 6125,
      "Ġconventional": 6126,
      "aud": 6127,
      "Ġcritic": 6128,
      "Ġsolutions": 6129,
      "andon": 6130,
      "Ġsod": 6131,
      "Ġlun": 6132,
      "Ġlibrary": 6133,
      "asty": 6134,
      "Ġfixed": 6135,
      "Ġpaid": 6136,
      "AA": 6137,
      "Ġamb": 6138,
      "Ġcognitive": 6139,
      "Ġdoctors": 6140,
      "Ġcaptured": 6141,
      "Here": 6142,
      "Ġpron": 6143,
      "ait": 6144,
      "Ġchart": 6145,
      "ĠKnow": 6146,
      "cher": 6147,
      "orph": 6148,
      "Ad": 6149,
      "ĠLu": 6150,
      "Ġparam": 6151,
      "ailed": 6152,
      "Ġunable": 6153,
      "ĠOhio": 6154,
      "Ġachieved": 6155,
      "Ġpoet": 6156,
      "Ġestimate": 6157,
      "Ġdistur": 6158,
      "ny": 6159,
      "Ġissued": 6160,
      "ĠSat": 6161,
      "SS": 6162,
      "alysis": 6163,
      "Ġrecept": 6164,
      "Ġscholars": 6165,
      "ĠMad": 6166,
      "idden": 6167,
      "ĠMill": 6168,
      "mat": 6169,
      "ĠPower": 6170,
      "occ": 6171,
      "Ġfilled": 6172,
      "Ġlimits": 6173,
      "umes": 6174,
      "Ġouter": 6175,
      "ĠAny": 6176,
      "Ġerror": 6177,
      "Ġadvoc": 6178,
      "ĠNaz": 6179,
      "Ġepid": 6180,
      "Ġmixed": 6181,
      "inity": 6182,
      "Ġfewer": 6183,
      "ses": 6184,
      "Ġadministration": 6185,
      "Cont": 6186,
      "ey": 6187,
      "Ġdatabase": 6188,
      "ora": 6189,
      "Ġvote": 6190,
      "azine": 6191,
      "ooth": 6192,
      "Ġprofession": 6193,
      "Ġgrand": 6194,
      "Ġcurriculum": 6195,
      "ĠGlobal": 6196,
      "ework": 6197,
      "reek": 6198,
      "Ġtons": 6199,
      "Ġdebate": 6200,
      "Ġlik": 6201,
      "Ġske": 6202,
      "43": 6203,
      "reci": 6204,
      "ĠMag": 6205,
      "Ġneck": 6206,
      "Ġexcellent": 6207,
      "Ġtheore": 6208,
      "Ġgather": 6209,
      "Ġevolved": 6210,
      "Ġsuccessfully": 6211,
      "Ġvoice": 6212,
      "ureau": 6213,
      "Ġgrew": 6214,
      "41": 6215,
      "Ġphotos": 6216,
      "Ġtopics": 6217,
      "inder": 6218,
      "Ġratio": 6219,
      "Ġchain": 6220,
      "ĠSaf": 6221,
      "Ġacids": 6222,
      "Ġenvironments": 6223,
      "Ġsimpl": 6224,
      "orous": 6225,
      "Ġflo": 6226,
      "ĠJeff": 6227,
      "Bl": 6228,
      "Ġscientist": 6229,
      "upt": 6230,
      "CT": 6231,
      "03": 6232,
      "anda": 6233,
      "Since": 6234,
      "Ġcav": 6235,
      "Ġearliest": 6236,
      "Ġemail": 6237,
      "Ġiniti": 6238,
      "Ġdeclared": 6239,
      "Ġmedication": 6240,
      "abul": 6241,
      "Ġinner": 6242,
      "ĠCoast": 6243,
      "ĠConservation": 6244,
      "Ġresidents": 6245,
      "vania": 6246,
      "cription": 6247,
      "Ġrespir": 6248,
      "Ġcultiv": 6249,
      "Ã³": 6250,
      "71": 6251,
      "Ġkeeping": 6252,
      "ĠLearning": 6253,
      "89": 6254,
      "Ġmolecular": 6255,
      "Ġcircuit": 6256,
      "ĠTimes": 6257,
      "asp": 6258,
      "ĠExt": 6259,
      "Ġsupplement": 6260,
      "Ġvaluable": 6261,
      "orses": 6262,
      "irty": 6263,
      "eline": 6264,
      "Ġadoles": 6265,
      "ĠRock": 6266,
      "ĠLab": 6267,
      "ĠCamp": 6268,
      "Ġemotional": 6269,
      "Ġcloser": 6270,
      "Ġhelpful": 6271,
      "Ġopinion": 6272,
      "ĠParis": 6273,
      "Ġsatis": 6274,
      "syl": 6275,
      "ĠDire": 6276,
      "Ġzero": 6277,
      "Ġgravity": 6278,
      "Ġsin": 6279,
      "Ġwid": 6280,
      "Ġ36": 6281,
      "Ġphr": 6282,
      "ĠBrown": 6283,
      "Ġcatch": 6284,
      "stract": 6285,
      "Ġbreathing": 6286,
      "Ġhighlight": 6287,
      "ĠStep": 6288,
      "ĠRom": 6289,
      "Ġmathematics": 6290,
      "HD": 6291,
      "Ġasthma": 6292,
      "Ġyounger": 6293,
      "ĠVict": 6294,
      "mary": 6295,
      "ĠMartin": 6296,
      "Ġcamera": 6297,
      "Ġadding": 6298,
      "Ġstroke": 6299,
      "ceeded": 6300,
      "ĠClimate": 6301,
      "Ġvel": 6302,
      "ĠScot": 6303,
      "Ġcolumn": 6304,
      "Ġmur": 6305,
      "aine": 6306,
      "Ġslavery": 6307,
      "ĠVen": 6308,
      "uilding": 6309,
      "ints": 6310,
      "Ġtrials": 6311,
      "',": 6312,
      "Ġchest": 6313,
      "rav": 6314,
      "Ġdiverse": 6315,
      "Ġvital": 6316,
      "Ġworse": 6317,
      "igned": 6318,
      "Ġsomewhat": 6319,
      "ĠThose": 6320,
      "Ġagreement": 6321,
      "Ġawareness": 6322,
      "Ġdelay": 6323,
      "02": 6324,
      "atever": 6325,
      "Ġfirm": 6326,
      "ĠSurvey": 6327,
      "Ġcultures": 6328,
      "Ġturb": 6329,
      "Ġperspective": 6330,
      "xts": 6331,
      "ften": 6332,
      "Ġdiameter": 6333,
      "72": 6334,
      "fl": 6335,
      "Ġprincipal": 6336,
      "Ġassist": 6337,
      "ifications": 6338,
      "eer": 6339,
      "yroid": 6340,
      "Ġtow": 6341,
      "Ġauthorities": 6342,
      "ĠExper": 6343,
      "04": 6344,
      "ĠDu": 6345,
      "ĠAge": 6346,
      "etics": 6347,
      "Ġreform": 6348,
      "scale": 6349,
      "Ġdigest": 6350,
      "Ġpull": 6351,
      "IL": 6352,
      "Ġmanaged": 6353,
      "Last": 6354,
      "ĠTor": 6355,
      "ĠSol": 6356,
      "Ġ1991": 6357,
      "Ġpolice": 6358,
      "ritis": 6359,
      "Ġoption": 6360,
      "ĠRef": 6361,
      "ĠManagement": 6362,
      "bra": 6363,
      "Ġextract": 6364,
      "Ġcontrovers": 6365,
      "Ġmammals": 6366,
      "Ġschem": 6367,
      "Ġrecovery": 6368,
      "hyth": 6369,
      "Ġcounty": 6370,
      "Ġprem": 6371,
      "Ġwear": 6372,
      "zil": 6373,
      "ca": 6374,
      "hered": 6375,
      "ascular": 6376,
      "Ġfunding": 6377,
      "ĠCult": 6378,
      "acu": 6379,
      "ĠDivision": 6380,
      "ga": 6381,
      "Ġtrain": 6382,
      "ĠObs": 6383,
      "ĠYet": 6384,
      "zed": 6385,
      "Ġtheories": 6386,
      "Ġelected": 6387,
      "Ġflower": 6388,
      "Ġcarefully": 6389,
      "Ġnitrogen": 6390,
      "Ġcollap": 6391,
      "Ġpush": 6392,
      "Ġspend": 6393,
      "Ġbabies": 6394,
      "Ġparallel": 6395,
      "Ear": 6396,
      "Ġyouth": 6397,
      "Ġstable": 6398,
      "ĠScott": 6399,
      "Ġmanage": 6400,
      "07": 6401,
      "xiety": 6402,
      "Ġdiscrim": 6403,
      "Ġmit": 6404,
      "ĠVis": 6405,
      "spe": 6406,
      "Ġcm": 6407,
      "weight": 6408,
      "Ġdedic": 6409,
      "Ġmotiv": 6410,
      "ĠData": 6411,
      "Ġgender": 6412,
      "Ġdiag": 6413,
      "Ġstick": 6414,
      "Ġcholesterol": 6415,
      "een": 6416,
      "Ġ75": 6417,
      "Ġsight": 6418,
      "oston": 6419,
      "ication": 6420,
      "Because": 6421,
      "ĠHawai": 6422,
      "ĠBoard": 6423,
      "ults": 6424,
      "Ġdrawn": 6425,
      "Ġcomprehensive": 6426,
      "ĠUSA": 6427,
      "mas": 6428,
      "Ġconstructed": 6429,
      "Ġthor": 6430,
      "Ġring": 6431,
      "Ġfighting": 6432,
      "ĠMa": 6433,
      "Your": 6434,
      "Ġblow": 6435,
      "CL": 6436,
      "Ġplaying": 6437,
      "umps": 6438,
      "Ġedition": 6439,
      "Ġexplanation": 6440,
      "sylvania": 6441,
      "Ġnecessarily": 6442,
      "Ġdinosa": 6443,
      "ĠRob": 6444,
      "Ġinterview": 6445,
      "CD": 6446,
      "Ġsurfaces": 6447,
      "ĠViet": 6448,
      "Ġtract": 6449,
      "Ġfell": 6450,
      "Ġtasks": 6451,
      "Ġshut": 6452,
      "ĠBre": 6453,
      "Ġminim": 6454,
      "Can": 6455,
      "Ġanswers": 6456,
      "Ġdestruction": 6457,
      "Ġbomb": 6458,
      "Ġfrequent": 6459,
      "Ġelectrons": 6460,
      "Ġ1950": 6461,
      "Ġexamine": 6462,
      "ipedia": 6463,
      "erior": 6464,
      "Ġmos": 6465,
      "ĠGeorgia": 6466,
      "Ġnoise": 6467,
      "angle": 6468,
      "Ġdoubt": 6469,
      "anes": 6470,
      ")|": 6471,
      "Ġarrange": 6472,
      "Ġcomfort": 6473,
      "Ġvoc": 6474,
      "Ġsilver": 6475,
      "Ġnose": 6476,
      "urrent": 6477,
      "erted": 6478,
      "Ġran": 6479,
      "Ġends": 6480,
      "uter": 6481,
      "Ġgradually": 6482,
      "anging": 6483,
      "Ġcircle": 6484,
      "Ġroughly": 6485,
      "plant": 6486,
      "Ġvillage": 6487,
      "ĠPop": 6488,
      "Ġconsistent": 6489,
      "Ġdemonstrated": 6490,
      "Ġsections": 6491,
      "Ġentered": 6492,
      "ishop": 6493,
      "Ġfill": 6494,
      "ING": 6495,
      "Ġspok": 6496,
      "ĠTw": 6497,
      "ĠHall": 6498,
      "Ġagreed": 6499,
      "hea": 6500,
      "Ġassistance": 6501,
      "Ġcircumstances": 6502,
      "Ġinfect": 6503,
      "Ġpassage": 6504,
      "rep": 6505,
      "ags": 6506,
      "ĠOF": 6507,
      "adelph": 6508,
      "ĠForest": 6509,
      "Ġrarely": 6510,
      "Ġultimately": 6511,
      "Ġgiant": 6512,
      "Ġshot": 6513,
      "Ġcolonies": 6514,
      "wing": 6515,
      "Ġpray": 6516,
      "Ġsigned": 6517,
      "Ġproved": 6518,
      "Ġwindow": 6519,
      "onal": 6520,
      "Ġtexts": 6521,
      "Ġecosystems": 6522,
      "ighter": 6523,
      "Pe": 6524,
      "ĠMu": 6525,
      "Ġlies": 6526,
      "Ġslave": 6527,
      "Ġgalaxies": 6528,
      "Ġpositions": 6529,
      "ĠAntar": 6530,
      "Ġphysician": 6531,
      "Ġcapture": 6532,
      "Ġmeasurement": 6533,
      "Ġabuse": 6534,
      "gu": 6535,
      "Ġalter": 6536,
      "agers": 6537,
      "Ġlegislation": 6538,
      "Ġagency": 6539,
      "ĠCre": 6540,
      "Ġaccounts": 6541,
      "Ġplane": 6542,
      "Ġunusual": 6543,
      "hips": 6544,
      "ĠDou": 6545,
      "Ġthreatened": 6546,
      "ĠFour": 6547,
      "Ġ32": 6548,
      "Ġentry": 6549,
      "ancing": 6550,
      "Ġguidelines": 6551,
      "Int": 6552,
      "Ġinsp": 6553,
      "ĠHome": 6554,
      "Ġadministr": 6555,
      "ĠLanguage": 6556,
      "Ġburning": 6557,
      "Ġevolutionary": 6558,
      "________": 6559,
      "Ġdrain": 6560,
      "esis": 6561,
      "otton": 6562,
      "Ġnegot": 6563,
      "Ġsheet": 6564,
      "Ġoutl": 6565,
      "Ġrising": 6566,
      "Dr": 6567,
      "Ġov": 6568,
      "ita": 6569,
      "Ġsentence": 6570,
      "Ġremote": 6571,
      "Ġprohib": 6572,
      "Ġlake": 6573,
      "Ġnewly": 6574,
      "IA": 6575,
      "Ġvegetation": 6576,
      "sen": 6577,
      "Ġabandon": 6578,
      "Ġwonder": 6579,
      "Ġinfants": 6580,
      "Ġcited": 6581,
      "Ġconsiderable": 6582,
      "Ġended": 6583,
      "En": 6584,
      "uset": 6585,
      "adder": 6586,
      "ĠCat": 6587,
      "aked": 6588,
      "Ġturns": 6589,
      "adelphia": 6590,
      "ĠTeac": 6591,
      "Ġdiscipl": 6592,
      "Ġpra": 6593,
      "ocracy": 6594,
      "Ġtribes": 6595,
      "Ġroute": 6596,
      "Ġinvolving": 6597,
      "Ġneither": 6598,
      "68": 6599,
      "Ġopposed": 6600,
      "Ġtrust": 6601,
      "Ġinvent": 6602,
      "Te": 6603,
      "Ġemployed": 6604,
      "ĠBab": 6605,
      "claim": 6606,
      "Ġhistoric": 6607,
      "Ġoutbre": 6608,
      "Ġgod": 6609,
      "ĠCap": 6610,
      "Ġhop": 6611,
      "inking": 6612,
      "Ġmaintained": 6613,
      "Ġaw": 6614,
      "ĠGulf": 6615,
      "Ġenhance": 6616,
      "Ġelection": 6617,
      "ceived": 6618,
      "Ġobst": 6619,
      "Ġsettlement": 6620,
      "oir": 6621,
      "ibilities": 6622,
      "prise": 6623,
      "Ġlessons": 6624,
      "Ġsports": 6625,
      "ĠMer": 6626,
      "Ġsharing": 6627,
      "ĠIslands": 6628,
      "Ġnutrition": 6629,
      "Ġuns": 6630,
      "Ġinhib": 6631,
      "Ġlaunched": 6632,
      "Ġpounds": 6633,
      "Ġorient": 6634,
      "ĠWildlife": 6635,
      "Ġaren": 6636,
      "Ġcomparison": 6637,
      "orders": 6638,
      "Ġpeoples": 6639,
      "Ġregularly": 6640,
      "ceans": 6641,
      "Ġchlor": 6642,
      "Ġmechanisms": 6643,
      "roduction": 6644,
      "inson": 6645,
      "Ġholes": 6646,
      "Ġprev": 6647,
      "âĢĿ,": 6648,
      "ĠPennsylvania": 6649,
      "Ġcert": 6650,
      "ĠBul": 6651,
      "Ġbor": 6652,
      "aded": 6653,
      "including": 6654,
      "Ġexped": 6655,
      "Ġintake": 6656,
      "apor": 6657,
      "Ġstanding": 6658,
      "Ġexamination": 6659,
      "brew": 6660,
      "Ġtells": 6661,
      "otherapy": 6662,
      "Ġstrongly": 6663,
      "Ġmodified": 6664,
      "ĠSup": 6665,
      "Ġswim": 6666,
      "issipp": 6667,
      ".).": 6668,
      "Ġneuro": 6669,
      "Ġinsulin": 6670,
      "ĠTHE": 6671,
      "ĠCy": 6672,
      "Ġcomments": 6673,
      "Ġcreates": 6674,
      "Ġquantum": 6675,
      "iah": 6676,
      "Ġspeaking": 6677,
      "Ġjobs": 6678,
      "ĠThrough": 6679,
      "Ġordered": 6680,
      "Ġmountains": 6681,
      "Ġ150": 6682,
      "Ġchosen": 6683,
      "Ġglucose": 6684,
      "ĠÂ©": 6685,
      "ĠMaterial": 6686,
      "Ġdetected": 6687,
      "cribed": 6688,
      "Ġenl": 6689,
      "Ġtall": 6690,
      "Ġfishing": 6691,
      "Ġtooth": 6692,
      "Ġreserved": 6693,
      "Ġcrisis": 6694,
      "Ġpublication": 6695,
      "Ġmoves": 6696,
      "Ġadap": 6697,
      "vard": 6698,
      "ĠAdministration": 6699,
      "Ġpy": 6700,
      "Ġtraffic": 6701,
      "Ġinflammation": 6702,
      "Ġofficers": 6703,
      "ĠYoung": 6704,
      "Ġdeliver": 6705,
      "lishing": 6706,
      "Ġmuseum": 6707,
      "Ġbeautiful": 6708,
      "Ġinfluenced": 6709,
      "69": 6710,
      "Ġstrict": 6711,
      "quit": 6712,
      "Ġvehicles": 6713,
      "Ġwhereas": 6714,
      "ĠProp": 6715,
      "Ġwithd": 6716,
      "Ġflows": 6717,
      "usal": 6718,
      "Ġmathematical": 6719,
      "Ġinstructions": 6720,
      "Ġmechanical": 6721,
      "ĠDarwin": 6722,
      "Ġwound": 6723,
      "Ġshift": 6724,
      "Ġroutine": 6725,
      "Ġprove": 6726,
      "Ġcattle": 6727,
      "thritis": 6728,
      "Ġsector": 6729,
      "nee": 6730,
      "Ġstarts": 6731,
      "Ġindicated": 6732,
      "Ġprovider": 6733,
      "Ġclaimed": 6734,
      "osh": 6735,
      "Ġinstitution": 6736,
      "icide": 6737,
      "Ġhun": 6738,
      "Ġprepare": 6739,
      "Ġcham": 6740,
      "Ġintense": 6741,
      "icians": 6742,
      "achuset": 6743,
      "Ġpregnant": 6744,
      "ano": 6745,
      "BS": 6746,
      "Ġstands": 6747,
      "?\"": 6748,
      "Ġresponses": 6749,
      "Ġcharacterized": 6750,
      "ĠSym": 6751,
      "antly": 6752,
      "achusetts": 6753,
      "Ġsought": 6754,
      "Ġcommit": 6755,
      "Ġsulf": 6756,
      "erman": 6757,
      "Ġnone": 6758,
      "zone": 6759,
      "Ġunderlying": 6760,
      "ĠLib": 6761,
      "Ġinteraction": 6762,
      "Ġsuitable": 6763,
      "ĠBoston": 6764,
      "Ġ400": 6765,
      "ĠDet": 6766,
      "aration": 6767,
      "ĠEth": 6768,
      "Ġsubsequent": 6769,
      "Ġforth": 6770,
      "ĠGood": 6771,
      "Ġclouds": 6772,
      "ushed": 6773,
      "Ġ65": 6774,
      "Ġatmospheric": 6775,
      "Ġnob": 6776,
      "ĠSpecial": 6777,
      "Ġplays": 6778,
      "Ġinjuries": 6779,
      "ĠBank": 6780,
      "ĠTime": 6781,
      "orith": 6782,
      "Ġclot": 6783,
      "Ġtouch": 6784,
      "ĠBattle": 6785,
      "Ġdamaged": 6786,
      "Ġprey": 6787,
      "Ġalph": 6788,
      "Ġpersist": 6789,
      "ĠHebrew": 6790,
      "arsh": 6791,
      "urches": 6792,
      "Ġantibiotics": 6793,
      "Ġcategories": 6794,
      "Ġimaging": 6795,
      "ĠIP": 6796,
      "Ġfalse": 6797,
      "Ġautism": 6798,
      "isk": 6799,
      "ĠHave": 6800,
      "ĠAtt": 6801,
      "Ġvoltage": 6802,
      "Ġfacilit": 6803,
      "Ġenemy": 6804,
      "Ġwel": 6805,
      "Ġsolve": 6806,
      "Ġfourth": 6807,
      "igan": 6808,
      "Ġescape": 6809,
      "ĠRh": 6810,
      "Ġsediment": 6811,
      "Ġinhabit": 6812,
      "Ġplat": 6813,
      "Ġbranch": 6814,
      "abled": 6815,
      "rey": 6816,
      "then": 6817,
      "CS": 6818,
      "acco": 6819,
      "ĠStreet": 6820,
      "Ġsteam": 6821,
      "ĠSecret": 6822,
      "issippi": 6823,
      "Ġfung": 6824,
      "Ġurine": 6825,
      "Ġscript": 6826,
      "Ġdefine": 6827,
      "cons": 6828,
      "ĠMicro": 6829,
      "Ġcenters": 6830,
      "itative": 6831,
      "Ġleadership": 6832,
      "Ġapproved": 6833,
      "ĠAmong": 6834,
      "Ġmac": 6835,
      "ether": 6836,
      "Ġbranches": 6837,
      "ĠCa": 6838,
      "bour": 6839,
      "May": 6840,
      "ima": 6841,
      "Ġstruggle": 6842,
      "Ġbehaviors": 6843,
      "Ġsteel": 6844,
      "bar": 6845,
      "eper": 6846,
      "Ġconscious": 6847,
      "Ġreaders": 6848,
      "ester": 6849,
      "izer": 6850,
      "Ġappointed": 6851,
      "ĠColorado": 6852,
      "Le": 6853,
      "Ġgenerations": 6854,
      "Ġplus": 6855,
      "Ġintelligence": 6856,
      "OU": 6857,
      "Ġpercentage": 6858,
      "Ġjustice": 6859,
      "ĠPhiladelphia": 6860,
      "ecific": 6861,
      "Ġdrought": 6862,
      "Ġmarriage": 6863,
      "Ġhabitats": 6864,
      "rowing": 6865,
      "Ġvariation": 6866,
      "Ġsurve": 6867,
      "Ġalle": 6868,
      "ostic": 6869,
      "Ġcharacteristic": 6870,
      "Ġsuffer": 6871,
      "Ġblocks": 6872,
      "hyd": 6873,
      "class": 6874,
      "medi": 6875,
      "ĠSwed": 6876,
      "while": 6877,
      "ĠIran": 6878,
      "tenance": 6879,
      "Ġveloc": 6880,
      "Ġinterpre": 6881,
      "Ġtransportation": 6882,
      "Ġagents": 6883,
      "Ġrequest": 6884,
      "irt": 6885,
      "cule": 6886,
      "Ġfeelings": 6887,
      "Do": 6888,
      "lem": 6889,
      "Ġblind": 6890,
      "Ġcrew": 6891,
      "Ġspectrum": 6892,
      "Ġarchitecture": 6893,
      "Ġisolated": 6894,
      "ontal": 6895,
      "ĠDictionary": 6896,
      "asters": 6897,
      "Ġshif": 6898,
      "Ġspiritual": 6899,
      "hav": 6900,
      "ums": 6901,
      "ĠChange": 6902,
      "Ġproportion": 6903,
      "oven": 6904,
      "Ġsupposed": 6905,
      "Ġattempts": 6906,
      "Ġcolour": 6907,
      "Ġholds": 6908,
      "Ġexplo": 6909,
      "Ġhorses": 6910,
      "ĠFrancisc": 6911,
      "Ġforming": 6912,
      "omal": 6913,
      "Ġrect": 6914,
      "Ġpreced": 6915,
      "rat": 6916,
      "ĠFamily": 6917,
      "Ġevaluation": 6918,
      "ĠBrazil": 6919,
      "Ġappreci": 6920,
      "Ġfoundation": 6921,
      "Ġphenomenon": 6922,
      "Ġtumors": 6923,
      "Ġsecure": 6924,
      "abits": 6925,
      "Ġcolony": 6926,
      "Ġlie": 6927,
      "ocation": 6928,
      "Ġconcentrations": 6929,
      "ĠMassachusetts": 6930,
      "eers": 6931,
      "agnetic": 6932,
      "Ġ1989": 6933,
      "Ġmand": 6934,
      "ibl": 6935,
      "Ġsupports": 6936,
      "Ġimplementation": 6937,
      "abulary": 6938,
      "Ġharmful": 6939,
      "Ġdrawing": 6940,
      "ĠAsian": 6941,
      "Ġseeing": 6942,
      "riers": 6943,
      "ĠJac": 6944,
      "Ġcub": 6945,
      "Ġfold": 6946,
      "charge": 6947,
      "Ġdemonstrate": 6948,
      "RA": 6949,
      "86": 6950,
      "Ġcontinuous": 6951,
      "Ġaf": 6952,
      "Ġtowns": 6953,
      "otion": 6954,
      "Ġprompt": 6955,
      "oric": 6956,
      "ĠMel": 6957,
      "ĠConvention": 6958,
      "pet": 6959,
      "ĠDen": 6960,
      "Ġgram": 6961,
      "Scient": 6962,
      "Ġtransf": 6963,
      "PL": 6964,
      "Ġpeak": 6965,
      "Ġspin": 6966,
      "Ġexception": 6967,
      "rary": 6968,
      "amps": 6969,
      "Ġcontrols": 6970,
      "Ġdecide": 6971,
      "Ġboys": 6972,
      "Ġstations": 6973,
      "ĠPlease": 6974,
      "example": 6975,
      "Ġmerely": 6976,
      "uing": 6977,
      "ĠSometimes": 6978,
      "ĠDirector": 6979,
      "Ġcompetition": 6980,
      "Ġgone": 6981,
      "acent": 6982,
      "Ġadequate": 6983,
      "Ġcrucial": 6984,
      "Ġjoin": 6985,
      "Ġessentially": 6986,
      "Ġcouple": 6987,
      "Ġseemed": 6988,
      "ĠGrand": 6989,
      "Ġfairly": 6990,
      "ĠMake": 6991,
      "icit": 6992,
      "Ġoccurring": 6993,
      "Ġdepart": 6994,
      "Ġing": 6995,
      "Ġundert": 6996,
      "Ġtelevision": 6997,
      "Ġphosph": 6998,
      "Ġrank": 6999,
      "Ġcarrying": 7000,
      "Ġconfirmed": 7001,
      "iary": 7002,
      "Ġformula": 7003,
      "abric": 7004,
      "Ġmachines": 7005,
      "Ġcars": 7006,
      "Ġreef": 7007,
      "etary": 7008,
      "Ġdesigns": 7009,
      "also": 7010,
      "Ġcareer": 7011,
      "Ġtalking": 7012,
      "Ġweapons": 7013,
      "Ġsmoking": 7014,
      "Ġparticipate": 7015,
      "Ġchemistry": 7016,
      "ĠEst": 7017,
      "http": 7018,
      "Ġ978": 7019,
      "Ġmicrob": 7020,
      "Ġrecognition": 7021,
      "Ġminerals": 7022,
      "Ġwitness": 7023,
      "Ġoperate": 7024,
      "ĠMississippi": 7025,
      "ĠCare": 7026,
      "ĠPrince": 7027,
      "last": 7028,
      "tra": 7029,
      "Ġvulnerable": 7030,
      "Ġanxiety": 7031,
      "Ġseparated": 7032,
      "Ġobesity": 7033,
      "Qu": 7034,
      "sm": 7035,
      "arant": 7036,
      "operation": 7037,
      "ĠTop": 7038,
      "ĠAri": 7039,
      "Read": 7040,
      "icular": 7041,
      "Ġcancers": 7042,
      "Ġintervention": 7043,
      "ishment": 7044,
      "Ġcompare": 7045,
      "ĠVer": 7046,
      "Ġmedicines": 7047,
      "Ġdefense": 7048,
      "Ġhunting": 7049,
      "Ġmode": 7050,
      "Ġassociation": 7051,
      "Ġinteractions": 7052,
      "dis": 7053,
      "ading": 7054,
      "Ġassigned": 7055,
      "gs": 7056,
      "ĠVictor": 7057,
      "Ġscar": 7058,
      "Ġfisher": 7059,
      "2012": 7060,
      "ĠIV": 7061,
      "Ġcommission": 7062,
      "about": 7063,
      "ĠHy": 7064,
      "ĠConn": 7065,
      "ologic": 7066,
      "ĠKar": 7067,
      "ĠMeth": 7068,
      "Ġfro": 7069,
      "trans": 7070,
      "Ġgalaxy": 7071,
      "Ġmm": 7072,
      "'.": 7073,
      "ura": 7074,
      "Ġacres": 7075,
      "Ġcovers": 7076,
      "fortunately": 7077,
      "Ġphone": 7078,
      "Ġchoices": 7079,
      "Ġnervous": 7080,
      "ĠSupreme": 7081,
      "mes": 7082,
      "ĠPy": 7083,
      "Ġprecip": 7084,
      "Ġdose": 7085,
      "ieval": 7086,
      "Ġaccuracy": 7087,
      "phone": 7088,
      "Rec": 7089,
      "Ġmineral": 7090,
      "ĠPalest": 7091,
      "Ġprominent": 7092,
      "Ġaccident": 7093,
      "Ġsettled": 7094,
      "uts": 7095,
      "amination": 7096,
      "Ġexamined": 7097,
      "ĠJohnson": 7098,
      "rite": 7099,
      "64": 7100,
      "Ġrecycl": 7101,
      "anges": 7102,
      "gical": 7103,
      "power": 7104,
      "Ġenable": 7105,
      "IG": 7106,
      "ĠBig": 7107,
      "Ġtransition": 7108,
      "herent": 7109,
      "Ġrig": 7110,
      "ĠEp": 7111,
      "ĠWall": 7112,
      "quar": 7113,
      "ĠNov": 7114,
      "ĠHoly": 7115,
      "Ġmanip": 7116,
      "ĠSk": 7117,
      "Ġmeasuring": 7118,
      "Ġdaughter": 7119,
      "Ġlaid": 7120,
      "2008": 7121,
      "rastructure": 7122,
      "ubble": 7123,
      "Ġshock": 7124,
      "Ġannounced": 7125,
      "National": 7126,
      "ĠHill": 7127,
      "Ġrefuge": 7128,
      "Ġtal": 7129,
      "Ġregist": 7130,
      "Ġpreval": 7131,
      "ollowing": 7132,
      "ĠWhere": 7133,
      "Ġequation": 7134,
      "Ġcopyright": 7135,
      "Ġartificial": 7136,
      "mod": 7137,
      "Ġfed": 7138,
      "ĠNavy": 7139,
      "ĠServices": 7140,
      "Ġproof": 7141,
      "Ġeld": 7142,
      "Ġenorm": 7143,
      "ĠPrevention": 7144,
      "Ed": 7145,
      "zo": 7146,
      "Ġbutter": 7147,
      "Ġmixt": 7148,
      "Ġcopper": 7149,
      "Ġbehaviour": 7150,
      "Ġimproving": 7151,
      "Ġgained": 7152,
      "ĠBooks": 7153,
      "'m": 7154,
      "Ġframe": 7155,
      "itter": 7156,
      "Ġdesert": 7157,
      "ĠLy": 7158,
      "ĠIce": 7159,
      "Ġ1930": 7160,
      "Ġexclus": 7161,
      "Ġdirected": 7162,
      "Ġmir": 7163,
      "ogue": 7164,
      "Ġlaunch": 7165,
      "Ġsupporting": 7166,
      "Ġpassing": 7167,
      "Ġlifest": 7168,
      "Ġcrow": 7169,
      "theless": 7170,
      "Ġregarded": 7171,
      "Ġconcluded": 7172,
      "My": 7173,
      "Am": 7174,
      "olt": 7175,
      "Ġraw": 7176,
      "ĠForce": 7177,
      "Ġclothing": 7178,
      "Ġuncertain": 7179,
      "ĠPo": 7180,
      "ĠPract": 7181,
      "Ġroof": 7182,
      "ĠEqu": 7183,
      "Ġdanger": 7184,
      "Ġmining": 7185,
      "Ġcorpor": 7186,
      "Ġstreams": 7187,
      "Ġbattery": 7188,
      "Ġgeomet": 7189,
      "body": 7190,
      "Ġtrouble": 7191,
      "ipping": 7192,
      "IP": 7193,
      "59": 7194,
      "Ġsunlight": 7195,
      "Ġtips": 7196,
      "Ġdepartment": 7197,
      "Ġhormone": 7198,
      "Ġsell": 7199,
      "Ġgranted": 7200,
      "Ġsubstantial": 7201,
      "Ġgrain": 7202,
      "Ġseconds": 7203,
      "Ġchick": 7204,
      ")||": 7205,
      "ulates": 7206,
      "Ġdiarr": 7207,
      "Ġmatch": 7208,
      "Ġvertical": 7209,
      "Ġwalking": 7210,
      "Ġmortality": 7211,
      "Ġstre": 7212,
      "rous": 7213,
      "Ġregulations": 7214,
      "neum": 7215,
      "Ġwinds": 7216,
      "Ġparticle": 7217,
      "Ġuniversal": 7218,
      "Ġcong": 7219,
      "ilson": 7220,
      "Ġfiber": 7221,
      "Ġnetworks": 7222,
      "using": 7223,
      "Ġdependent": 7224,
      "Ġvariations": 7225,
      "urt": 7226,
      "ĠIN": 7227,
      "ami": 7228,
      "Ġfilter": 7229,
      "Ġcraft": 7230,
      "Ġtransp": 7231,
      "Ġalgorith": 7232,
      "how": 7233,
      "Ġcharged": 7234,
      "def": 7235,
      "Ġdistributed": 7236,
      "ouri": 7237,
      "ĠTre": 7238,
      "Ġacquired": 7239,
      "Ġsubm": 7240,
      "Ġkilometers": 7241,
      "Ġpretty": 7242,
      "Ġtransmitted": 7243,
      "63": 7244,
      "2006": 7245,
      "Ġcustom": 7246,
      "Ġmeteor": 7247,
      "Ġbeliefs": 7248,
      "Ġcriteria": 7249,
      "ĠSpecies": 7250,
      "Ġtherap": 7251,
      "Ġcompris": 7252,
      "illa": 7253,
      "IM": 7254,
      "2007": 7255,
      "itivity": 7256,
      "Ġruns": 7257,
      "Ġargued": 7258,
      "allow": 7259,
      "Ġlists": 7260,
      "2005": 7261,
      "ĠUp": 7262,
      "Ġnurs": 7263,
      "Ġcolonial": 7264,
      "ĠAlaska": 7265,
      "Ġbread": 7266,
      "Ġles": 7267,
      "Ġintegrated": 7268,
      "Ġhazard": 7269,
      "Ġdriving": 7270,
      "ĠPet": 7271,
      "Des": 7272,
      "ĠThree": 7273,
      "ĠDutch": 7274,
      "Ġcommunicate": 7275,
      "Ġ;": 7276,
      "ĠNetwork": 7277,
      "Ġindigenous": 7278,
      "Ġpestic": 7279,
      "Ġlaser": 7280,
      "Ġfer": 7281,
      "ĠZeal": 7282,
      "amine": 7283,
      "Ġobservation": 7284,
      "Ġobserve": 7285,
      "Ġinfluenza": 7286,
      "yal": 7287,
      "Ġreceiving": 7288,
      "Ġsuffering": 7289,
      "inally": 7290,
      "ĠBefore": 7291,
      "ĠCurrent": 7292,
      "Ġarts": 7293,
      "Ġabsence": 7294,
      "forest": 7295,
      "idal": 7296,
      "ivery": 7297,
      "Ġexperimental": 7298,
      "ypes": 7299,
      "ĠGar": 7300,
      "Ġplanned": 7301,
      "ĠHand": 7302,
      "Ġdistant": 7303,
      "ĠPortug": 7304,
      "Ġmarried": 7305,
      "thal": 7306,
      "Ġlect": 7307,
      "Ġcomplications": 7308,
      "Ġinterpretation": 7309,
      "Ġpainting": 7310,
      "Ġholding": 7311,
      "heimer": 7312,
      "Ġrespiratory": 7313,
      "Ġsharp": 7314,
      "Ġbudget": 7315,
      "coming": 7316,
      "riting": 7317,
      "ĠVan": 7318,
      "Ġpool": 7319,
      "ourage": 7320,
      "SC": 7321,
      "ĠPMID": 7322,
      "Ġacknow": 7323,
      "iat": 7324,
      "Ġconclusion": 7325,
      "Ġdoor": 7326,
      "58": 7327,
      "Ġsuffered": 7328,
      "inois": 7329,
      "Ġbatt": 7330,
      "amil": 7331,
      "Ġembry": 7332,
      "orted": 7333,
      "Ġepis": 7334,
      "ude": 7335,
      "Ġirrig": 7336,
      "ani": 7337,
      "ĠCorn": 7338,
      "Ġmusical": 7339,
      "OL": 7340,
      "Ġendangered": 7341,
      "Ġassumed": 7342,
      "Ġath": 7343,
      "Ġshore": 7344,
      "Ġarrest": 7345,
      "Ġoceans": 7346,
      "Ġacute": 7347,
      "Ġoldest": 7348,
      "Ġintensity": 7349,
      "Ġattend": 7350,
      "astro": 7351,
      "Ġarray": 7352,
      "ĠPen": 7353,
      "Not": 7354,
      "Ġrespectively": 7355,
      "Ġuniversity": 7356,
      "ĠExp": 7357,
      "67": 7358,
      "Ġsignificance": 7359,
      "Ġcomplicated": 7360,
      "Ġimplications": 7361,
      "haust": 7362,
      "ensed": 7363,
      "ĠZealand": 7364,
      "Ġaccompan": 7365,
      "Ġcutting": 7366,
      "Ġrelief": 7367,
      "tebr": 7368,
      "2009": 7369,
      "ĠOrganization": 7370,
      "Ġempt": 7371,
      "Ġpairs": 7372,
      "borne": 7373,
      "rot": 7374,
      "Ġbuff": 7375,
      "Ġpolitics": 7376,
      "Ġbleeding": 7377,
      "Ġhandle": 7378,
      "ounter": 7379,
      "Ġdecay": 7380,
      "Ġobjective": 7381,
      "Ġprovin": 7382,
      "ĠSil": 7383,
      "una": 7384,
      "EE": 7385,
      "ette": 7386,
      "Ġstead": 7387,
      "Ġviewed": 7388,
      "Ġsoils": 7389,
      "Ġinvestment": 7390,
      "ivest": 7391,
      "Ġbridge": 7392,
      "Ġevaluate": 7393,
      "HA": 7394,
      "ĠDig": 7395,
      "ashion": 7396,
      "Ġcards": 7397,
      "ogle": 7398,
      "ĠMen": 7399,
      "Ġmatters": 7400,
      "Ġwish": 7401,
      "ĠEffect": 7402,
      "ograp": 7403,
      "Ġgenome": 7404,
      "Ġcooling": 7405,
      "Ġdense": 7406,
      "Ġcrim": 7407,
      "idity": 7408,
      "oding": 7409,
      "mann": 7410,
      "gers": 7411,
      "la": 7412,
      "Ġcarb": 7413,
      "aired": 7414,
      "ricts": 7415,
      "Ġdedicated": 7416,
      "ildren": 7417,
      "Ġhus": 7418,
      "Ġrab": 7419,
      "Ġtrained": 7420,
      "Ġbiodiversity": 7421,
      "pling": 7422,
      "Ġtank": 7423,
      "Ġcompound": 7424,
      "Ġexisted": 7425,
      "shaped": 7426,
      "Hist": 7427,
      "Ġdates": 7428,
      "Ġremoval": 7429,
      "ĠWil": 7430,
      "Col": 7431,
      "ĠWhe": 7432,
      "neys": 7433,
      "Ġheavily": 7434,
      "Ġhonor": 7435,
      "Ġcats": 7436,
      "ĠLow": 7437,
      "Ġlakes": 7438,
      "Ġfunctional": 7439,
      "Ġengineers": 7440,
      "Ġlots": 7441,
      "aneously": 7442,
      "Ġinitially": 7443,
      "Ġtight": 7444,
      "ĠTim": 7445,
      "ivered": 7446,
      "Ġwavel": 7447,
      "98": 7448,
      "Ġunion": 7449,
      "Ġelsewhere": 7450,
      "2010": 7451,
      "Ġcir": 7452,
      "Ġconnections": 7453,
      "Ġjourney": 7454,
      "ĠAdv": 7455,
      "ĠAlexander": 7456,
      "western": 7457,
      "Ġusual": 7458,
      "ivestock": 7459,
      "Ġgrant": 7460,
      "Comm": 7461,
      "Ġmyth": 7462,
      "Ġmolecule": 7463,
      "yles": 7464,
      "ifferent": 7465,
      "ĠJul": 7466,
      "Ġexpanded": 7467,
      "flow": 7468,
      "Ġroads": 7469,
      "Ġmaintenance": 7470,
      "Ġveter": 7471,
      "Ġsuperior": 7472,
      "Ġbacterial": 7473,
      "Ġparticipation": 7474,
      "rical": 7475,
      "Ġfet": 7476,
      "Ġconserv": 7477,
      "Ġdisabilities": 7478,
      "Ġmigration": 7479,
      "vin": 7480,
      "Ġknows": 7481,
      "Lear": 7482,
      "ĠPass": 7483,
      "Ġchannel": 7484,
      "Ġ1940": 7485,
      "Ġprinted": 7486,
      "Ġmagnitude": 7487,
      "Ġquantity": 7488,
      "inite": 7489,
      "aneous": 7490,
      "Ġcycl": 7491,
      "requ": 7492,
      "ĠFred": 7493,
      "bles": 7494,
      "Ġextinction": 7495,
      "ĠGard": 7496,
      "alls": 7497,
      "ographical": 7498,
      "Over": 7499,
      "Ġmoisture": 7500,
      "Ġcentre": 7501,
      "ĠWay": 7502,
      "ĠDO": 7503,
      "ĠAsk": 7504,
      "cel": 7505,
      "iral": 7506,
      "Ġ48": 7507,
      "ĠBill": 7508,
      "ilation": 7509,
      "Ġfasc": 7510,
      "Ġearthquake": 7511,
      "Ġpreventing": 7512,
      "hop": 7513,
      "Ġconj": 7514,
      "Ġdramatic": 7515,
      "Ġpref": 7516,
      "Ġframework": 7517,
      "CN": 7518,
      "Ġminute": 7519,
      "Ġfalls": 7520,
      "Ġcontemporary": 7521,
      "Ġracial": 7522,
      "Ġtrip": 7523,
      "ackson": 7524,
      "Pre": 7525,
      "Ġencouraged": 7526,
      "Ġceremon": 7527,
      "archy": 7528,
      "Ġfurn": 7529,
      "Ġinterior": 7530,
      "Ġsmooth": 7531,
      "Ġjur": 7532,
      "ĠThough": 7533,
      "2000": 7534,
      "ĠModern": 7535,
      "Ġimprovement": 7536,
      "About": 7537,
      "ĠChapter": 7538,
      "ucky": 7539,
      "ĠIslam": 7540,
      "Ġdisk": 7541,
      "Or": 7542,
      "Ġdecreased": 7543,
      "eren": 7544,
      "Ġmanif": 7545,
      "Ġintellectual": 7546,
      "ĠFrancisco": 7547,
      ".),": 7548,
      "ĠLee": 7549,
      "Ġextend": 7550,
      "Ġfarming": 7551,
      "ĠLess": 7552,
      "Ġartists": 7553,
      "Ġsuscept": 7554,
      "Ġdraft": 7555,
      "Ġvelocity": 7556,
      "ala": 7557,
      "Ġfuels": 7558,
      "opher": 7559,
      "Ġprogramming": 7560,
      "Ġcotton": 7561,
      "ba": 7562,
      "ĠSuper": 7563,
      ".'": 7564,
      "bean": 7565,
      "Ġholid": 7566,
      "ĠEr": 7567,
      "ĠHarvard": 7568,
      "iov": 7569,
      "ĠOper": 7570,
      "Ġturning": 7571,
      "Ġreader": 7572,
      "Ġbanks": 7573,
      "Ġ33": 7574,
      "Ġdirections": 7575,
      "athered": 7576,
      "Ġfellow": 7577,
      "century": 7578,
      "Ġion": 7579,
      "Ġdefend": 7580,
      "Ġft": 7581,
      "Ġirrit": 7582,
      "Ġconcrete": 7583,
      "ĠHeritage": 7584,
      "Ġteen": 7585,
      "Ġengage": 7586,
      "gon": 7587,
      "Ġliteracy": 7588,
      "contin": 7589,
      "Ġthroat": 7590,
      "Ġshapes": 7591,
      "Ġscreening": 7592,
      "gence": 7593,
      "Ġresearcher": 7594,
      "First": 7595,
      "Ġille": 7596,
      "Ġampl": 7597,
      "Ġfought": 7598,
      "Ġhero": 7599,
      "Ġheating": 7600,
      "Ġvaries": 7601,
      "Me": 7602,
      "Ġcord": 7603,
      "Ġestablishment": 7604,
      "ĠEPA": 7605,
      "Ġod": 7606,
      "imensional": 7607,
      "Ġdownload": 7608,
      "plete": 7609,
      "Ġmosquit": 7610,
      "Ġcommittee": 7611,
      "ĠIllinois": 7612,
      "ĠSenate": 7613,
      "Ġmembrane": 7614,
      "Ġcort": 7615,
      "Ġclock": 7616,
      "ieve": 7617,
      "Ġequally": 7618,
      "ĠLew": 7619,
      "Ġrecommendations": 7620,
      "rint": 7621,
      "Ġoccupied": 7622,
      "osphere": 7623,
      "Ġprovince": 7624,
      "thod": 7625,
      ".:": 7626,
      "Ġaward": 7627,
      "Ġcab": 7628,
      "Ġserver": 7629,
      "ĠPolit": 7630,
      "roc": 7631,
      "Ġcourts": 7632,
      "athers": 7633,
      "Ġbiom": 7634,
      "ctu": 7635,
      "alo": 7636,
      "2004": 7637,
      "ĠCreat": 7638,
      "ĠIndust": 7639,
      "oured": 7640,
      "Ġguarant": 7641,
      "Ġvariables": 7642,
      "Ġ1988": 7643,
      "Ġplatform": 7644,
      "Ġcontributed": 7645,
      "Ġwriter": 7646,
      "ĠScientists": 7647,
      "Ġordinary": 7648,
      "Ġadolesc": 7649,
      "ENT": 7650,
      "Ġcategory": 7651,
      "ĠSing": 7652,
      "Ġwhatever": 7653,
      "ĠDistrict": 7654,
      "Ġingred": 7655,
      "ĠUt": 7656,
      "asma": 7657,
      "otype": 7658,
      "Ġassume": 7659,
      "Ġskill": 7660,
      "Ġinfrastructure": 7661,
      "Ġpapers": 7662,
      "Ġcareful": 7663,
      "Ġreveal": 7664,
      "ĠLiter": 7665,
      "Ġdifficulties": 7666,
      "Ġopposition": 7667,
      "endar": 7668,
      "zym": 7669,
      "Ġpin": 7670,
      "istical": 7671,
      "uan": 7672,
      "Ġecological": 7673,
      "ĠOrig": 7674,
      "UN": 7675,
      "IR": 7676,
      "Ġdominant": 7677,
      "foot": 7678,
      "Car": 7679,
      "Art": 7680,
      "ĠOnline": 7681,
      "Once": 7682,
      "rons": 7683,
      "Ġquarter": 7684,
      "Ġfabric": 7685,
      "Ġdelivered": 7686,
      "Ġid": 7687,
      "Ġdisaster": 7688,
      "Ġwings": 7689,
      "Ġ1920": 7690,
      "53": 7691,
      "ĠStr": 7692,
      "upiter": 7693,
      "usalem": 7694,
      "2003": 7695,
      "Ġmanufacturing": 7696,
      "Ġengines": 7697,
      "azing": 7698,
      "ĠTri": 7699,
      "Ġmercury": 7700,
      "itionally": 7701,
      "Ġscene": 7702,
      "ĠParliament": 7703,
      "ĠDC": 7704,
      "Ġcourses": 7705,
      "ĠDespite": 7706,
      "mers": 7707,
      "Ġongoing": 7708,
      "56": 7709,
      "ĠEdward": 7710,
      "orig": 7711,
      "uma": 7712,
      "ĠNon": 7713,
      "Even": 7714,
      "Ġrecover": 7715,
      "oved": 7716,
      "Ġtruly": 7717,
      "ĠChristians": 7718,
      "ĠSir": 7719,
      "Ġrepresentation": 7720,
      "ĠPage": 7721,
      "Ġconcerning": 7722,
      "Ġastronomers": 7723,
      "Ġsacr": 7724,
      "rared": 7725,
      "ysical": 7726,
      "ĠMichigan": 7727,
      "atal": 7728,
      "ĠTV": 7729,
      "ĠHealthwise": 7730,
      "ĠDesign": 7731,
      "Ġ38": 7732,
      "ĠAngel": 7733,
      "amics": 7734,
      "ĠMissouri": 7735,
      "DP": 7736,
      "eroid": 7737,
      "ĠNote": 7738,
      "Ġflying": 7739,
      "amples": 7740,
      "ĠNut": 7741,
      "ulty": 7742,
      "Ġdollars": 7743,
      "ĠPlant": 7744,
      "Ġbond": 7745,
      "Ġcontents": 7746,
      "Ġdeposits": 7747,
      "lymp": 7748,
      "ranean": 7749,
      "ĠProtection": 7750,
      "Ġcombat": 7751,
      "eless": 7752,
      "Ġbiggest": 7753,
      "Ġvaccines": 7754,
      "ĠFigure": 7755,
      "People": 7756,
      "Ġbegun": 7757,
      "Ġclassified": 7758,
      "Ġneurons": 7759,
      "Ġrice": 7760,
      "Ġseiz": 7761,
      "uther": 7762,
      "uality": 7763,
      "ĠBureau": 7764,
      "Ġbees": 7765,
      "Ġcough": 7766,
      "Ġdomain": 7767,
      "ĠMarine": 7768,
      "Ġinvestigation": 7769,
      "Ġpermission": 7770,
      "Ġorganism": 7771,
      "Ġwriters": 7772,
      "ployment": 7773,
      "ĠMaryland": 7774,
      "Ġrays": 7775,
      "Ġcovering": 7776,
      "Ġtelescope": 7777,
      "Ġpsychology": 7778,
      "Ġbeings": 7779,
      "Ã¤": 7780,
      "print": 7781,
      "Ġlisten": 7782,
      "Ġconven": 7783,
      "Ġthermal": 7784,
      "Ġdesire": 7785,
      "Ġconfig": 7786,
      "Ġradical": 7787,
      "Ġanalog": 7788,
      "Ġafford": 7789,
      "ĠHistorical": 7790,
      "ĠStan": 7791,
      "Ġclassical": 7792,
      "2001": 7793,
      "Ġadapted": 7794,
      "hemistry": 7795,
      "96": 7796,
      "],": 7797,
      "Ġinstalled": 7798,
      "ĠFar": 7799,
      "Ġreliable": 7800,
      "aws": 7801,
      "Ġcoral": 7802,
      "enger": 7803,
      "essment": 7804,
      "unicip": 7805,
      "operative": 7806,
      "ĠChristianity": 7807,
      "ĠObserv": 7808,
      "Ġcommitted": 7809,
      "Ġconverted": 7810,
      "BM": 7811,
      "Ġhabits": 7812,
      "rh": 7813,
      "ĠPolic": 7814,
      "Ġvictims": 7815,
      "Ġenormous": 7816,
      "ricted": 7817,
      "Ġphoto": 7818,
      "pled": 7819,
      "ĠKansas": 7820,
      "Ġahead": 7821,
      "Ġdream": 7822,
      "Ġplain": 7823,
      "92": 7824,
      "Ġrid": 7825,
      "Ġblog": 7826,
      "uten": 7827,
      "Ġbears": 7828,
      "Ġlogic": 7829,
      "erty": 7830,
      "Ġheads": 7831,
      "Ġspoken": 7832,
      "Su": 7833,
      "ometer": 7834,
      "Ġorders": 7835,
      "52": 7836,
      "vi": 7837,
      "Ġoutcomes": 7838,
      "Ġhousing": 7839,
      "ogether": 7840,
      "ĠBiology": 7841,
      "Ġneutral": 7842,
      "ĠSeveral": 7843,
      "ĠHu": 7844,
      "Ġwing": 7845,
      "endment": 7846,
      "Ġvocabulary": 7847,
      "zyme": 7848,
      "Ġboy": 7849,
      "Ġsevent": 7850,
      "Ġemployment": 7851,
      "kl": 7852,
      "ulatory": 7853,
      "Ġvictory": 7854,
      "Ġburied": 7855,
      "Ġapparently": 7856,
      "Ġarguments": 7857,
      "Ġru": 7858,
      "Ġdys": 7859,
      "Ġpharm": 7860,
      "Ġpresentation": 7861,
      "Ġbeneficial": 7862,
      "Ġtom": 7863,
      "prof": 7864,
      "Ġexhaust": 7865,
      "rox": 7866,
      "Ġidentical": 7867,
      "Ġcreatures": 7868,
      "Â©": 7869,
      "Ref": 7870,
      "Ġmobile": 7871,
      "ĠAM": 7872,
      "ĠStar": 7873,
      "Ġexploration": 7874,
      "Ġpreparation": 7875,
      "ĠWilson": 7876,
      "Ġpsychological": 7877,
      "ĠAND": 7878,
      "Ġwarning": 7879,
      "ĠStandard": 7880,
      "word": 7881,
      "psy": 7882,
      "Ġmg": 7883,
      "eping": 7884,
      "Ġhypothesis": 7885,
      "Med": 7886,
      "Ġprotective": 7887,
      "Ġthoughts": 7888,
      "Ġserving": 7889,
      "Ġdegrad": 7890,
      "issance": 7891,
      "Ġpropag": 7892,
      "Ġnarr": 7893,
      "Ġstreet": 7894,
      "Ġplot": 7895,
      "zheimer": 7896,
      "Ġfinished": 7897,
      "ĠMinister": 7898,
      "Ġstones": 7899,
      "ĠPoint": 7900,
      "Ġ1987": 7901,
      "zona": 7902,
      "Ġprofessionals": 7903,
      "Ġsole": 7904,
      "Ġeditor": 7905,
      "Ġversions": 7906,
      "icate": 7907,
      "Ġsweet": 7908,
      "ĠMax": 7909,
      "Ġrepair": 7910,
      "Ġstrain": 7911,
      "Ġoptical": 7912,
      "ĠQuest": 7913,
      "Ġfunds": 7914,
      "making": 7915,
      "asses": 7916,
      "ĠSign": 7917,
      "Ġmoderate": 7918,
      "effect": 7919,
      "ĠOl": 7920,
      "Ġtraditions": 7921,
      "rolled": 7922,
      "ĠColon": 7923,
      "ĠIslamic": 7924,
      "ĠFact": 7925,
      "Ġerosion": 7926,
      "ĠContin": 7927,
      "Ġdescript": 7928,
      "Ġsubstit": 7929,
      "was": 7930,
      "Ġrose": 7931,
      "ĠSand": 7932,
      "Ġadds": 7933,
      "Ġdelivery": 7934,
      "ĠJerusalem": 7935,
      "Comp": 7936,
      "Ġchurches": 7937,
      "itals": 7938,
      "Ġreviewed": 7939,
      "Ġuniform": 7940,
      "Ġtaste": 7941,
      "Ġrely": 7942,
      "itler": 7943,
      "icted": 7944,
      "regation": 7945,
      "ommod": 7946,
      "LE": 7947,
      "Ġfinds": 7948,
      "Ġexhibit": 7949,
      "ĠPur": 7950,
      "ĠAIDS": 7951,
      "ĠLittle": 7952,
      "bell": 7953,
      "Ġvirtual": 7954,
      "va": 7955,
      "Ġspinal": 7956,
      "Ġreaching": 7957,
      "Ġstronger": 7958,
      "ĠCreek": 7959,
      "isphere": 7960,
      "ĠPC": 7961,
      "aming": 7962,
      "Source": 7963,
      "raham": 7964,
      "net": 7965,
      "Ġdevelops": 7966,
      "Ġvirtually": 7967,
      "Ġsplit": 7968,
      "itic": 7969,
      "Ġmethane": 7970,
      "ĠScotland": 7971,
      "Ġgap": 7972,
      "Ġeffectiveness": 7973,
      "Ġlosses": 7974,
      "lean": 7975,
      "Ġ1986": 7976,
      "she": 7977,
      "2002": 7978,
      "Ġatomic": 7979,
      "Ġinterf": 7980,
      "Ġmarkets": 7981,
      "Ġsettlers": 7982,
      "ĠOlymp": 7983,
      "ooking": 7984,
      "night": 7985,
      "Ġusage": 7986,
      "Ġcaught": 7987,
      "Ġdesired": 7988,
      "ĠTr": 7989,
      "ĠHeart": 7990,
      "ĠSimilar": 7991,
      "ĠJefferson": 7992,
      "Ġdebt": 7993,
      "Ġsurge": 7994,
      "Ġgro": 7995,
      "Ġempire": 7996,
      "irus": 7997,
      "Ġvan": 7998,
      "Ġbreath": 7999,
      "zer": 8000,
      "irth": 8001,
      "Ġnom": 8002,
      "Ġdoct": 8003,
      "ĠFair": 8004,
      "Ġtreating": 8005,
      "Ġdriven": 8006,
      "ĠMS": 8007,
      "ĠFund": 8008,
      "Ġsodium": 8009,
      "Ġwheat": 8010,
      "ceedings": 8011,
      "ounce": 8012,
      "idae": 8013,
      "Ġrational": 8014,
      "ĠSar": 8015,
      "ĠFinally": 8016,
      "Ġwilling": 8017,
      "ailability": 8018,
      "Ġtob": 8019,
      "Ġreduces": 8020,
      "olving": 8021,
      "ady": 8022,
      "Ġfacility": 8023,
      "Ġmetals": 8024,
      "Ġmarks": 8025,
      "Ġbath": 8026,
      "ĠNever": 8027,
      "Ġbene": 8028,
      "oded": 8029,
      "Ġengaged": 8030,
      "regon": 8031,
      "CE": 8032,
      "Ġquantities": 8033,
      "ĠJackson": 8034,
      "Ġtreaty": 8035,
      "Ġmaintaining": 8036,
      "Ġlens": 8037,
      "ĠConference": 8038,
      "Ġmixture": 8039,
      "Ġgrows": 8040,
      "ups": 8041,
      "arents": 8042,
      "Ġlifestyle": 8043,
      "agon": 8044,
      "Ġinvasion": 8045,
      "Ġachievement": 8046,
      "Ġviral": 8047,
      "Ġcorresponding": 8048,
      "Ġrhyth": 8049,
      "Ġdetection": 8050,
      "Scientists": 8051,
      "ribe": 8052,
      "atus": 8053,
      "Ġsimult": 8054,
      "Ġstructural": 8055,
      "Ġtrigger": 8056,
      "Ġemphasis": 8057,
      "ĠMexican": 8058,
      "Ġmessages": 8059,
      "top": 8060,
      "Ġresident": 8061,
      "Ġerrors": 8062,
      "Ġfur": 8063,
      "Ġflour": 8064,
      "ĠCapt": 8065,
      "Ġtemporary": 8066,
      "Ġdescend": 8067,
      "ĠMult": 8068,
      "Ġherb": 8069,
      "ĠDie": 8070,
      "rance": 8071,
      "ĠEngineering": 8072,
      "Ġcorrel": 8073,
      "Ġpurchase": 8074,
      "Ġsocieties": 8075,
      "Ġseat": 8076,
      "Ġpreserved": 8077,
      "Ġexcessive": 8078,
      "Ġguard": 8079,
      "Ġpartner": 8080,
      "Ġfeedback": 8081,
      "Ġwants": 8082,
      "Ġdiscrimination": 8083,
      "ptic": 8084,
      "ĠJr": 8085,
      "Ġbeneath": 8086,
      "Ġthereby": 8087,
      "gment": 8088,
      "Ġputting": 8089,
      "quir": 8090,
      "Ġdemands": 8091,
      "agan": 8092,
      "ĠJupiter": 8093,
      "Ġven": 8094,
      "Ġcrime": 8095,
      "venue": 8096,
      "Ġmissing": 8097,
      "Â®": 8098,
      "ico": 8099,
      "Ġidentification": 8100,
      "Ġfinger": 8101,
      "Ġpale": 8102,
      "Per": 8103,
      "esides": 8104,
      "Ġflash": 8105,
      "Ġrefused": 8106,
      "after": 8107,
      "ĠJo": 8108,
      "engths": 8109,
      "uits": 8110,
      "Ġconsumers": 8111,
      "Ġmyst": 8112,
      "Ġtobacco": 8113,
      "'d": 8114,
      "idance": 8115,
      "Ġpup": 8116,
      "Ġsubt": 8117,
      "Ġhence": 8118,
      "Ġagent": 8119,
      "ĠAT": 8120,
      "61": 8121,
      "olph": 8122,
      "Ġcopies": 8123,
      "ĠIndepend": 8124,
      "Ġvarieties": 8125,
      "ĠOtt": 8126,
      "Ġhorizontal": 8127,
      "asm": 8128,
      "ĠPhysics": 8129,
      "Ġmothers": 8130,
      "ĠGre": 8131,
      "Ġroyal": 8132,
      "Ġkilling": 8133,
      "Ġdeficiency": 8134,
      "Add": 8135,
      "Ġgrains": 8136,
      "Ġfarms": 8137,
      "ĠPot": 8138,
      "elve": 8139,
      "Ġpointed": 8140,
      "ĠGermans": 8141,
      "orus": 8142,
      "Ġpredators": 8143,
      "Ġassemb": 8144,
      "NS": 8145,
      "Ġash": 8146,
      "ĠCommunity": 8147,
      "thodox": 8148,
      "ĠAgriculture": 8149,
      "ologically": 8150,
      "Ġweigh": 8151,
      "velt": 8152,
      "olves": 8153,
      "Ġseeking": 8154,
      "Ġprobability": 8155,
      "Ġinn": 8156,
      "Ne": 8157,
      "Ġmetabol": 8158,
      "Ġoptim": 8159,
      "ĠCross": 8160,
      "ĠSecretary": 8161,
      ":||": 8162,
      "Ġlanding": 8163,
      "Ġstrike": 8164,
      "eness": 8165,
      "Ġattempted": 8166,
      "enter": 8167,
      "CH": 8168,
      "Ġresid": 8169,
      "Ġconference": 8170,
      "Ġsettings": 8171,
      "Ġlivestock": 8172,
      "Today": 8173,
      "Ġthreats": 8174,
      "Ġoccasionally": 8175,
      "ĠStandards": 8176,
      "imm": 8177,
      "urning": 8178,
      "Ġped": 8179,
      "ĠYear": 8180,
      "Part": 8181,
      "Ġroles": 8182,
      "ĠSecurity": 8183,
      "ĠNO": 8184,
      "ogenic": 8185,
      "Ġsail": 8186,
      "ao": 8187,
      "ĠCub": 8188,
      "Ġrainfall": 8189,
      "Ġdistinguish": 8190,
      "Ġphotographs": 8191,
      "ĠLater": 8192,
      "Ġspecified": 8193,
      "Ġtempor": 8194,
      "Ġthread": 8195,
      "osevelt": 8196,
      "this": 8197,
      "Ġcoff": 8198,
      "ĠAcc": 8199,
      "elect": 8200,
      "ĠGet": 8201,
      "Ġclin": 8202,
      "Ġaudience": 8203,
      "Ġcorner": 8204,
      "otal": 8205,
      "ĠWorks": 8206,
      "iner": 8207,
      "Ġfashion": 8208,
      "Ġjump": 8209,
      "Ġpreserve": 8210,
      "Ġresist": 8211,
      "Ġfires": 8212,
      "atively": 8213,
      "Researchers": 8214,
      "Ġmissions": 8215,
      "2011": 8216,
      "zymes": 8217,
      "Ġton": 8218,
      "ĠCentre": 8219,
      "ulus": 8220,
      "Ġpresents": 8221,
      "vation": 8222,
      "adow": 8223,
      "Ġarmed": 8224,
      "sell": 8225,
      "omatic": 8226,
      "Ġworship": 8227,
      "ĠTurk": 8228,
      "51": 8229,
      "ĠHospital": 8230,
      "Ġstatements": 8231,
      "ĠSolar": 8232,
      "Ġswitch": 8233,
      "Ġeliminate": 8234,
      "ĠPhilos": 8235,
      "Ġreflected": 8236,
      "reated": 8237,
      "Ġinsurance": 8238,
      "Ġreplic": 8239,
      "ĠFind": 8240,
      "Ġpasses": 8241,
      "Ġmutations": 8242,
      "Ġwars": 8243,
      "ĠAlzheimer": 8244,
      "Ġenforce": 8245,
      "Ġoverw": 8246,
      "John": 8247,
      "Ġorigins": 8248,
      "Ġspending": 8249,
      "cin": 8250,
      "Ġreaches": 8251,
      "ĠTom": 8252,
      "ĠWho": 8253,
      "mble": 8254,
      "Ġdetermining": 8255,
      "Ġrenewable": 8256,
      "sun": 8257,
      "ulsion": 8258,
      "ĠMur": 8259,
      "Ġabstract": 8260,
      "Ġaxis": 8261,
      "ĠGreece": 8262,
      "ĠArizona": 8263,
      "ĠWikipedia": 8264,
      "57": 8265,
      "Ġfraction": 8266,
      "Ġabol": 8267,
      "asts": 8268,
      "Ġtemple": 8269,
      "Ġcompens": 8270,
      "Ġsit": 8271,
      "erly": 8272,
      "Ġvisitors": 8273,
      "Ġtong": 8274,
      "Ġcounsel": 8275,
      "ĠCop": 8276,
      "97": 8277,
      "Ġthyroid": 8278,
      "Ġwasn": 8279,
      "iph": 8280,
      "Ġmature": 8281,
      "Ġfossils": 8282,
      "Ġoutcome": 8283,
      "ĠCell": 8284,
      "Ġmeal": 8285,
      "arks": 8286,
      "iological": 8287,
      "sis": 8288,
      "Ġdisrupt": 8289,
      "ĠKorea": 8290,
      "62": 8291,
      "itory": 8292,
      "Ġserves": 8293,
      "ĠSafety": 8294,
      "Ġtrends": 8295,
      "rone": 8296,
      "rium": 8297,
      "Ġcreative": 8298,
      "ĠPak": 8299,
      "through": 8300,
      "ĠWindows": 8301,
      "Ġemerged": 8302,
      "Ġwait": 8303,
      "Ġboundary": 8304,
      "Ġdiarrhea": 8305,
      "----": 8306,
      "ĠField": 8307,
      "Ġplayers": 8308,
      "Ġdecor": 8309,
      "Ġliterary": 8310,
      "Ġeveryday": 8311,
      "%.": 8312,
      "onomic": 8313,
      "Ġdefinite": 8314,
      "Ġsymbols": 8315,
      "Ġcollaboration": 8316,
      "Ġremarkable": 8317,
      "ĠAvoid": 8318,
      "Ġdies": 8319,
      "Ġcup": 8320,
      "Ġlights": 8321,
      "Ġvolcanic": 8322,
      "Ġtargets": 8323,
      "erally": 8324,
      "omical": 8325,
      "ĠAstron": 8326,
      "oves": 8327,
      "Ġranging": 8328,
      "Ġinhabitants": 8329,
      "Ġincidence": 8330,
      "ĠNeg": 8331,
      "just": 8332,
      "ohyd": 8333,
      "ician": 8334,
      "Ġmagnet": 8335,
      "Ġpollut": 8336,
      "ricane": 8337,
      "Ġcalories": 8338,
      "iop": 8339,
      "ventions": 8340,
      "Ġargue": 8341,
      "54": 8342,
      "ĠSpring": 8343,
      "Ġ34": 8344,
      "Ġancestors": 8345,
      "Ġwrites": 8346,
      "Ġaffecting": 8347,
      "Ġcrust": 8348,
      "Ġreign": 8349,
      "mail": 8350,
      "iterranean": 8351,
      "Ġfunded": 8352,
      "restrial": 8353,
      "ois": 8354,
      "Ġconstantly": 8355,
      "ĠVolume": 8356,
      "ĠDyn": 8357,
      "Ġaccommod": 8358,
      "Ġgrid": 8359,
      "Ġbeet": 8360,
      "ĠHitler": 8361,
      "AB": 8362,
      "Ġranges": 8363,
      "93": 8364,
      "Ġrh": 8365,
      "ĠIdent": 8366,
      "Of": 8367,
      "ourse": 8368,
      "ĠMid": 8369,
      "ĠWal": 8370,
      "ĠRNA": 8371,
      "Ġaccompanied": 8372,
      "Ġbron": 8373,
      "Ġcommunications": 8374,
      "Ġsup": 8375,
      "ĠLight": 8376,
      "Ġviolent": 8377,
      "mia": 8378,
      "ĠFish": 8379,
      "Ġreadily": 8380,
      "Ġoverl": 8381,
      "Ġidentifying": 8382,
      "Ġevident": 8383,
      "igue": 8384,
      "Ġanywhere": 8385,
      "Ġstores": 8386,
      "imensions": 8387,
      "Ġboundaries": 8388,
      "ĠPu": 8389,
      "Ġabundant": 8390,
      "Ġdesignated": 8391,
      "abeth": 8392,
      "Ġtaxes": 8393,
      "Ġbringing": 8394,
      "Ġallergic": 8395,
      "onym": 8396,
      "iger": 8397,
      "ĠCard": 8398,
      "ĠCentury": 8399,
      "Ġtens": 8400,
      "Ġstorms": 8401,
      "ĠâĢ¦": 8402,
      "Ġweakness": 8403,
      "RS": 8404,
      "str": 8405,
      "actic": 8406,
      "ĠAL": 8407,
      "ĠDoc": 8408,
      "ĠUr": 8409,
      "Ġdistricts": 8410,
      "Ġfacing": 8411,
      "Ġfalling": 8412,
      "Ġimplemented": 8413,
      "Ġimmigrants": 8414,
      "Click": 8415,
      "ĠClinical": 8416,
      "Ġment": 8417,
      "ĠReference": 8418,
      "ĠOregon": 8419,
      "Ġanalys": 8420,
      "ĠVietnam": 8421,
      "Ġwheel": 8422,
      "Ġvalve": 8423,
      "Ġconsumer": 8424,
      "ĠAlbert": 8425,
      "Ġstatistics": 8426,
      "Ġunderground": 8427,
      "ĠReading": 8428,
      "isd": 8429,
      "Ġconclus": 8430,
      "Ġlinear": 8431,
      "antine": 8432,
      "Ġkingdom": 8433,
      "ĠFurthermore": 8434,
      "Ġreferences": 8435,
      "Ġdiffer": 8436,
      "ĠTreatment": 8437,
      "rooms": 8438,
      "Ġcontaminated": 8439,
      "Ã±": 8440,
      "ĠSund": 8441,
      "ĠHor": 8442,
      "Ġsenior": 8443,
      "ifer": 8444,
      "Sm": 8445,
      "ĠPhilipp": 8446,
      "leton": 8447,
      "Ġbeam": 8448,
      "Ġcalculated": 8449,
      "Ġmalaria": 8450,
      "Ġsatellites": 8451,
      "ĠType": 8452,
      "Ġgrounds": 8453,
      "Ġstopped": 8454,
      "outs": 8455,
      "Ġtranslation": 8456,
      "Ġtip": 8457,
      "Ġtor": 8458,
      "Ġantibodies": 8459,
      "ials": 8460,
      "Ġsizes": 8461,
      "Ġinteractive": 8462,
      "Ġinterface": 8463,
      "Back": 8464,
      "Ġswelling": 8465,
      "ĠLin": 8466,
      "Ġcompos": 8467,
      "ĠImm": 8468,
      "imp": 8469,
      "Ġanthrop": 8470,
      "ĠHem": 8471,
      "Ġupdated": 8472,
      "GS": 8473,
      "Don": 8474,
      "Ge": 8475,
      "ĠKent": 8476,
      "Ġcalling": 8477,
      "Ġruled": 8478,
      "Ġskull": 8479,
      "Ġnodes": 8480,
      "enced": 8481,
      "Ġswit": 8482,
      "Ġconvert": 8483,
      "Ġcontribution": 8484,
      "ĠForm": 8485,
      "Ġvalley": 8486,
      "Ġdevast": 8487,
      "ĠPhysical": 8488,
      "Ġalgae": 8489,
      "Ġjudge": 8490,
      "87": 8491,
      "ĠMountains": 8492,
      "ĠAndrew": 8493,
      "made": 8494,
      "Ġozone": 8495,
      "Ġindustries": 8496,
      "oli": 8497,
      "ĠMath": 8498,
      "insula": 8499,
      "Ġlowest": 8500,
      "Ġspaces": 8501,
      "Ġwhales": 8502,
      "Ġneighborhood": 8503,
      "ĠRoosevelt": 8504,
      "Ġartist": 8505,
      "Ġresemb": 8506,
      "Ġcontinuing": 8507,
      "Two": 8508,
      "Ġaccessible": 8509,
      "books": 8510,
      "Ġye": 8511,
      "Ġproven": 8512,
      "ĠEgyptian": 8513,
      "Ġreproductive": 8514,
      "wan": 8515,
      "regular": 8516,
      "Ġcontinent": 8517,
      "Ġvisited": 8518,
      "olk": 8519,
      "oons": 8520,
      "ĠSection": 8521,
      "Ġcas": 8522,
      "ĠArist": 8523,
      "Ġ)": 8524,
      "Ġexpedition": 8525,
      "Ġpel": 8526,
      "ennes": 8527,
      "Ġdeeper": 8528,
      "ĠAccessed": 8529,
      "uscript": 8530,
      "abs": 8531,
      "Ġextension": 8532,
      "Ġasking": 8533,
      "Ġtables": 8534,
      "ĠBlood": 8535,
      "Ġconfidence": 8536,
      "Ġduty": 8537,
      "Ġclar": 8538,
      "Ġvom": 8539,
      "Ġrepresenting": 8540,
      "Ġfaced": 8541,
      "lines": 8542,
      "itzer": 8543,
      "Ġsupplements": 8544,
      "ĠCommons": 8545,
      "Ġsoph": 8546,
      "real": 8547,
      "Ġmouse": 8548,
      "Ġowned": 8549,
      "Ġdisturb": 8550,
      "lav": 8551,
      "ĠEss": 8552,
      "Ġbreed": 8553,
      "Ġspecialized": 8554,
      "ĠProtest": 8555,
      "oom": 8556,
      "ĠGall": 8557,
      "Ġconsideration": 8558,
      "Ġpredicted": 8559,
      "Ġcurve": 8560,
      "ĠMediterranean": 8561,
      "Ġlifet": 8562,
      "Ġburned": 8563,
      "ĠLewis": 8564,
      "thur": 8565,
      "ĠImp": 8566,
      "non": 8567,
      "itamin": 8568,
      "ĠCP": 8569,
      "ĠMoreover": 8570,
      "ĠBack": 8571,
      "ĠNob": 8572,
      "Ġdisability": 8573,
      "Ġoccas": 8574,
      "Ġbigger": 8575,
      "Ġconsisting": 8576,
      "Ġsciences": 8577,
      "Ġcyl": 8578,
      "Ġdropped": 8579,
      "Ġunw": 8580,
      "Ġfocuses": 8581,
      "Ġkit": 8582,
      "Rel": 8583,
      "Ġpion": 8584,
      "heastern": 8585,
      "ĠIndones": 8586,
      "ĠCheck": 8587,
      "nut": 8588,
      "Ġchap": 8589,
      "Ġoste": 8590,
      "ĠMes": 8591,
      "Ġhoney": 8592,
      "rive": 8593,
      "type": 8594,
      "ĠResearchers": 8595,
      "yer": 8596,
      "Ġ120": 8597,
      "Ġpneum": 8598,
      "ĠBa": 8599,
      "ĠConfederate": 8600,
      "bec": 8601,
      "Ġexcav": 8602,
      "Ġradioactive": 8603,
      "owa": 8604,
      "awn": 8605,
      "Ġbehavioral": 8606,
      "Ġgenus": 8607,
      "ĠAS": 8608,
      "chnology": 8609,
      "ĠCorps": 8610,
      "Ġfunctioning": 8611,
      "asant": 8612,
      "ĠDesc": 8613,
      "Ġsurvived": 8614,
      "Let": 8615,
      "ĠColl": 8616,
      "Ġlip": 8617,
      "Ġcollections": 8618,
      "oving": 8619,
      "ĠDecl": 8620,
      "ĠSystems": 8621,
      "ĠCT": 8622,
      "Ġstability": 8623,
      "Ġconversion": 8624,
      "ĠChief": 8625,
      "Ġpoetry": 8626,
      "800": 8627,
      "Ġcirculation": 8628,
      "Ġteens": 8629,
      "Ġshallow": 8630,
      "Ġpenet": 8631,
      "sets": 8632,
      "Ġatom": 8633,
      "Ġteams": 8634,
      "Ġalive": 8635,
      "Ġboost": 8636,
      "being": 8637,
      "ruption": 8638,
      "rix": 8639,
      "ophical": 8640,
      "94": 8641,
      "Under": 8642,
      "Ġhusband": 8643,
      "Using": 8644,
      "ĠFed": 8645,
      "Ġrod": 8646,
      "Ġ1985": 8647,
      "ĠMarsh": 8648,
      "Ġshorter": 8649,
      "Ġenzyme": 8650,
      "Ġobser": 8651,
      "IF": 8652,
      "Ġaddressed": 8653,
      "Ġitem": 8654,
      "Ġnewspaper": 8655,
      "pass": 8656,
      "ogram": 8657,
      "inates": 8658,
      "Ġevil": 8659,
      "ĠTreaty": 8660,
      "ĠMah": 8661,
      "Ġperception": 8662,
      "Ġpilot": 8663,
      "ĠClick": 8664,
      "Ġexercises": 8665,
      "Ġdynamic": 8666,
      "Ġol": 8667,
      "Ġintent": 8668,
      "Ġaccord": 8669,
      "Ġtu": 8670,
      "Ġpine": 8671,
      "Ġdealing": 8672,
      "Ġrecre": 8673,
      "Ġflav": 8674,
      "di": 8675,
      "Ġshaped": 8676,
      "Ġinch": 8677,
      "ĠLos": 8678,
      "ĠChristmas": 8679,
      "rades": 8680,
      "TO": 8681,
      "Ġbusinesses": 8682,
      "Ġchannels": 8683,
      "Ġphenomena": 8684,
      "rose": 8685,
      "Science": 8686,
      "gr": 8687,
      "Ġadvert": 8688,
      "Ġsongs": 8689,
      "Ġhybr": 8690,
      "Ġassociate": 8691,
      "elfare": 8692,
      "Ġentit": 8693,
      "Ġspan": 8694,
      "iolet": 8695,
      "vae": 8696,
      "Ġadverse": 8697,
      "ube": 8698,
      "Eng": 8699,
      "Ġjoints": 8700,
      "Ġtick": 8701,
      "onents": 8702,
      "section": 8703,
      "Ġverb": 8704,
      "ĠJacob": 8705,
      "Ġfest": 8706,
      "Ġtransplant": 8707,
      "Ġfluids": 8708,
      "da": 8709,
      "Ġreverse": 8710,
      "Ġavailability": 8711,
      "Ġtherm": 8712,
      "izabeth": 8713,
      "Ġsensitivity": 8714,
      "83": 8715,
      "Sc": 8716,
      "ĠHo": 8717,
      "ĠHead": 8718,
      "Ġofficer": 8719,
      "Ġhardware": 8720,
      "ineteenth": 8721,
      "ĠOpen": 8722,
      "Ġexplicit": 8723,
      "ĠPakistan": 8724,
      "ivities": 8725,
      "Ġessay": 8726,
      "vals": 8727,
      "you": 8728,
      "erts": 8729,
      "Ġbeat": 8730,
      "Ġdebris": 8731,
      "aints": 8732,
      "ĠPoland": 8733,
      "iability": 8734,
      "Ġprotecting": 8735,
      "ĠSaint": 8736,
      "Ġ55": 8737,
      "Ġclay": 8738,
      "Ġrevers": 8739,
      "Ġtraits": 8740,
      "ĠLo": 8741,
      "overnment": 8742,
      "Health": 8743,
      "Ġlunar": 8744,
      "Ġpartly": 8745,
      "Ġspots": 8746,
      "Ġmes": 8747,
      "ĠCrit": 8748,
      "Ġdistances": 8749,
      "hent": 8750,
      "ĠTake": 8751,
      "Ġwine": 8752,
      "Ġabandoned": 8753,
      "91": 8754,
      "Ġloose": 8755,
      "Ġdietary": 8756,
      "Ġshed": 8757,
      "Ġscul": 8758,
      "Ġpanel": 8759,
      "nings": 8760,
      "Ġgray": 8761,
      "Ġabsorbed": 8762,
      "Ġentering": 8763,
      "Ġreconst": 8764,
      "Ġasteroid": 8765,
      "Ġprime": 8766,
      "Ġvarying": 8767,
      "Ġboat": 8768,
      "ĠEvolution": 8769,
      "sue": 8770,
      "cho": 8771,
      "amins": 8772,
      "warf": 8773,
      "Ġrelax": 8774,
      "Ġempty": 8775,
      "uclear": 8776,
      "teenth": 8777,
      "Ġelections": 8778,
      "ĠEll": 8779,
      "Ġattach": 8780,
      "Find": 8781,
      "Ġrestricted": 8782,
      "Ġbrows": 8783,
      "?âĢĿ": 8784,
      "Ġdispers": 8785,
      "Ġcanal": 8786,
      "Ġscales": 8787,
      "Ġsport": 8788,
      "ĠDown": 8789,
      "action": 8790,
      "Inf": 8791,
      "Ġmerch": 8792,
      "Ġgathered": 8793,
      "ĠHa": 8794,
      "ĠCirc": 8795,
      "emb": 8796,
      "Ġlogical": 8797,
      "ema": 8798,
      "Ġ37": 8799,
      "CP": 8800,
      "Ġtends": 8801,
      "Ġpersonnel": 8802,
      "Ġathlet": 8803,
      "Ġsatisf": 8804,
      "Ġgrades": 8805,
      "Ġhepat": 8806,
      "ĠInit": 8807,
      "Ġamino": 8808,
      "Ġpreferred": 8809,
      "Ġcooking": 8810,
      "ĠSanta": 8811,
      "azon": 8812,
      "apped": 8813,
      "ĠAssembly": 8814,
      "icy": 8815,
      "ĠLouisiana": 8816,
      "App": 8817,
      "Ġabsorb": 8818,
      "ĠAgain": 8819,
      "Ġirrigation": 8820,
      "Ġplates": 8821,
      "Ġsession": 8822,
      "ĠQueen": 8823,
      "Ġgovernor": 8824,
      "Ġplayer": 8825,
      "ĠSmall": 8826,
      "ĠPhot": 8827,
      "attered": 8828,
      "Ġattacked": 8829,
      "ĠAuthor": 8830,
      "phal": 8831,
      "Ġhosp": 8832,
      "Ġfrog": 8833,
      "Ġphrase": 8834,
      "Ġsculpt": 8835,
      "Ġdistinction": 8836,
      "Ġfatal": 8837,
      "Ġbat": 8838,
      "Ġinvestigate": 8839,
      "Ġbatteries": 8840,
      "oys": 8841,
      "Ġassembly": 8842,
      "ĠGoogle": 8843,
      "Ġterror": 8844,
      "Ġwetlands": 8845,
      "ĠStation": 8846,
      "Ġnucleus": 8847,
      "izers": 8848,
      "Ġtheme": 8849,
      "Ġsched": 8850,
      "Ġimagine": 8851,
      "raq": 8852,
      "Ġaimed": 8853,
      "oca": 8854,
      "Each": 8855,
      "pow": 8856,
      "Ġcorrectly": 8857,
      "ĠEmperor": 8858,
      "ĠPolicy": 8859,
      "ila": 8860,
      "Ġprecipitation": 8861,
      "cal": 8862,
      "Ġguidance": 8863,
      "Ġerupt": 8864,
      "ĠAvailable": 8865,
      "Ġvaried": 8866,
      "Ġexecutive": 8867,
      "Ġillnesses": 8868,
      "Ġattribut": 8869,
      "Ġelementary": 8870,
      "ĠADHD": 8871,
      "82": 8872,
      "ĠTable": 8873,
      "Ġcure": 8874,
      "Ġphon": 8875,
      "Ġrecon": 8876,
      "Ġrealize": 8877,
      "health": 8878,
      "Ġdoses": 8879,
      "ĠâĢ¢": 8880,
      "Ġcontributions": 8881,
      "ĠGovernor": 8882,
      "Rep": 8883,
      "ĠCr": 8884,
      "ĠTestament": 8885,
      "Ġcivilization": 8886,
      "rub": 8887,
      "Ġnutrient": 8888,
      "Ġstuff": 8889,
      "Students": 8890,
      "Ġincident": 8891,
      "Ġtransferred": 8892,
      "ĠAncient": 8893,
      "unicipal": 8894,
      "300": 8895,
      "ĠNeu": 8896,
      "ĠÂ·": 8897,
      "Ġobjectives": 8898,
      "Ġabilities": 8899,
      "TH": 8900,
      "Ġthanks": 8901,
      "Ġenzymes": 8902,
      "Ġdinosaurs": 8903,
      "hire": 8904,
      "Ġfulf": 8905,
      "Ġcoverage": 8906,
      "har": 8907,
      "Ġmilit": 8908,
      "Ġtrace": 8909,
      "green": 8910,
      "ĠBalt": 8911,
      "Ġowner": 8912,
      "Ġweaken": 8913,
      "nesota": 8914,
      "irit": 8915,
      "airy": 8916,
      "ĠMountain": 8917,
      "pert": 8918,
      "Ġscores": 8919,
      "ĠCast": 8920,
      "Ġadvent": 8921,
      "ĠWilliams": 8922,
      "Ġtrem": 8923,
      "ĠPrinci": 8924,
      "Com": 8925,
      "ieth": 8926,
      "Ġlingu": 8927,
      "Ġnotion": 8928,
      "Ġacting": 8929,
      "Ġbag": 8930,
      "ĠFire": 8931,
      "Ġdramatically": 8932,
      "agraph": 8933,
      "ĠIndeed": 8934,
      "Ġbroke": 8935,
      "Ġannually": 8936,
      "Ġcooperation": 8937,
      "Ġbrings": 8938,
      "Gl": 8939,
      "Ġsophistic": 8940,
      "Sim": 8941,
      "ghan": 8942,
      "isdom": 8943,
      "Ġdance": 8944,
      "ĠBlue": 8945,
      "Ġinspired": 8946,
      "Ġfatty": 8947,
      "text": 8948,
      "Ġtheoretical": 8949,
      "âĢĺ": 8950,
      "atories": 8951,
      "Ġdiver": 8952,
      "rob": 8953,
      "Ġspr": 8954,
      "Ġemployees": 8955,
      "Ġzones": 8956,
      "ĠAbraham": 8957,
      "Ġintern": 8958,
      "ĠEmer": 8959,
      "ador": 8960,
      "Ġsurprised": 8961,
      "Ġdating": 8962,
      "1999": 8963,
      "Ġdemocracy": 8964,
      "kind": 8965,
      "Ġlibr": 8966,
      "Ġcow": 8967,
      "ecess": 8968,
      "Ġdocumented": 8969,
      "Ġcontrolling": 8970,
      "Ġ1945": 8971,
      "Ġvillages": 8972,
      "ĠBang": 8973,
      "Ġrepresentative": 8974,
      "utation": 8975,
      "Ġfavorite": 8976,
      "ĠHan": 8977,
      "Ġcycles": 8978,
      "Ġcollapse": 8979,
      "imen": 8980,
      "ifier": 8981,
      "umer": 8982,
      "Ġunlikely": 8983,
      "rait": 8984,
      "ĠDoes": 8985,
      "Ġoperated": 8986,
      "Ġfifth": 8987,
      "ĠRail": 8988,
      "Ġrib": 8989,
      "%)": 8990,
      "mond": 8991,
      "Ġshop": 8992,
      "DS": 8993,
      "Ġdeleg": 8994,
      "cia": 8995,
      "Ġcaps": 8996,
      "Ġhal": 8997,
      "ĠMajor": 8998,
      "Ġdevelopmental": 8999,
      "Ġflexible": 9000,
      "Ġinfectious": 9001,
      "duction": 9002,
      "ĠDam": 9003,
      "Ġ1900": 9004,
      "Ġ600": 9005,
      "ĠCA": 9006,
      "ĠWithout": 9007,
      "keley": 9008,
      "Ġreasonable": 9009,
      "Ġstrengthen": 9010,
      "ĠScientific": 9011,
      "aver": 9012,
      "ĠMA": 9013,
      "Ġcalendar": 9014,
      "Ġsheets": 9015,
      "dule": 9016,
      "ĠUnfortunately": 9017,
      "Ġregulation": 9018,
      "enh": 9019,
      "Ġwithdraw": 9020,
      "anol": 9021,
      "EF": 9022,
      "Ġencl": 9023,
      "Ġdistinguished": 9024,
      "81": 9025,
      "ĠEu": 9026,
      "Ġsentences": 9027,
      "Ġinformed": 9028,
      "etically": 9029,
      "aret": 9030,
      "ĠNazi": 9031,
      "onomy": 9032,
      "ĠUV": 9033,
      "Ġaged": 9034,
      "Ġreturns": 9035,
      "ĠAssessment": 9036,
      "Every": 9037,
      "ĠMuslims": 9038,
      "Ġanten": 9039,
      "ĠProble": 9040,
      "pos": 9041,
      "Ġconsumed": 9042,
      "anium": 9043,
      "Ġvs": 9044,
      "Ġadvantages": 9045,
      "ĠDaniel": 9046,
      "Ġinfluences": 9047,
      "Ġaggressive": 9048,
      "stic": 9049,
      "awa": 9050,
      "Ġlob": 9051,
      "emies": 9052,
      "ĠWord": 9053,
      "Ġdefects": 9054,
      "Ġsucceeded": 9055,
      "Ġillegal": 9056,
      "Ġspecimens": 9057,
      "Ġtut": 9058,
      "Ġregardless": 9059,
      "Ġarthritis": 9060,
      "play": 9061,
      "ighth": 9062,
      "Ġvector": 9063,
      "Ġhat": 9064,
      "Ġthirty": 9065,
      "Ġcensus": 9066,
      "Ġoffering": 9067,
      "Ġjurisd": 9068,
      "chen": 9069,
      "estone": 9070,
      "Ġneedle": 9071,
      "Ġsummary": 9072,
      "Ġminority": 9073,
      "Ġinherited": 9074,
      "Ġextinct": 9075,
      "ĠPap": 9076,
      "ĠHard": 9077,
      "Ġarrival": 9078,
      "Ġmold": 9079,
      "Ġspray": 9080,
      "oked": 9081,
      "Ġfibers": 9082,
      "Ġblacks": 9083,
      "Ġcul": 9084,
      "Ġrotation": 9085,
      "Ġimprovements": 9086,
      "ĠSaturn": 9087,
      "Ġmagazine": 9088,
      "Before": 9089,
      "Ġworst": 9090,
      "ĠArea": 9091,
      "sk": 9092,
      "Ġheritage": 9093,
      "Ġrealized": 9094,
      "EA": 9095,
      "iations": 9096,
      "ĠCho": 9097,
      "oline": 9098,
      "ĠDougl": 9099,
      "run": 9100,
      "Ġdimin": 9101,
      "ĠFranklin": 9102,
      "Ġraising": 9103,
      "cking": 9104,
      "Ġartif": 9105,
      "omed": 9106,
      "Ġdifferently": 9107,
      "ĠEconomic": 9108,
      "OC": 9109,
      "ĠHispan": 9110,
      "instein": 9111,
      "Ġpit": 9112,
      "ĠJustice": 9113,
      "Ġmine": 9114,
      "ques": 9115,
      "âĢĻ.": 9116,
      "Ġsuddenly": 9117,
      "aware": 9118,
      "Ġtubes": 9119,
      "Ġdeer": 9120,
      "gged": 9121,
      "ĠBu": 9122,
      "III": 9123,
      "Ġmood": 9124,
      "Ġindirect": 9125,
      "Ġpursu": 9126,
      "ĠDemocratic": 9127,
      "valu": 9128,
      "Ġconvin": 9129,
      "berry": 9130,
      "aning": 9131,
      "Ġadvances": 9132,
      "Ġresistant": 9133,
      "Ġ1979": 9134,
      "Ġhappy": 9135,
      "Ġsoul": 9136,
      "ĠOcc": 9137,
      "Ġchair": 9138,
      "Ġplenty": 9139,
      "Ġpromise": 9140,
      "Ġhappening": 9141,
      "Ġcriminal": 9142,
[...]
