{
  "version": "1.0",
  "truncation": null,
  "padding": null,
  "added_tokens": [
    {
      "id": 0,
      "content": "<pad>",
      "single_word": false,
      "lstrip": false,
      "rstrip": false,
      "normalized": false,
      "special": true
    },
    {
      "id": 1,
      "content": "<bos>",
      "single_word": false,
      "lstrip": false,
      "rstrip": false,
      "normalized": false,
      "special": true
    },
    {
      "id": 2,
      "content": "<eos>",
      "single_word": false,
      "lstrip": false,
      "rstrip": false,
      "normalized": false,
      "special": true
    },
    {
      "id": 3,
      "content": "<unk>",
      "single_word": false,
      "lstrip": false,
      "rstrip": false,
      "normalized": false,
      "special": true
    },
    {
      "id": 4,
      "content": "<state>",
      "single_word": false,
      "lstrip": false,
      "rstrip": false,
      "normalized": false,
      "special": true
    },
    {
      "id": 5,
      "content": "</state>",
      "single_word": false,
      "lstrip": false,
      "rstrip": false,
      "normalized": false,
      "special": true
    },
    {
      "id": 6,
      "content": "<q>",
      "single_word": false,
      "lstrip": false,
      "rstrip": false,
      "normalized": false,
      "special": true
    },
    {
      "id": 7,
      "content": "</q>",
      "single_word": false,
      "lstrip": false,
      "rstrip": false,
      "normalized": false,
      "special": true
    },
    {
      "id": 8,
      "content": "<opt>",
      "single_word": false,
      "lstrip": false,
      "rstrip": false,
      "normalized": false,
      "special": true
    },
    {
      "id": 9,
      "content": "</opt>",
      "single_word": false,
      "lstrip": false,
      "rstrip": false,
      "normalized": false,
      "special": true
    },
    {
      "id": 10,
      "content": "<decide>",
      "single_word": false,
      "lstrip": false,
      "rstrip": false,
      "normalized": false,
      "special": true
    },
    {
      "id": 11,
      "content": "<noul>",
      "single_word": false,
      "lstrip": false,
      "rstrip": false,
      "normalized": false,
      "special": true
    },
    {
      "id": 12,
      "content": "<choice>",
      "single_word": false,
      "lstrip": false,
      "rstrip": false,
      "normalized": false,
      "special": true
    },
    {
      "id": 13,
      "content": "<score>",
      "single_word": false,
      "lstrip": false,
      "rstrip": false,
      "normalized": false,
      "special": true
    }
  ],
  "normalizer": null,
  "pre_tokenizer": {
    "type": "Sequence",
    "pretokenizers": [
      {
        "type": "Digits",
        "individual_digits": true
      },
      {
        "type": "ByteLevel",
        "add_prefix_space": false,
        "trim_offsets": true,
        "use_regex": true
      }
    ]
  },
  "post_processor": null,
  "decoder": {
    "type": "ByteLevel",
    "add_prefix_space": true,
    "trim_offsets": true,
    "use_regex": true
  },
  "model": {
    "type": "BPE",
    "dropout": null,
    "unk_token": "<unk>",
    "continuing_subword_prefix": null,
    "end_of_word_suffix": null,
    "fuse_unk": false,
    "byte_fallback": false,
    "ignore_merges": false,
    "vocab": {
      "<pad>": 0,
      "<bos>": 1,
      "<eos>": 2,
      "<unk>": 3,
      "<state>": 4,
      "</state>": 5,
      "<q>": 6,
      "</q>": 7,
      "<opt>": 8,
      "</opt>": 9,
      "<decide>": 10,
      "<noul>": 11,
      "<choice>": 12,
      "<score>": 13,
      "!": 14,
      "\"": 15,
      "#": 16,
      "$": 17,
      "%": 18,
      "&": 19,
      "'": 20,
      "(": 21,
      ")": 22,
      "*": 23,
      "+": 24,
      ",": 25,
      "-": 26,
      ".": 27,
      "/": 28,
      "0": 29,
      "1": 30,
      "2": 31,
      "3": 32,
      "4": 33,
      "5": 34,
      "6": 35,
      "7": 36,
      "8": 37,
      "9": 38,
      ":": 39,
      ";": 40,
      "<": 41,
      "=": 42,
      ">": 43,
      "?": 44,
      "@": 45,
      "A": 46,
      "B": 47,
      "C": 48,
      "D": 49,
      "E": 50,
      "F": 51,
      "G": 52,
      "H": 53,
      "I": 54,
      "J": 55,
      "K": 56,
      "L": 57,
      "M": 58,
      "N": 59,
      "O": 60,
      "P": 61,
      "Q": 62,
      "R": 63,
      "S": 64,
      "T": 65,
      "U": 66,
      "V": 67,
      "W": 68,
      "X": 69,
      "Y": 70,
      "Z": 71,
      "[": 72,
      "\\": 73,
      "]": 74,
      "^": 75,
      "_": 76,
      "`": 77,
      "a": 78,
      "b": 79,
      "c": 80,
      "d": 81,
      "e": 82,
      "f": 83,
      "g": 84,
      "h": 85,
      "i": 86,
      "j": 87,
      "k": 88,
      "l": 89,
      "m": 90,
      "n": 91,
      "o": 92,
      "p": 93,
      "q": 94,
      "r": 95,
      "s": 96,
      "t": 97,
      "u": 98,
      "v": 99,
      "w": 100,
      "x": 101,
      "y": 102,
      "z": 103,
      "{": 104,
      "|": 105,
      "}": 106,
      "~": 107,
      "¡": 108,
      "¢": 109,
      "£": 110,
      "¤": 111,
      "¥": 112,
      "¦": 113,
      "§": 114,
      "¨": 115,
      "©": 116,
      "ª": 117,
      "«": 118,
      "¬": 119,
      "®": 120,
      "¯": 121,
      "°": 122,
      "±": 123,
      "²": 124,
      "³": 125,
      "´": 126,
      "µ": 127,
      "¶": 128,
      "·": 129,
      "¸": 130,
      "¹": 131,
      "º": 132,
      "»": 133,
      "¼": 134,
      "½": 135,
      "¾": 136,
      "¿": 137,
      "À": 138,
      "Á": 139,
      "Â": 140,
      "Ã": 141,
      "Ä": 142,
      "Å": 143,
      "Æ": 144,
      "Ç": 145,
      "È": 146,
      "É": 147,
      "Ê": 148,
      "Ë": 149,
      "Ì": 150,
      "Í": 151,
      "Î": 152,
      "Ï": 153,
      "Ð": 154,
      "Ñ": 155,
      "Ò": 156,
      "Ó": 157,
      "Ô": 158,
      "Õ": 159,
      "Ö": 160,
      "×": 161,
      "Ø": 162,
      "Ù": 163,
      "Ú": 164,
      "Û": 165,
      "Ü": 166,
      "Ý": 167,
      "Þ": 168,
      "ß": 169,
      "à": 170,
      "á": 171,
      "â": 172,
      "ã": 173,
      "ä": 174,
      "å": 175,
      "æ": 176,
      "ç": 177,
      "è": 178,
      "é": 179,
      "ê": 180,
      "ë": 181,
      "ì": 182,
      "í": 183,
      "î": 184,
      "ï": 185,
      "ð": 186,
      "ñ": 187,
      "ò": 188,
      "ó": 189,
      "ô": 190,
      "õ": 191,
      "ö": 192,
      "÷": 193,
      "ø": 194,
      "ù": 195,
      "ú": 196,
      "û": 197,
      "ü": 198,
      "ý": 199,
      "þ": 200,
      "ÿ": 201,
      "Ā": 202,
      "ā": 203,
      "Ă": 204,
      "ă": 205,
      "Ą": 206,
      "ą": 207,
      "Ć": 208,
      "ć": 209,
      "Ĉ": 210,
      "ĉ": 211,
      "Ċ": 212,
      "ċ": 213,
      "Č": 214,
      "č": 215,
      "Ď": 216,
      "ď": 217,
      "Đ": 218,
      "đ": 219,
      "Ē": 220,
      "ē": 221,
      "Ĕ": 222,
      "ĕ": 223,
      "Ė": 224,
      "ė": 225,
      "Ę": 226,
      "ę": 227,
      "Ě": 228,
      "ě": 229,
      "Ĝ": 230,
      "ĝ": 231,
      "Ğ": 232,
      "ğ": 233,
      "Ġ": 234,
      "ġ": 235,
      "Ģ": 236,
      "ģ": 237,
      "Ĥ": 238,
      "ĥ": 239,
      "Ħ": 240,
      "ħ": 241,
      "Ĩ": 242,
      "ĩ": 243,
      "Ī": 244,
      "ī": 245,
      "Ĭ": 246,
      "ĭ": 247,
      "Į": 248,
      "į": 249,
      "İ": 250,
      "ı": 251,
      "Ĳ": 252,
      "ĳ": 253,
      "Ĵ": 254,
      "ĵ": 255,
      "Ķ": 256,
      "ķ": 257,
      "ĸ": 258,
      "Ĺ": 259,
      "ĺ": 260,
      "Ļ": 261,
      "ļ": 262,
      "Ľ": 263,
      "ľ": 264,
      "Ŀ": 265,
      "ŀ": 266,
      "Ł": 267,
      "ł": 268,
      "Ń": 269,
      "Ġt": 270,
      "Ġa": 271,
      "he": 272,
      "in": 273,
      "re": 274,
      "Ġthe": 275,
      "on": 276,
      "er": 277,
      "at": 278,
      "Ġo": 279,
      "Ġs": 280,
      "en": 281,
      "Ġc": 282,
      "Ġw": 283,
      "es": 284,
      "is": 285,
      "nd": 286,
      "it": 287,
      "or": 288,
      "Ġp": 289,
      "al": 290,
      "Ġb": 291,
      "ed": 292,
      "an": 293,
      "Ġof": 294,
      "Ġf": 295,
      "ing": 296,
      "Ġin": 297,
      "ou": 298,
      "ar": 299,
      "Ġm": 300,
      "Ġand": 301,
      "Ġto": 302,
      "ic": 303,
      "ion": 304,
      "Ġd": 305,
      "le": 306,
      "ro": 307,
      "as": 308,
      "Ġh": 309,
      "ent": 310,
      "Ġth": 311,
      "ct": 312,
      "Ġe": 313,
      "il": 314,
      "Ġre": 315,
      "om": 316,
      "ve": 317,
      "st": 318,
      "Ġl": 319,
      "Ġn": 320,
      "ly": 321,
      "Ġbe": 322,
      "âĢ": 323,
      "Ġis": 324,
      "ĠT": 325,
      "se": 326,
      "ol": 327,
      "Ġg": 328,
      "ation": 329,
      "im": 330,
      "id": 331,
      "et": 332,
      "ut": 333,
      "ot": 334,
      "ur": 335,
      "ce": 336,
      "ra": 337,
      "ow": 338,
      "ch": 339,
      "ĠA": 340,
      "ig": 341,
      "Ġfor": 342,
      "ĠS": 343,
      "Ġu": 344,
      "Ġon": 345,
      "Ġthat": 346,
      "Ġst": 347,
      "ver": 348,
      "ĠC": 349,
      "ir": 350,
      "Ġy": 351,
      "ĠI": 352,
      "ul": 353,
      "am": 354,
      "ay": 355,
      "ith": 356,
      "el": 357,
      "Ġas": 358,
      "ad": 359,
      "Ġpro": 360,
      "her": 361,
      "Ġare": 362,
      "Ġcon": 363,
      "Ġwith": 364,
      "Ġan": 365,
      "if": 366,
      "Ġwh": 367,
      "Ġyou": 368,
      "Ġor": 369,
      "Ġit": 370,
      "Ġal": 371,
      "ter": 372,
      "od": 373,
      "ĠM": 374,
      "ĠThe": 375,
      "Ġ(": 376,
      "ment": 377,
      "ge": 378,
      "ĠP": 379,
      "th": 380,
      "op": 381,
      "ate": 382,
      "Ġde": 383,
      "ers": 384,
      "ist": 385,
      "ect": 386,
      "Ġhe": 387,
      "ĠB": 388,
      "us": 389,
      "ill": 390,
      "ess": 391,
      "ab": 392,
      "ies": 393,
      "Ġex": 394,
      "ore": 395,
      "Ġwe": 396,
      "Ġcom": 397,
      "âĢĻ": 398,
      "Ġsu": 399,
      "ity": 400,
      "Ġha": 401,
      "os": 402,
      "est": 403,
      "res": 404,
      "ive": 405,
      "ac": 406,
      "ĠH": 407,
      "ld": 408,
      "rom": 409,
      "um": 410,
      "Ġv": 411,
      "nt": 412,
      "ke": 413,
      "iv": 414,
      "Ġby": 415,
      "em": 416,
      "ant": 417,
      "qu": 418,
      "ain": 419,
      "ĠW": 420,
      "Ġat": 421,
      "pp": 422,
      "igh": 423,
      "Ġwas": 424,
      "ĠD": 425,
      "Ġcan": 426,
      "ud": 427,
      "Ġfrom": 428,
      "and": 429,
      "ĠE": 430,
      "Ġch": 431,
      "oc": 432,
      "ĠR": 433,
      "ort": 434,
      "Ġr": 435,
      "Ġne": 436,
      "ĠF": 437,
      "Ġse": 438,
      "ial": 439,
      "un": 440,
      "ure": 441,
      "Ġnot": 442,
      "ĠâĢ": 443,
      "art": 444,
      "ĠG": 445,
      "Ġle": 446,
      "ĠN": 447,
      "ical": 448,
      "Ġhave": 449,
      "ri": 450,
      "ĠL": 451,
      "Ġsh": 452,
      "og": 453,
      "Ġen": 454,
      "Ġsp": 455,
      "Ġthis": 456,
      "ight": 457,
      "red": 458,
      "all": 459,
      "ich": 460,
      "rou": 461,
      "Ġab": 462,
      "pt": 463,
      "Ġwor": 464,
      "ost": 465,
      "our": 466,
      "ome": 467,
      "The": 468,
      "ould": 469,
      "gh": 470,
      "ther": 471,
      "ions": 472,
      "du": 473,
      "Ġim": 474,
      "ated": 475,
      "Ġus": 476,
      "ine": 477,
      "ag": 478,
      "per": 479,
      "ard": 480,
      "Ġpl": 481,
      "Ġtheir": 482,
      "out": 483,
      "ff": 484,
      "ell": 485,
      "act": 486,
      "ide": 487,
      "Ġint": 488,
      "ĠO": 489,
      "ans": 490,
      "ast": 491,
      "pl": 492,
      "ear": 493,
      "age": 494,
      "end": 495,
      "ak": 496,
      "ust": 497,
      "Ġwhich": 498,
      "Ġk": 499,
      "Ġthey": 500,
      "ĠJ": 501,
      "Ġwhe": 502,
      "iz": 503,
      "ous": 504,
      "ult": 505,
      "Ġyour": 506,
      "ec": 507,
      "ĠU": 508,
      "ood": 509,
      "Ġcont": 510,
      "Ġall": 511,
      "ib": 512,
      "Ġad": 513,
      "Ġinc": 514,
      "ĠIn": 515,
      "Ġwill": 516,
      "cc": 517,
      "ru": 518,
      "Ġ\"": 519,
      "Ġcomp": 520,
      "ap": 521,
      "Ġmore": 522,
      "ong": 523,
      "Ġdis": 524,
      "ia": 525,
      "âĢĿ": 526,
      "ip": 527,
      "Ġres": 528,
      "ew": 529,
      "ations": 530,
      "vel": 531,
      "Ġhas": 532,
      "ere": 533,
      "so": 534,
      "Ġdo": 535,
      "orm": 536,
      "are": 537,
      "ary": 538,
      "ater": 539,
      "ĠTh": 540,
      "able": 541,
      "ence": 542,
      "Ġman": 543,
      "Ġother": 544,
      "ild": 545,
      "Ġcl": 546,
      "Ġbut": 547,
      "Ġwere": 548,
      "ual": 549,
      "ep": 550,
      "ks": 551,
      "ry": 552,
      "ind": 553,
      "Ġme": 554,
      "ach": 555,
      "Ġper": 556,
      "Ġone": 557,
      "Ġte": 558,
      "'s": 559,
      "ents": 560,
      "Ġimp": 561,
      "ance": 562,
      "ĠâĢľ": 563,
      "Ġalso": 564,
      "ose": 565,
      "reat": 566,
      "ign": 567,
      "ub": 568,
      "ake": 569,
      "ress": 570,
      "av": 571,
      "ass": 572,
      "ase": 573,
      "Ġso": 574,
      "au": 575,
      "ount": 576,
      "ction": 577,
      "ition": 578,
      "Ġout": 579,
      "Ġj": 580,
      "ice": 581,
      "Ġun": 582,
      "ime": 583,
      "Ġapp": 584,
      "one": 585,
      "ens": 586,
      "ord": 587,
      "Ġar": 588,
      "very": 589,
      "Ġpart": 590,
      "ber": 591,
      "Ġabout": 592,
      "ire": 593,
      "ok": 594,
      "ace": 595,
      "ĠSt": 596,
      "Ġwho": 597,
      "Ġev": 598,
      "ory": 599,
      "ue": 600,
      "Ġstud": 601,
      "ame": 602,
      "ish": 603,
      "ack": 604,
      ").": 605,
      "ject": 606,
      "Ġhis": 607,
      "Ġpe": 608,
      "Ġinf": 609,
      "Ġcomm": 610,
      "ĠK": 611,
      "Ġthem": 612,
      "ors": 613,
      "Ġsy": 614,
      "ite": 615,
      "ang": 616,
      "ike": 617,
      "Ġsc": 618,
      "ces": 619,
      "now": 620,
      "ound": 621,
      "ree": 622,
      "low": 623,
      "ric": 624,
      "Ġpre": 625,
      "Ġup": 626,
      "Ġbec": 627,
      "ie": 628,
      "ĠIt": 629,
      "olog": 630,
      "Ġthan": 631,
      "Ġqu": 632,
      "Ġmay": 633,
      "ile": 634,
      "iff": 635,
      "Ġsome": 636,
      "ays": 637,
      "ĠCh": 638,
      "Ġyear": 639,
      "ople": 640,
      "Ġrec": 641,
      "ian": 642,
      "Ġthere": 643,
      "Ġwhen": 644,
      "ail": 645,
      "Ġbeen": 646,
      "nder": 647,
      "ates": 648,
      "mer": 649,
      "ings": 650,
      "Ġinto": 651,
      "Ġtime": 652,
      "Ġits": 653,
      "ĠĠ": 654,
      "Ġag": 655,
      "ough": 656,
      "Ġtra": 657,
      "Ġgo": 658,
      "ph": 659,
      "ren": 660,
      "ĠV": 661,
      "Ġover": 662,
      "te": 663,
      "rough": 664,
      "ĠThis": 665,
      "erv": 666,
      "Ġwork": 667,
      "rit": 668,
      "Ġthese": 669,
      "vers": 670,
      "ally": 671,
      "Ġhow": 672,
      "Ġro": 673,
      "Ġdiff": 674,
      "Ġhad": 675,
      "Ġra": 676,
      "Ġpeople": 677,
      "ons": 678,
      "ob": 679,
      "we": 680,
      "ause": 681,
      "lud": 682,
      "ms": 683,
      "ll": 684,
      "Ġuse": 685,
      "Ġtr": 686,
      "ond": 687,
      "Ġour": 688,
      "Ġcol": 689,
      "ove": 690,
      "tern": 691,
      "Ġcons": 692,
      "ific": 693,
      "\":": 694,
      "Ġbet": 695,
      "Ġmost": 696,
      "Ġact": 697,
      "Ġknow": 698,
      "int": 699,
      "ys": 700,
      "irst": 701,
      "ments": 702,
      "Ġlike": 703,
      "Ġbl": 704,
      "lic": 705,
      "alth": 706,
      "ities": 707,
      "Ġunder": 708,
      "ĠY": 709,
      "Ġrel": 710,
      "Ġsa": 711,
      "Ġwould": 712,
      "row": 713,
      "ious": 714,
      "les": 715,
      "ook": 716,
      "Ġacc": 717,
      "ning": 718,
      "Ġdes": 719,
      "lect": 720,
      "Ġtw": 721,
      "stem": 722,
      "Ġif": 723,
      "Ġnew": 724,
      "Ġneed": 725,
      "velop": 726,
      "Ġsuch": 727,
      "Ġrep": 728,
      "Ġany": 729,
      "ffect": 730,
      "Ġno": 731,
      "Ġgen": 732,
      "Ġchild": 733,
      "Ġinclud": 734,
      "Ġhel": 735,
      "cess": 736,
      "ient": 737,
      "ational": 738,
      "ative": 739,
      "ple": 740,
      "hed": 741,
      "ating": 742,
      "ced": 743,
      "ool": 744,
      "Ġwhat": 745,
      "Ġused": 746,
      "yp": 747,
      "ular": 748,
      "Ġph": 749,
      "Ġonly": 750,
      "Ġhelp": 751,
      "Ġpr": 752,
      "ov": 753,
      "Ġprodu": 754,
      "Ġoff": 755,
      "Ġmany": 756,
      "Ġind": 757,
      "Ġam": 758,
      "Ġprov": 759,
      "Ġthrough": 760,
      "Ġfirst": 761,
      "),": 762,
      "fter": 763,
      "ĠUn": 764,
      "Ġdevelop": 765,
      "Ġspec": 766,
      "Ġfe": 767,
      "ath": 768,
      "round": 769,
      "ise": 770,
      "ility": 771,
      "ics": 772,
      "ark": 773,
      "oss": 774,
      "eth": 775,
      "old": 776,
      "Ġdi": 777,
      "Ġtwo": 778,
      "Ġreg": 779,
      "Ġac": 780,
      "Ġpo": 781,
      "uring": 782,
      "Ġob": 783,
      "ne": 784,
      "uc": 785,
      "Ġexp": 786,
      "ts": 787,
      "oth": 788,
      "Ġem": 789,
      "ful": 790,
      "rib": 791,
      "Ġsystem": 792,
      "ink": 793,
      "fore": 794,
      "erm": 795,
      "iss": 796,
      "Ġdiffere": 797,
      "rop": 798,
      "hen": 799,
      "ible": 800,
      "als": 801,
      "ĠâĢĵ": 802,
      "Ġdec": 803,
      "Ġadd": 804,
      "ten": 805,
      "Ġsur": 806,
      "ĠHe": 807,
      "ased": 808,
      "Ġass": 809,
      "Ġatt": 810,
      "ange": 811,
      "Ġ-": 812,
      "ower": 813,
      "ert": 814,
      "Ġshould": 815,
      "arch": 816,
      "ures": 817,
      "ife": 818,
      "ram": 819,
      "ble": 820,
      "Ġrem": 821,
      "In": 822,
      "Ġwell": 823,
      "ween": 824,
      "ng": 825,
      "aw": 826,
      "Ġwater": 827,
      "ract": 828,
      "own": 829,
      "Ġco": 830,
      "Ġsub": 831,
      "Ġfl": 832,
      "Ġyears": 833,
      "Ġsupp": 834,
      "Ġinv": 835,
      "sel": 836,
      "ade": 837,
      "Ġsm": 838,
      "Ġhealth": 839,
      "gan": 840,
      "Ġpres": 841,
      "ied": 842,
      "ick": 843,
      "Ġbetween": 844,
      "Ġcould": 845,
      "ution": 846,
      "cy": 847,
      "Ġhigh": 848,
      "Ġwhere": 849,
      "hes": 850,
      "its": 851,
      "ever": 852,
      "ily": 853,
      "wn": 854,
      "uch": 855,
      "Ġtrans": 856,
      "xt": 857,
      "Ġmake": 858,
      "Ġget": 859,
      "ants": 860,
      "chool": 861,
      "ĠAs": 862,
      "Ġear": 863,
      "Ġher": 864,
      "ont": 865,
      "ural": 866,
      "Ġbu": 867,
      "Ġpers": 868,
      "ident": 869,
      "Ġinter": 870,
      "form": 871,
      "Ġimport": 872,
      "chn": 873,
      "ited": 874,
      "Ġform": 875,
      "Ġinst": 876,
      "meric": 877,
      "ology": 878,
      "Ġrese": 879,
      "ience": 880,
      "Ġmod": 881,
      "Ġnum": 882,
      "ting": 883,
      "Ġexam": 884,
      "Ġpol": 885,
      "land": 886,
      "ness": 887,
      "ef": 888,
      "ines": 889,
      "iet": 890,
      "ins": 891,
      "Ġafter": 892,
      "Ġdisc": 893,
      "Ġlar": 894,
      "ict": 895,
      "hat": 896,
      "Ġbecause": 897,
      "Ġfound": 898,
      "ata": 899,
      "Ġthen": 900,
      "Ġdifferent": 901,
      "ually": 902,
      "Ġsim": 903,
      "ists": 904,
      "Ġlong": 905,
      "ft": 906,
      "urn": 907,
      "Ġjust": 908,
      "Ġcent": 909,
      "Ġcar": 910,
      "Ġvery": 911,
      "Ġeven": 912,
      "Ġdet": 913,
      "Ġworld": 914,
      "Ġexper": 915,
      "Ġlear": 916,
      "cept": 917,
      "oy": 918,
      "Ġway": 919,
      "Ġed": 920,
      "Ġinform": 921,
      "ism": 922,
      "Ġeffect": 923,
      ",\"": 924,
      "gy": 925,
      "get": 926,
      "Ġmed": 927,
      "other": 928,
      "ature": 929,
      "aking": 930,
      "Ġsee": 931,
      "ĠAmeric": 932,
      "Ġtyp": 933,
      "Ġsign": 934,
      "Ġincre": 935,
      "Ġthose": 936,
      "Ġhum": 937,
      "ically": 938,
      "vent": 939,
      "Ġresp": 940,
      "ives": 941,
      "ivers": 942,
      "Ġcall": 943,
      "Ġref": 944,
      "Ġcount": 945,
      "ollow": 946,
      "iew": 947,
      "Ġ|": 948,
      "Ġgener": 949,
      "Ġprog": 950,
      "Ġke": 951,
      "ck": 952,
      "Ġdep": 953,
      "Ġpat": 954,
      "Ġvar": 955,
      "cer": 956,
      "Ġpub": 957,
      "Ġrequ": 958,
      "Ġevery": 959,
      "Ġprocess": 960,
      "Ġsaid": 961,
      "arm": 962,
      "ros": 963,
      "led": 964,
      "Ġext": 965,
      "Ġeach": 966,
      "Ġbeing": 967,
      "ages": 968,
      "Ġloc": 969,
      "Ġfact": 970,
      "Ġresult": 971,
      "omm": 972,
      "ps": 973,
      "ds": 974,
      "ases": 975,
      "tle": 976,
      "Ġca": 977,
      "ruct": 978,
      "Ġgra": 979,
      "Ġchildren": 980,
      "Ġsoc": 981,
      "ues": 982,
      "iron": 983,
      "Ġdef": 984,
      "Ġcommun": 985,
      "Ġsec": 986,
      "Ġmuch": 987,
      "ork": 988,
      ".âĢĿ": 989,
      "Th": 990,
      "Ġset": 991,
      "ody": 992,
      "ĠAl": 993,
      "ather": 994,
      "Ġmon": 995,
      "Ġtechn": 996,
      "Ġdist": 997,
      "Ġpartic": 998,
      "Ġshe": 999,
      "Ġlife": 1000,
      "Ġent": 1001,
      "Ġimportant": 1002,
      "Ġfam": 1003,
      "Ġcre": 1004,
      "ĠWe": 1005,
      "ved": 1006,
      "ized": 1007,
      "imes": 1008,
      "Ġmy": 1009,
      "vern": 1010,
      "Ġduring": 1011,
      "Ġread": 1012,
      "Ġfollow": 1013,
      "cent": 1014,
      "Ġinformation": 1015,
      "Ġart": 1016,
      "Ġown": 1017,
      "Ġfood": 1018,
      "ĠThey": 1019,
      "..": 1020,
      "Ġaut": 1021,
      "ward": 1022,
      "ize": 1023,
      "Ġsame": 1024,
      "Ġlead": 1025,
      ".,": 1026,
      "Ġmade": 1027,
      "ices": 1028,
      "Ġstudents": 1029,
      "ĠPro": 1030,
      "Ġdoes": 1031,
      "\":\"": 1032,
      "any": 1033,
      "ĠRe": 1034,
      "Ġlevel": 1035,
      "gg": 1036,
      "ĠIf": 1037,
      "io": 1038,
      "Ġgrow": 1039,
      "Ġbefore": 1040,
      "Ġsk": 1041,
      "Ġdata": 1042,
      "Ġproble": 1043,
      "Ġbo": 1044,
      "Ġstudy": 1045,
      "Ġfind": 1046,
      "hip": 1047,
      "the": 1048,
      "Ġright": 1049,
      "Ġend": 1050,
      "Ġback": 1051,
      "Ġcur": 1052,
      "ted": 1053,
      "Ġperson": 1054,
      "ection": 1055,
      "Ġgood": 1056,
      "Ġboth": 1057,
      "Ġschool": 1058,
      "Ġav": 1059,
      "Ġmin": 1060,
      "ĠFor": 1061,
      "Ġstr": 1062,
      "Ġins": 1063,
      "ĠAn": 1064,
      "Ġche": 1065,
      "cl": 1066,
      "ale": 1067,
      "onom": 1068,
      "Ġshow": 1069,
      "Ġusing": 1070,
      "iel": 1071,
      "viron": 1072,
      "Ġcomple": 1073,
      "orn": 1074,
      "Ġsmall": 1075,
      "ex": 1076,
      "Ġpop": 1077,
      "und": 1078,
      "Ġgrou": 1079,
      "Ġhist": 1080,
      "Ġexpl": 1081,
      "ĠHow": 1082,
      "stand": 1083,
      "ince": 1084,
      "Ġmain": 1085,
      "ars": 1086,
      "ock": 1087,
      "ality": 1088,
      "read": 1089,
      "Ġtest": 1090,
      "Ġagain": 1091,
      "ĠAr": 1092,
      "ially": 1093,
      "Ġoften": 1094,
      "Ġtreat": 1095,
      "ivid": 1096,
      "Ġval": 1097,
      "omen": 1098,
      "ains": 1099,
      "ined": 1100,
      "inal": 1101,
      "der": 1102,
      "Ġprot": 1103,
      "Ġsol": 1104,
      "Ġbr": 1105,
      "Ġgl": 1106,
      "ix": 1107,
      "nce": 1108,
      "Ġless": 1109,
      "Ġwhile": 1110,
      "Ġhim": 1111,
      "rol": 1112,
      "ty": 1113,
      "Ġserv": 1114,
      "ergy": 1115,
      "Ġnow": 1116,
      "ĠInd": 1117,
      "Ġposs": 1118,
      "Ġlit": 1119,
      "ĠNew": 1120,
      "iven": 1121,
      "Ġtake": 1122,
      "Ġstate": 1123,
      "Ġday": 1124,
      "ute": 1125,
      "Ġnumber": 1126,
      "ished": 1127,
      "ier": 1128,
      "imate": 1129,
      "ah": 1130,
      "ax": 1131,
      "Ġpower": 1132,
      "Ġdise": 1133,
      "Ġcell": 1134,
      "Ġocc": 1135,
      "ien": 1136,
      "up": 1137,
      "ĠSp": 1138,
      "Ġfun": 1139,
      "Ġvis": 1140,
      "ral": 1141,
      "oh": 1142,
      "dition": 1143,
      "Ġmem": 1144,
      "vironment": 1145,
      "irect": 1146,
      "ven": 1147,
      "air": 1148,
      "akes": 1149,
      "ered": 1150,
      "osed": 1151,
      "iqu": 1152,
      "ulation": 1153,
      "ĠSc": 1154,
      "ves": 1155,
      "Ġbel": 1156,
      "Ġprovid": 1157,
      "Ġdesign": 1158,
      "Ġbody": 1159,
      "iving": 1160,
      "ury": 1161,
      "Ġorgan": 1162,
      "Ġthree": 1163,
      "Ġactiv": 1164,
      "Ġris": 1165,
      "Ġresearch": 1166,
      "Ġaround": 1167,
      "iversity": 1168,
      "iety": 1169,
      "Ġdown": 1170,
      "Ġchar": 1171,
      "Ġmust": 1172,
      "Ġhand": 1173,
      "ger": 1174,
      "Ġec": 1175,
      "ave": 1176,
      "Ġclass": 1177,
      "Ġhuman": 1178,
      "Ġsupport": 1179,
      "ee": 1180,
      "Ġcommon": 1181,
      "ters": 1182,
      "Ġredu": 1183,
      "âĢĶ": 1184,
      "Ġlook": 1185,
      "aj": 1186,
      "ium": 1187,
      "Ġest": 1188,
      "Ġser": 1189,
      "Ġstart": 1190,
      "Ġplan": 1191,
      "rent": 1192,
      "Ġconf": 1193,
      "Ġgovern": 1194,
      "ving": 1195,
      "Ġgreat": 1196,
      "||": 1197,
      "hers": 1198,
      "Ġlarge": 1199,
      "Ġdid": 1200,
      "Ġelect": 1201,
      "ĠBut": 1202,
      "ital": 1203,
      "arent": 1204,
      "uss": 1205,
      "rain": 1206,
      "This": 1207,
      "Ġpoint": 1208,
      "day": 1209,
      "Ġexample": 1210,
      "Ġcle": 1211,
      "self": 1212,
      "ull": 1213,
      "way": 1214,
      "Ġreport": 1215,
      "ouse": 1216,
      "ross": 1217,
      "itions": 1218,
      "Ġcor": 1219,
      "Ġcontin": 1220,
      "itive": 1221,
      "Ġcare": 1222,
      "Ġop": 1223,
      "Ġland": 1224,
      ",âĢĿ": 1225,
      "ĠIs": 1226,
      "acter": 1227,
      "ĠYou": 1228,
      "eg": 1229,
      "Ġdr": 1230,
      "Ġthough": 1231,
      "ĠThere": 1232,
      "anc": 1233,
      "ared": 1234,
      "Ġallow": 1235,
      "Ġcour": 1236,
      "Ġincluding": 1237,
      "ional": 1238,
      "Ġconst": 1239,
      "ĠAnd": 1240,
      "ability": 1241,
      "com": 1242,
      "Ġcalled": 1243,
      "gen": 1244,
      "ron": 1245,
      "Ġeduc": 1246,
      "ash": 1247,
      "Ġequ": 1248,
      "Ġsom": 1249,
      "Ġadv": 1250,
      "Ġmet": 1251,
      "ired": 1252,
      "Ġunderstand": 1253,
      "outh": 1254,
      "Ġknown": 1255,
      "Ġstill": 1256,
      "els": 1257,
      "Ġpract": 1258,
      "Ġwrit": 1259,
      ".\"": 1260,
      "Ġret": 1261,
      "ends": 1262,
      "esp": 1263,
      "Ġpublic": 1264,
      "iod": 1265,
      "âĢĵ": 1266,
      "Ġbuild": 1267,
      "ĠâĢĺ": 1268,
      "aterial": 1269,
      "Ġbeh": 1270,
      "ox": 1271,
      "Ġeas": 1272,
      "ank": 1273,
      "Ġthink": 1274,
      "inc": 1275,
      "Ġplace": 1276,
      "Ġquest": 1277,
      "ization": 1278,
      "Ġmight": 1279,
      "ering": 1280,
      "ected": 1281,
      "Ġgu": 1282,
      "oms": 1283,
      "reen": 1284,
      "ividual": 1285,
      "agn": 1286,
      "Ġide": 1287,
      "Ġappro": 1288,
      "rel": 1289,
      "ids": 1290,
      "Ġstand": 1291,
      "âĢľ": 1292,
      "ential": 1293,
      "Ġfew": 1294,
      "de": 1295,
      "iver": 1296,
      "ason": 1297,
      "ĠWh": 1298,
      "ets": 1299,
      "erest": 1300,
      "less": 1301,
      "ration": 1302,
      "Ġpresent": 1303,
      "me": 1304,
      "oci": 1305,
      "oun": 1306,
      "Ġmat": 1307,
      "ĠĠĠ": 1308,
      "ffic": 1309,
      "lish": 1310,
      "bers": 1311,
      "ived": 1312,
      "ination": 1313,
      "Ġenergy": 1314,
      "Ġenvironment": 1315,
      "ĠThese": 1316,
      "Ġchang": 1317,
      "Ġtem": 1318,
      "Ġwithin": 1319,
      "Ġwant": 1320,
      "raph": 1321,
      "Ġdem": 1322,
      "ethod": 1323,
      "Ġcaus": 1324,
      "ources": 1325,
      "ries": 1326,
      "Ġpur": 1327,
      "ording": 1328,
      "ense": 1329,
      "Ġlight": 1330,
      "angu": 1331,
      "Ġpos": 1332,
      "Ġwithout": 1333,
      "Ġlearn": 1334,
      "ĠEng": 1335,
      "\",\"": 1336,
      "ertain": 1337,
      "Ġold": 1338,
      "Ġphys": 1339,
      "Ġcap": 1340,
      "alk": 1341,
      "Ġ&": 1342,
      "Ġchange": 1343,
      "Ġimpro": 1344,
      "Ġindividual": 1345,
      "eral": 1346,
      "Ġdon": 1347,
      "eng": 1348,
      "Ġiss": 1349,
      "of": 1350,
      "ior": 1351,
      "ĠDe": 1352,
      "tt": 1353,
      "Ġsym": 1354,
      "ĠAmerican": 1355,
      "Ġsl": 1356,
      "ield": 1357,
      "Ġmaterial": 1358,
      "ĠUniversity": 1359,
      "Ġproduct": 1360,
      "Ġproject": 1361,
      "ption": 1362,
      "Ġplay": 1363,
      "Ġident": 1364,
      "Ġeng": 1365,
      "man": 1366,
      "Ġve": 1367,
      "Ġair": 1368,
      "Ġimm": 1369,
      "Ġdirect": 1370,
      "Ġpot": 1371,
      "ians": 1372,
      "Ġdevelopment": 1373,
      "Ġbre": 1374,
      "ify": 1375,
      "line": 1376,
      "Ġarea": 1377,
      "Ġanother": 1378,
      "Ġbelie": 1379,
      "Ġben": 1380,
      "bs": 1381,
      "ton": 1382,
      "Ġdisease": 1383,
      "Ġcult": 1384,
      "ental": 1385,
      "Ġmeas": 1386,
      "Ġmus": 1387,
      "ĠCon": 1388,
      "erc": 1389,
      "Ġlaw": 1390,
      "illion": 1391,
      "iness": 1392,
      "Ġsit": 1393,
      "Ġpass": 1394,
      "Ġprof": 1395,
      "Ġrest": 1396,
      "pr": 1397,
      "Ġwomen": 1398,
      "rodu": 1399,
      "ained": 1400,
      "ajor": 1401,
      "ified": 1402,
      "'t": 1403,
      "ik": 1404,
      "ner": 1405,
      "orth": 1406,
      "Ġbas": 1407,
      "Ġsocial": 1408,
      "Ġbest": 1409,
      "Ġ[": 1410,
      "It": 1411,
      "ug": 1412,
      "ĠAd": 1413,
      "Ġant": 1414,
      "Ġprogram": 1415,
      "atic": 1416,
      "Ġinclude": 1417,
      "Ġhome": 1418,
      "Ġet": 1419,
      "Ġinterest": 1420,
      "ological": 1421,
      "Ġhapp": 1422,
      "Ġearly": 1423,
      "Ġblood": 1424,
      "Ġmethod": 1425,
      "ĠPh": 1426,
      "Ġsever": 1427,
      "Ġmark": 1428,
      "az": 1429,
      "ently": 1430,
      "Ġlow": 1431,
      "Ġdesc": 1432,
      "Ġopp": 1433,
      "Ġanal": 1434,
      "eed": 1435,
      "ccess": 1436,
      "ource": 1437,
      "Ġhere": 1438,
      "ware": 1439,
      "atural": 1440,
      "here": 1441,
      "rap": 1442,
      "Ġcontrol": 1443,
      "reg": 1444,
      "Ġpain": 1445,
      "ining": 1446,
      "ways": 1447,
      "ision": 1448,
      "Ġrisk": 1449,
      "Ġbetter": 1450,
      "ĠHowever": 1451,
      "Ġwar": 1452,
      "Ġbecome": 1453,
      "Ġmil": 1454,
      "Ġgovernment": 1455,
      "ending": 1456,
      "ĠSh": 1457,
      "Ġmove": 1458,
      "gin": 1459,
      "rist": 1460,
      "hor": 1461,
      "Ġfore": 1462,
      "ats": 1463,
      "Ġlast": 1464,
      "Ġpar": 1465,
      "Ġkeep": 1466,
      "Ġanim": 1467,
      "ission": 1468,
      "lished": 1469,
      "Ġreal": 1470,
      "Ġoper": 1471,
      "Ġtoo": 1472,
      "Ġter": 1473,
      "Ġeconom": 1474,
      "view": 1475,
      "Ġleg": 1476,
      "Ġagainst": 1477,
      "Ġorder": 1478,
      "arc": 1479,
      "Ġsecond": 1480,
      "Ġproper": 1481,
      "ern": 1482,
      "amp": 1483,
      "ator": 1484,
      "Ġfamily": 1485,
      "ills": 1486,
      "ead": 1487,
      "Ġmeans": 1488,
      "Ġcr": 1489,
      "Ġtre": 1490,
      "Ġhistory": 1491,
      "Ġel": 1492,
      "Ġsay": 1493,
      "str": 1494,
      "ients": 1495,
      "to": 1496,
      "Ġmajor": 1497,
      "Ġcause": 1498,
      "Ġoccur": 1499,
      "Ġele": 1500,
      "ention": 1501,
      "ider": 1502,
      "Ġprovide": 1503,
      "Ġgroup": 1504,
      "Ġavail": 1505,
      "Ġcurrent": 1506,
      "use": 1507,
      "Ġseveral": 1508,
      "ards": 1509,
      "icle": 1510,
      "Ġparticular": 1511,
      "Ġpossible": 1512,
      "Ġmean": 1513,
      "ĠUnited": 1514,
      "Ġhig": 1515,
      "ised": 1516,
      "Ġdev": 1517,
      "ote": 1518,
      "Ġperform": 1519,
      "Ġcal": 1520,
      "Ġunt": 1521,
      "Ġinvol": 1522,
      "omp": 1523,
      "Ġmen": 1524,
      "Ġnear": 1525,
      "Ġprom": 1526,
      "irc": 1527,
      "ĠRes": 1528,
      "Ġlangu": 1529,
      "ĠGod": 1530,
      "ĠCol": 1531,
      "Ġperiod": 1532,
      "ĠCl": 1533,
      "Ġtop": 1534,
      "be": 1535,
      "lu": 1536,
      "ograph": 1537,
      "Ġable": 1538,
      "pect": 1539,
      "ĠWhen": 1540,
      "Ġindu": 1541,
      "ĠEx": 1542,
      "Ġaddition": 1543,
      "Ġsaf": 1544,
      "Ġorig": 1545,
      "Ġpercent": 1546,
      "ples": 1547,
      "ories": 1548,
      "Ġfin": 1549,
      "Ġopen": 1550,
      "Ġsince": 1551,
      "Ġplant": 1552,
      "Ġobject": 1553,
      "oid": 1554,
      "Ġcost": 1555,
      "Ġaffect": 1556,
      "Ġspecies": 1557,
      "ogn": 1558,
      "Ġbenef": 1559,
      "ĠZ": 1560,
      "Ġnon": 1561,
      "Ġamong": 1562,
      "Ġthings": 1563,
      "Ġlim": 1564,
      "ĠCan": 1565,
      "ots": 1566,
      "Ġmar": 1567,
      "Ġname": 1568,
      "Ġsays": 1569,
      "idence": 1570,
      "port": 1571,
      "{\"": 1572,
      "Ġlearning": 1573,
      "ilar": 1574,
      "ĠâĢĶ": 1575,
      "ĠQ": 1576,
      "ina": 1577,
      "urop": 1578,
      "Ġbus": 1579,
      "Ġareas": 1580,
      "ane": 1581,
      "Ġfeel": 1582,
      "Ġcond": 1583,
      "par": 1584,
      "ret": 1585,
      "Ġhead": 1586,
      "though": 1587,
      "What": 1588,
      "Ġothers": 1589,
      "osp": 1590,
      "br": 1591,
      "Ġfollowing": 1592,
      "__": 1593,
      "ames": 1594,
      "Ġtimes": 1595,
      "Ġbased": 1596,
      "ably": 1597,
      "ns": 1598,
      "ĠStates": 1599,
      "ĠPl": 1600,
      "Ġsignific": 1601,
      "Ġfour": 1602,
      "Ġtreatment": 1603,
      "Ġ.": 1604,
      "ended": 1605,
      "ling": 1606,
      "Ġpost": 1607,
      "Ġhard": 1608,
      "ĠSe": 1609,
      "Ġage": 1610,
      "Ġgiven": 1611,
      "Ġscient": 1612,
      "ww": 1613,
      "Ġcase": 1614,
      "elf": 1615,
      "Ġcome": 1616,
      "Ġrece": 1617,
      "ĠComm": 1618,
      "Ġcountry": 1619,
      "Ġprevent": 1620,
      "ocus": 1621,
      "Ġdel": 1622,
      "Ġavailable": 1623,
      "Ġmonth": 1624,
      "urther": 1625,
      "ole": 1626,
      "ances": 1627,
      "Ġfac": 1628,
      "Ġvol": 1629,
      "atus": 1630,
      "ploy": 1631,
      "Ġfre": 1632,
      "Ġbro": 1633,
      "Ġrun": 1634,
      "Ġcertain": 1635,
      "Ġwee": 1636,
      "aper": 1637,
      "Ġlo": 1638,
      "ope": 1639,
      "ĠTo": 1640,
      "une": 1641,
      "Ġstruct": 1642,
      "Ġconn": 1643,
      "Ġaccess": 1644,
      "ĠAt": 1645,
      "oint": 1646,
      "Ġproblem": 1647,
      "Ġlittle": 1648,
      "cing": 1649,
      "Ġbi": 1650,
      "We": 1651,
      "hy": 1652,
      "ones": 1653,
      "Ġlist": 1654,
      "Ġlab": 1655,
      "Ġcells": 1656,
      "sc": 1657,
      "Ġfree": 1658,
      "Ġput": 1659,
      "urope": 1660,
      "Ġlocal": 1661,
      "Ġview": 1662,
      "Ġcomput": 1663,
      "Ġfar": 1664,
      "resent": 1665,
      "Ġproblems": 1666,
      "ething": 1667,
      "Ġtype": 1668,
      "Ġcreat": 1669,
      "Ġflow": 1670,
      "Ġpress": 1671,
      "Ġsuccess": 1672,
      "Ġbook": 1673,
      "icult": 1674,
      "Ġgr": 1675,
      "Ġintern": 1676,
      "Ġnatural": 1677,
      "If": 1678,
      "Ġamount": 1679,
      "Ġlet": 1680,
      "ression": 1681,
      "As": 1682,
      "olution": 1683,
      "Ġparent": 1684,
      "ither": 1685,
      "ĠTe": 1686,
      "not": 1687,
      "ured": 1688,
      "Ġlater": 1689,
      "Ġbir": 1690,
      "por": 1691,
      "Ġlevels": 1692,
      "ours": 1693,
      "Ġuntil": 1694,
      "Ġyoung": 1695,
      "Ġess": 1696,
      "ĠChrist": 1697,
      "Ġmaking": 1698,
      "stit": 1699,
      "Ġmult": 1700,
      "ledge": 1701,
      "ĠFr": 1702,
      "ggest": 1703,
      "ĠAf": 1704,
      "Ġimpact": 1705,
      "ĠCent": 1706,
      "Ġturn": 1707,
      "ĠNational": 1708,
      "Ġdue": 1709,
      "sy": 1710,
      "Ġshort": 1711,
      "ĠBe": 1712,
      "ides": 1713,
      "ately": 1714,
      "Ġrad": 1715,
      "Ġfocus": 1716,
      "aps": 1717,
      "Ġseem": 1718,
      "Ġcirc": 1719,
      "Ġassoci": 1720,
      "Ġdeterm": 1721,
      "ortun": 1722,
      "atory": 1723,
      "ged": 1724,
      "Ġprob": 1725,
      "hem": 1726,
      "Ġpolit": 1727,
      "Ġfil": 1728,
      "ĠEurope": 1729,
      "over": 1730,
      "Ġfunction": 1731,
      "Ġsignificant": 1732,
      "Ġeducation": 1733,
      "oks": 1734,
      "ĠĠĠĠĠ": 1735,
      "ĊĠĠĠĠĠ": 1736,
      "uture": 1737,
      "aken": 1738,
      "ication": 1739,
      "Ġsomething": 1740,
      "work": 1741,
      "ĠAll": 1742,
      "Ġvir": 1743,
      "Ġheart": 1744,
      "Ġdays": 1745,
      "Ġsw": 1746,
      "Ġsuggest": 1747,
      "ried": 1748,
      "Ġalong": 1749,
      "ĠEn": 1750,
      "Ġinvest": 1751,
      "Ġcancer": 1752,
      "Ġcho": 1753,
      "Ġcommunity": 1754,
      "Ġcourse": 1755,
      "Ġcomb": 1756,
      "ĠWhat": 1757,
      "},": 1758,
      "ĠOr": 1759,
      "vious": 1760,
      "Ġbehav": 1761,
      "ring": 1762,
      "Ġsystems": 1763,
      "Ġalways": 1764,
      "Ġobs": 1765,
      "Ġwords": 1766,
      "Ġlikely": 1767,
      "Ġleast": 1768,
      "Ġdra": 1769,
      "Ġappear": 1770,
      "Ġapplic": 1771,
      "cle": 1772,
      "ĠOn": 1773,
      "Ġusually": 1774,
      "isc": 1775,
      "Ġhy": 1776,
      "af": 1777,
      "Ġdeath": 1778,
      "Ġrequire": 1779,
      "Ġlanguage": 1780,
      "face": 1781,
      "Ġspecific": 1782,
      "sub": 1783,
      "Ġrele": 1784,
      "mit": 1785,
      "Ġspace": 1786,
      "aster": 1787,
      "There": 1788,
      "pos": 1789,
      "etic": 1790,
      "Ġdifficult": 1791,
      "Ġtemper": 1792,
      "ecially": 1793,
      "Ġill": 1794,
      "orld": 1795,
      "Ġpast": 1796,
      "ĠSo": 1797,
      "Ġrecord": 1798,
      "Ġsing": 1799,
      "Ġclear": 1800,
      "Ġline": 1801,
      "Ġsimilar": 1802,
      "Ġgive": 1803,
      "Ġexist": 1804,
      "Ġresults": 1805,
      "Ġconditions": 1806,
      "Ġauthor": 1807,
      "Ġ$": 1808,
      "ape": 1809,
      "iation": 1810,
      "app": 1811,
      "Ġteac": 1812,
      "Ġincrease": 1813,
      "Ġpopulation": 1814,
      "Ġtechnology": 1815,
      "ember": 1816,
      "Ġneeds": 1817,
      "ned": 1818,
      "ored": 1819,
      "agement": 1820,
      "Ġmov": 1821,
      "Ġmillion": 1822,
      "Ġcentury": 1823,
      "ler": 1824,
      "Ġtoday": 1825,
      "Ġabove": 1826,
      "idd": 1827,
      "aining": 1828,
      "ĠUS": 1829,
      "ators": 1830,
      "orts": 1831,
      "Ġcreate": 1832,
      "Ġbrain": 1833,
      "Ġcharacter": 1834,
      "Ġhigher": 1835,
      "Ġexperience": 1836,
      "Ġwhy": 1837,
      "Ġenc": 1838,
      "ruction": 1839,
      "Ġnext": 1840,
      "Ġhowever": 1841,
      "ively": 1842,
      "Ġbegin": 1843,
      "especially": 1844,
      "Ġdescrib": 1845,
      "Ġnecess": 1846,
      "atch": 1847,
      "asing": 1848,
      "ray": 1849,
      "ĠMed": 1850,
      "ique": 1851,
      "Ġask": 1852,
      "Ġspecial": 1853,
      "How": 1854,
      "ĠJoh": 1855,
      "Ġgre": 1856,
      "Ġconsum": 1857,
      "ribut": 1858,
      "St": 1859,
      "ĠBl": 1860,
      "ĠAfric": 1861,
      "min": 1862,
      "Ġvarious": 1863,
      "Ġnever": 1864,
      "Ġdiscuss": 1865,
      "ĠBrit": 1866,
      "Ġtry": 1867,
      "Ġcrit": 1868,
      "by": 1869,
      "selves": 1870,
      "Ġkind": 1871,
      "ison": 1872,
      "nal": 1873,
      "most": 1874,
      "Ġey": 1875,
      "Ġtoget": 1876,
      "Ġtogether": 1877,
      "Ġfuture": 1878,
      "rug": 1879,
      "Ġtru": 1880,
      "Ġdam": 1881,
      "Ġchanges": 1882,
      "ales": 1883,
      "Ġmot": 1884,
      "ush": 1885,
      "Ġestab": 1886,
      "Ġstrong": 1887,
      "Ġacross": 1888,
      "ptoms": 1889,
      "ĠWith": 1890,
      "ĠEar": 1891,
      "eter": 1892,
      "Ġer": 1893,
      "aring": 1894,
      "Ġleft": 1895,
      "ode": 1896,
      "Ġside": 1897,
      "Ġimprove": 1898,
      "aching": 1899,
      "oot": 1900,
      "Ġcomplete": 1901,
      "ilities": 1902,
      "Ġworks": 1903,
      "oney": 1904,
      "Ġprofess": 1905,
      "obal": 1906,
      "Ġenough": 1907,
      "Ġrespons": 1908,
      "Ġaway": 1909,
      "Ġways": 1910,
      "subject": 1911,
      "omes": 1912,
      "Ġplac": 1913,
      "fact": 1914,
      "Ġcolle": 1915,
      "thing": 1916,
      "ateg": 1917,
      "Ġterm": 1918,
      "Ġespecially": 1919,
      "Ġpatients": 1920,
      "Ġ'": 1921,
      "Ġresearc": 1922,
      "yl": 1923,
      "Ġtool": 1924,
      "Ġworking": 1925,
      "Ġ=": 1926,
      "ym": 1927,
      "ysis": 1928,
      "Ġbusiness": 1929,
      "Ġhaving": 1930,
      "ency": 1931,
      "ipp": 1932,
      "oman": 1933,
      "Ġsens": 1934,
      "Ġfull": 1935,
      "Ġplants": 1936,
      "for": 1937,
      "Ġchem": 1938,
      "Ġteam": 1939,
      "aim": 1940,
      "aves": 1941,
      "ument": 1942,
      "Ġgeneral": 1943,
      "Ġprim": 1944,
      "ilt": 1945,
      "Ġcountries": 1946,
      "let": 1947,
      "sp": 1948,
      "Ġstudies": 1949,
      "acy": 1950,
      "amm": 1951,
      "alf": 1952,
      "ĠWar": 1953,
      "Ġtypes": 1954,
      "Ġcases": 1955,
      "Ġrepresent": 1956,
      "Ġknowledge": 1957,
      "Ġbecame": 1958,
      "aut": 1959,
      "ires": 1960,
      "iting": 1961,
      "Ġnet": 1962,
      "Ġrelations": 1963,
      "Ġcity": 1964,
      "Ġsubject": 1965,
      "ued": 1966,
      "ges": 1967,
      "ley": 1968,
      "Ġgoing": 1969,
      "Ġeffects": 1970,
      "//": 1971,
      "Ġsum": 1972,
      "lement": 1973,
      "side": 1974,
      "duct": 1975,
      "\",": 1976,
      "Ġmic": 1977,
      "Ġnorm": 1978,
      "ann": 1979,
      "itor": 1980,
      "Ġself": 1981,
      "Ġz": 1982,
      "Ġtext": 1983,
      "Ġconsider": 1984,
      "Ġopt": 1985,
      "Ġaccount": 1986,
      "Ġwhether": 1987,
      "Ġinflu": 1988,
      "ae": 1989,
      "Ġfurther": 1990,
      "Ġkey": 1991,
      "rior": 1992,
      "chie": 1993,
      "Ġhouse": 1994,
      "ĠGen": 1995,
      "relation": 1996,
      "Ġphysical": 1997,
      "Ġstep": 1998,
      "ĠOne": 1999,
      "ĠSome": 2000,
      "sw": 2001,
      "ung": 2002,
      "ready": 2003,
      "Ġlower": 2004,
      "Ġconcer": 2005,
      "ification": 2006,
      "ising": 2007,
      "urch": 2008,
      "ĠEnglish": 2009,
      "Ġprotect": 2010,
      "istic": 2011,
      "edi": 2012,
      "ott": 2013,
      "Ġrole": 2014,
      "Ġground": 2015,
      "Ġvalue": 2016,
      "Ġproduction": 2017,
      "augh": 2018,
      "apt": 2019,
      "NA": 2020,
      "Ġoffic": 2021,
      "Ġmakes": 2022,
      "Ġwr": 2023,
      "Ġreason": 2024,
      "ites": 2025,
      "ĠLe": 2026,
      "atures": 2027,
      "For": 2028,
      "iol": 2029,
      "Ġmind": 2030,
      "Ġbig": 2031,
      "Ġtoward": 2032,
      "acc": 2033,
      "\"},": 2034,
      "ables": 2035,
      "ĠThat": 2036,
      "Ġsure": 2037,
      "Ġrange": 2038,
      "Ġquestion": 2039,
      "Ġscience": 2040,
      "Ġsymptoms": 2041,
      "Ġgrowth": 2042,
      "ream": 2043,
      "Ġcy": 2044,
      "://": 2045,
      "ĠWorld": 2046,
      "ird": 2047,
      "Ġnut": 2048,
      "Ġpolic": 2049,
      "Ġgroups": 2050,
      "Ġeff": 2051,
      "...": 2052,
      "Ġindic": 2053,
      "lo": 2054,
      "ĠGerm": 2055,
      "Ġdone": 2056,
      "An": 2057,
      "Ġlot": 2058,
      "Ġpred": 2059,
      "--": 2060,
      "Ġlive": 2061,
      "Ġpaper": 2062,
      "Ġseen": 2063,
      "Ġmass": 2064,
      "ĠGo": 2065,
      "PA": 2066,
      "Ġreally": 2067,
      "Ġred": 2068,
      "Ġbelow": 2069,
      "Ġalready": 2070,
      "Ġbat": 2071,
      "Ġchall": 2072,
      "Ġword": 2073,
      "bon": 2074,
      "Ġactivity": 2075,
      "iple": 2076,
      "erence": 2077,
      "Ġhold": 2078,
      "Ġwind": 2079,
      "Ġactivities": 2080,
      "Ġfield": 2081,
      "Ġstory": 2082,
      "Ġmodel": 2083,
      "rams": 2084,
      "cul": 2085,
      "Ġclose": 2086,
      "put": 2087,
      "Ġfund": 2088,
      "ĠHealth": 2089,
      "ibility": 2090,
      "unt": 2091,
      "ĠCal": 2092,
      "leep": 2093,
      "uation": 2094,
      "Ġrather": 2095,
      "ER": 2096,
      "ands": 2097,
      "mber": 2098,
      "Ġeither": 2099,
      "etimes": 2100,
      "Ġpotential": 2101,
      "esc": 2102,
      "Ġdeveloped": 2103,
      "Ġrecogn": 2104,
      "Ġquality": 2105,
      "Ġarticle": 2106,
      "Ġloss": 2107,
      "Ġdig": 2108,
      "verage": 2109,
      "Ġresources": 2110,
      "Ġfall": 2111,
      "Ġens": 2112,
      "ule": 2113,
      "overed": 2114,
      "val": 2115,
      "ĠShe": 2116,
      "Ġdeg": 2117,
      "Ġevent": 2118,
      "ĠIntern": 2119,
      "Ġtradition": 2120,
      "ĠCar": 2121,
      "Ġemploy": 2122,
      "sych": 2123,
      "Ġaddress": 2124,
      "Ġsize": 2125,
      "ask": 2126,
      "object": 2127,
      "iam": 2128,
      "Ġoil": 2129,
      "Ġproducts": 2130,
      "Ġsource": 2131,
      "ĠMar": 2132,
      "Ġrelig": 2133,
      "ival": 2134,
      "Ġonce": 2135,
      "Ġfive": 2136,
      "olic": 2137,
      "ĠIm": 2138,
      "ivil": 2139,
      "Ġparticip": 2140,
      "Ġmeet": 2141,
      "Ġaccording": 2142,
      "Ġver": 2143,
      "Ġachie": 2144,
      "ai": 2145,
      "rect": 2146,
      "oura": 2147,
      "Ġsingle": 2148,
      "Ġobserv": 2149,
      "idered": 2150,
      "Ġreduce": 2151,
      "ublic": 2152,
      "Ġur": 2153,
      "Ġsent": 2154,
      "Ġnational": 2155,
      "Ġinit": 2156,
      "Ġindust": 2157,
      "Ġphot": 2158,
      "Ġpay": 2159,
      "Ġtaken": 2160,
      "ĠTr": 2161,
      "Ġbuilding": 2162,
      "ĠBy": 2163,
      "Ġmembers": 2164,
      "Ġupon": 2165,
      "ĠSouth": 2166,
      "Ġconcept": 2167,
      "Ġabs": 2168,
      "Ġquestions": 2169,
      "Ġsite": 2170,
      "Ġfrequ": 2171,
      "Ġfr": 2172,
      "rict": 2173,
      "Ġwhole": 2174,
      "When": 2175,
      "ĠGe": 2176,
      "ĠAb": 2177,
      "Ġsoil": 2178,
      "ĠAmerica": 2179,
      "Ġevidence": 2180,
      "Ġskills": 2181,
      "Ġcollect": 2182,
      "Ġmedical": 2183,
      "Ġrequired": 2184,
      "Ġsound": 2185,
      "illed": 2186,
      "ournal": 2187,
      "ĠAm": 2188,
      "Ġneg": 2189,
      "Ġrate": 2190,
      "Ġdrug": 2191,
      "ĠMay": 2192,
      "Ġwhite": 2193,
      "reme": 2194,
      "Ġissues": 2195,
      "ips": 2196,
      "fficient": 2197,
      "Ġdest": 2198,
      "osis": 2199,
      "Ġtot": 2200,
      "Ġresearchers": 2201,
      "Ġcame": 2202,
      "Ġthemselves": 2203,
      "Ġsurface": 2204,
      "fer": 2205,
      "inter": 2206,
      "Ġtell": 2207,
      "ery": 2208,
      "Ch": 2209,
      "ights": 2210,
      "oon": 2211,
      "Ġconsidered": 2212,
      "Ġdetail": 2213,
      "roll": 2214,
      "Ġann": 2215,
      "Ġflu": 2216,
      "earch": 2217,
      "ault": 2218,
      "ĠSy": 2219,
      "ĠDr": 2220,
      "org": 2221,
      "Ġpolitical": 2222,
      "ĠStud": 2223,
      "Ġrepl": 2224,
      "âĢ¦": 2225,
      "Ġcreated": 2226,
      "Ġcut": 2227,
      "Ġintrodu": 2228,
      "like": 2229,
      "ĠRep": 2230,
      "Ġengine": 2231,
      "Ġliving": 2232,
      "Ġpressure": 2233,
      "Ġrecomm": 2234,
      "Ġnature": 2235,
      "amin": 2236,
      "Ġfail": 2237,
      "Ġdom": 2238,
      "Ġdoct": 2239,
      "Ġwide": 2240,
      "ĠPr": 2241,
      "oph": 2242,
      "ump": 2243,
      "Ġpractice": 2244,
      "ĠNorth": 2245,
      "epend": 2246,
      "Ġspe": 2247,
      "ĠJohn": 2248,
      "Ġprop": 2249,
      "Ġreturn": 2250,
      "Ġclimate": 2251,
      "Ġfri": 2252,
      "ĠYork": 2253,
      "empt": 2254,
      "itud": 2255,
      "ivity": 2256,
      "Ġthought": 2257,
      "Ġcannot": 2258,
      "ĠMan": 2259,
      "ober": 2260,
      "ĠAss": 2261,
      "Ġentire": 2262,
      "ĠComp": 2263,
      "eb": 2264,
      "urity": 2265,
      "Ġfamil": 2266,
      "Ġweek": 2267,
      "Ġanimals": 2268,
      "itary": 2269,
      "Ġsimple": 2270,
      "Ġincreased": 2271,
      "Ġdoc": 2272,
      "Ġstress": 2273,
      "Ġmarket": 2274,
      "Ġhistor": 2275,
      "alt": 2276,
      "Ġunderstanding": 2277,
      "Ġactually": 2278,
      "Ġrelated": 2279,
      "Ġidea": 2280,
      "Ġlay": 2281,
      "Ġopportun": 2282,
      "ety": 2283,
      "Ġquick": 2284,
      "Ġsun": 2285,
      "utions": 2286,
      "ibr": 2287,
      "ications": 2288,
      "Ġassociated": 2289,
      "pro": 2290,
      "hing": 2291,
      "Ġcomplex": 2292,
      "sequ": 2293,
      "Ġfat": 2294,
      "Ġrelationship": 2295,
      "Ġeffective": 2296,
      "ening": 2297,
      "Ġblack": 2298,
      "Ġcomputer": 2299,
      "Ġability": 2300,
      "sh": 2301,
      "Ġmaint": 2302,
      "Ġalmost": 2303,
      ".)": 2304,
      "Ġpublished": 2305,
      "Ġneeded": 2306,
      "urs": 2307,
      "hib": 2308,
      "Ġcomes": 2309,
      "Ġheat": 2310,
      "gest": 2311,
      "Ġcondition": 2312,
      "Ġitself": 2313,
      "aging": 2314,
      "aged": 2315,
      "Ġstates": 2316,
      "Ġmaterials": 2317,
      "yn": 2318,
      "bo": 2319,
      "artment": 2320,
      "Ġstudent": 2321,
      "Ġansw": 2322,
      "Ġskin": 2323,
      "Ġport": 2324,
      "ese": 2325,
      "Ġservices": 2326,
      "ĠAct": 2327,
      "):": 2328,
      "Ġfactors": 2329,
      "Ġprovides": 2330,
      "Ġarg": 2331,
      "ĠEarth": 2332,
      "Ġexperien": 2333,
      "To": 2334,
      "ĠX": 2335,
      "Ġtook": 2336,
      "ĠAust": 2337,
      "Ġmeasure": 2338,
      "Ġprote": 2339,
      "go": 2340,
      "Ġdog": 2341,
      "erve": 2342,
      "Al": 2343,
      "Ġmoney": 2344,
      "Ġarr": 2345,
      "Ġmonths": 2346,
      "rad": 2347,
      "Ġbar": 2348,
      "Ġadult": 2349,
      "Ġbegan": 2350,
      "Ġsoft": 2351,
      "Ġmor": 2352,
      "amount": 2353,
      "Ġfire": 2354,
      "ĠHis": 2355,
      "Ġcat": 2356,
      "lying": 2357,
      "Ġvers": 2358,
      "acks": 2359,
      "ores": 2360,
      "Ġavoid": 2361,
      "Ġsuff": 2362,
      "ĠGu": 2363,
      "ney": 2364,
      "ened": 2365,
      "Ġhealthy": 2366,
      "SA": 2367,
      "Ġmodern": 2368,
      "Ġexerc": 2369,
      "chan": 2370,
      "ging": 2371,
      "Ġeconomic": 2372,
      "ĠSoc": 2373,
      "eds": 2374,
      "Ġnecessary": 2375,
      "Ġfarm": 2376,
      "ensive": 2377,
      "Ġglobal": 2378,
      "ises": 2379,
      "Ġpath": 2380,
      "vere": 2381,
      "Ġparts": 2382,
      "You": 2383,
      "Ġweight": 2384,
      "\".": 2385,
      "Ġhtt": 2386,
      "rapy": 2387,
      "ences": 2388,
      "Ġfish": 2389,
      "my": 2390,
      "uel": 2391,
      "Ġhalf": 2392,
      "Ġever": 2393,
      "ĠHist": 2394,
      "Ġhours": 2395,
      "Ġsuper": 2396,
      "ĠState": 2397,
      "oll": 2398,
      "rate": 2399,
      "Ġcoll": 2400,
      "ma": 2401,
      "rought": 2402,
      "ĠDep": 2403,
      "ply": 2404,
      "Ġrights": 2405,
      "Ġgas": 2406,
      "Ġproduce": 2407,
      "Wh": 2408,
      "Ġdiagn": 2409,
      "Ġyet": 2410,
      "Ġclaim": 2411,
      "Ġdiet": 2412,
      "Ġapproach": 2413,
      "region": 2414,
      "izing": 2415,
      "ĠBritish": 2416,
      "Ġassess": 2417,
      "status": 2418,
      "Ġconduct": 2419,
      "Ġanalysis": 2420,
      "Ġarch": 2421,
      "Ġemer": 2422,
      "based": 2423,
      "Ġsam": 2424,
      "Ġthroughout": 2425,
      "apan": 2426,
      "utes": 2427,
      "Ġlink": 2428,
      "Ġregion": 2429,
      "Ġcop": 2430,
      "ĠDo": 2431,
      "Ġcompany": 2432,
      "onse": 2433,
      "iction": 2434,
      "Ġparents": 2435,
      "abor": 2436,
      "Ġsepar": 2437,
      "Ġreact": 2438,
      "Ġsleep": 2439,
      "Ġpattern": 2440,
      "Ġcolor": 2441,
      "Ġpersonal": 2442,
      "Ġservice": 2443,
      "ĠAfter": 2444,
      "Ġtar": 2445,
      "ume": 2446,
      "Ġcontent": 2447,
      "Ġla": 2448,
      "Ġjob": 2449,
      "cient": 2450,
      "ĠNe": 2451,
      "ĠCont": 2452,
      "Ġposition": 2453,
      "ES": 2454,
      "irm": 2455,
      "Ġgreen": 2456,
      "Ġliter": 2457,
      "Ġtaking": 2458,
      "iddle": 2459,
      "ccording": 2460,
      "\"},{\"": 2461,
      "Ġprevious": 2462,
      "Ġbuilt": 2463,
      "Ġpopular": 2464,
      "Ġmanagement": 2465,
      "Ġreading": 2466,
      "Ġsix": 2467,
      "hold": 2468,
      "het": 2469,
      "usion": 2470,
      "Ġshows": 2471,
      "Ġheav": 2472,
      "Ġprinc": 2473,
      "Ġpriv": 2474,
      "Ġsense": 2475,
      "estern": 2476,
      "Ġstop": 2477,
      "icles": 2478,
      "Ġindividuals": 2479,
      "mb": 2480,
      "Ġlonger": 2481,
      "Ġut": 2482,
      "Ġmeaning": 2483,
      "Ġsurv": 2484,
      "Ġfeed": 2485,
      "Ġincreasing": 2486,
      "Ġbur": 2487,
      "Ġsex": 2488,
      "Ġtraining": 2489,
      "Ġchemical": 2490,
      "Ġge": 2491,
      "Ġtalk": 2492,
      "uck": 2493,
      "Ġconc": 2494,
      "Ġstructure": 2495,
      "ches": 2496,
      "Ġrecent": 2497,
      "ections": 2498,
      "rown": 2499,
      "ĠCanad": 2500,
      "Ġtotal": 2501,
      "Ġregard": 2502,
      "Ġaction": 2503,
      "Ġterms": 2504,
      "Ġpositive": 2505,
      "erous": 2506,
      "Ġinteract": 2507,
      "ze": 2508,
      "Ġtemperature": 2509,
      "Ġsociety": 2510,
      "iment": 2511,
      "Ġinj": 2512,
      "Ġenvironmental": 2513,
      "wh": 2514,
      "nces": 2515,
      "ĠCo": 2516,
      "vey": 2517,
      "reng": 2518,
      "Ġste": 2519,
      "ript": 2520,
      "Ã©": 2521,
      "abit": 2522,
      "Ġonline": 2523,
      "ene": 2524,
      "Ġindustry": 2525,
      "Ġsat": 2526,
      "Ġschools": 2527,
      "Ġdesigned": 2528,
      "emic": 2529,
      "Ġtrue": 2530,
      "igure": 2531,
      "ederal": 2532,
      "pid": 2533,
      "anced": 2534,
      "gar": 2535,
      "astic": 2536,
      "Ġrul": 2537,
      "lex": 2538,
      "Ġlives": 2539,
      "Ġcontain": 2540,
      "US": 2541,
      "Ġtravel": 2542,
      "hood": 2543,
      "ĠJew": 2544,
      "Ġshown": 2545,
      "Ġcontact": 2546,
      "istance": 2547,
      "order": 2548,
      "Ġstandard": 2549,
      "Ġprovided": 2550,
      "yle": 2551,
      "Ġcauses": 2552,
      "ulations": 2553,
      "ĠNo": 2554,
      "ĠSchool": 2555,
      "Ġmach": 2556,
      "fully": 2557,
      "Ġbreak": 2558,
      "ĠPar": 2559,
      "minist": 2560,
      "Ġce": 2561,
      "Ġmethods": 2562,
      "Ġwriting": 2563,
      "Ġcheck": 2564,
      "Ġcaused": 2565,
      "Ġetc": 2566,
      "lor": 2567,
      "aff": 2568,
      "Ġclean": 2569,
      "Ġbring": 2570,
      "ĠWhile": 2571,
      "Ġprograms": 2572,
      "AT": 2573,
      "Ġmatter": 2574,
      "Ġthing": 2575,
      "ĠPe": 2576,
      "ows": 2577,
      "ils": 2578,
      "Ġled": 2579,
      "ĠJapan": 2580,
      "ricult": 2581,
      "enn": 2582,
      "ĠII": 2583,
      "ster": 2584,
      "Ġbehavior": 2585,
      "Ġincludes": 2586,
      "Ġvide": 2587,
      "asc": 2588,
      "lands": 2589,
      "lt": 2590,
      "ropri": 2591,
      "istics": 2592,
      "dom": 2593,
      "Ġaccept": 2594,
      "ister": 2595,
      "ID": 2596,
      "Ġprec": 2597,
      "aving": 2598,
      "Ġeasy": 2599,
      "ched": 2600,
      "aily": 2601,
      "Ġrelative": 2602,
      "itation": 2603,
      "Ġeat": 2604,
      "ana": 2605,
      "Ġremov": 2606,
      "imately": 2607,
      "amed": 2608,
      "Ġsafe": 2609,
      "ony": 2610,
      "imin": 2611,
      "Ġbenefits": 2612,
      "Ġspread": 2613,
      "ades": 2614,
      "Ġorigin": 2615,
      "Ġdeep": 2616,
      "Ġviol": 2617,
      "Ġimage": 2618,
      "Ġaverage": 2619,
      "ĠEm": 2620,
      "Ġbelieve": 2621,
      "Ġvariety": 2622,
      "light": 2623,
      "Ġsubst": 2624,
      "Ġearth": 2625,
      "ials": 2626,
      "aling": 2627,
      "Ġrev": 2628,
      "oles": 2629,
      "Ġslow": 2630,
      "Ġgreater": 2631,
      "Ġmovement": 2632,
      "Ġlif": 2633,
      "Ġsimply": 2634,
      "Ġsometimes": 2635,
      "Ġreported": 2636,
      "rast": 2637,
      "Ġcarbon": 2638,
      "Ġreview": 2639,
      "Ġvari": 2640,
      "Ġculture": 2641,
      "But": 2642,
      "arr": 2643,
      "Ġlove": 2644,
      "Ġmechan": 2645,
      "ha": 2646,
      "Ġregular": 2647,
      "Ġwild": 2648,
      "AR": 2649,
      "ronic": 2650,
      "duc": 2651,
      "Ġmusic": 2652,
      "IN": 2653,
      "ĠInstit": 2654,
      "Ġbacter": 2655,
      "Ġfem": 2656,
      "ĠSu": 2657,
      "ĠResearch": 2658,
      "Ġtarget": 2659,
      "Ġmicro": 2660,
      "Ġissue": 2661,
      "Ġcamp": 2662,
      "new": 2663,
      "ĠKing": 2664,
      "oor": 2665,
      "aries": 2666,
      "arily": 2667,
      "Ġstreng": 2668,
      "Ġfru": 2669,
      "Ġinvolved": 2670,
      "Ġdoing": 2671,
      "Ġcompl": 2672,
      "Ġhelps": 2673,
      "atives": 2674,
      "know": 2675,
      "icine": 2676,
      "Ġprior": 2677,
      "Ġresponse": 2678,
      "umb": 2679,
      "Ġidentify": 2680,
      "Ġpoor": 2681,
      "Ġpoll": 2682,
      "Ġforest": 2683,
      "Ġuses": 2684,
      "Ġoutside": 2685,
      "ufact": 2686,
      "Ġthreat": 2687,
      "Ġnormal": 2688,
      "Ġrespect": 2689,
      "Ġwritten": 2690,
      "ĠIndia": 2691,
      "aches": 2692,
      "Ġforce": 2693,
      "Ġforms": 2694,
      "eration": 2695,
      "verse": 2696,
      "Ġoriginal": 2697,
      "Ġcoun": 2698,
      "ĠPres": 2699,
      "Ġfoods": 2700,
      "Ġevents": 2701,
      "ief": 2702,
      "Ġface": 2703,
      "rec": 2704,
      "Ġpict": 2705,
      "Ġscientists": 2706,
      "Ġcompet": 2707,
      "Ġexc": 2708,
      "Ġlack": 2709,
      "Ġdemon": 2710,
      "Ġemb": 2711,
      "bor": 2712,
      "ctions": 2713,
      "Ġrefer": 2714,
      "Ġlate": 2715,
      "ached": 2716,
      "ĠPer": 2717,
      "pose": 2718,
      "Ġdamage": 2719,
      "ength": 2720,
      "Ġbasic": 2721,
      "Ġir": 2722,
      "Ġelectric": 2723,
      "ucle": 2724,
      "Ġple": 2725,
      "ops": 2726,
      "Ġextreme": 2727,
      "ĠÂ": 2728,
      "Ġparticularly": 2729,
      "Ġcompan": 2730,
      "Ġpsych": 2731,
      "Ġgrowing": 2732,
      "Ġcorrect": 2733,
      "rig": 2734,
      "ls": 2735,
      "Ġwebs": 2736,
      "Ġimplement": 2737,
      "Ġdefin": 2738,
      "Ġspeed": 2739,
      "Ġattempt": 2740,
      "elling": 2741,
      "ĠScience": 2742,
      "ĠMin": 2743,
      "ners": 2744,
      "ĠWill": 2745,
      "Ġlat": 2746,
      "Ġencoura": 2747,
      "alls": 2748,
      "Ġbal": 2749,
      "Ġvisit": 2750,
      "part": 2751,
      "rand": 2752,
      "Ġcompon": 2753,
      "Ġcust": 2754,
      "Ġinteg": 2755,
      "rench": 2756,
      "Ġsources": 2757,
      "Ġdeb": 2758,
      "ims": 2759,
      "Ġappl": 2760,
      "Ġcontains": 2761,
      "Ġmess": 2762,
      "Ġfeet": 2763,
      "Ġserious": 2764,
      "Ġaff": 2765,
      "Ġdeveloping": 2766,
      "uge": 2767,
      "rated": 2768,
      "Ġdou": 2769,
      "irit": 2770,
      "room": 2771,
      "Ġpatient": 2772,
      "Ġgenerally": 2773,
      "Ġproduced": 2774,
      "Ġsqu": 2775,
      "ender": 2776,
      "Ġprobably": 2777,
      "Ġshare": 2778,
      "Ġattention": 2779,
      "ĠEd": 2780,
      "iforn": 2781,
      "Ġprint": 2782,
      "Ġwood": 2783,
      "Ġlog": 2784,
      "Ġnight": 2785,
      "ĠQu": 2786,
      "Ġmedia": 2787,
      "Ġdoesn": 2788,
      "ĠSec": 2789,
      "Ġvirus": 2790,
      "Ġseries": 2791,
      "Ġpage": 2792,
      "Ġmother": 2793,
      "fect": 2794,
      "ĠMe": 2795,
      "Ġkids": 2796,
      "Ġdispl": 2797,
      "abet": 2798,
      "ming": 2799,
      "Ġconsist": 2800,
      "Ġ--": 2801,
      "Ġsust": 2802,
      "ĠAustral": 2803,
      "ban": 2804,
      "Ġincluded": 2805,
      "oly": 2806,
      "uth": 2807,
      "Ġnumbers": 2808,
      "ĊĠĠĠ": 2809,
      "Ġveget": 2810,
      "where": 2811,
      "Ġessential": 2812,
      "ĠApp": 2813,
      "raft": 2814,
      "ribution": 2815,
      "imum": 2816,
      "Ġcontinue": 2817,
      "Ġensure": 2818,
      "ĠBo": 2819,
      "Ġchalleng": 2820,
      "isions": 2821,
      "ĠMany": 2822,
      "Ġsafety": 2823,
      "ground": 2824,
      "Ġharm": 2825,
      "idge": 2826,
      "Ġsomeone": 2827,
      "Ġanimal": 2828,
      "ON": 2829,
      "Ġnetwork": 2830,
      "IS": 2831,
      "ided": 2832,
      "ervation": 2833,
      "Ġmagn": 2834,
      "Ġtherefore": 2835,
      "Ġindepend": 2836,
      "ecause": 2837,
      "Ġemot": 2838,
      "inary": 2839,
      "set": 2840,
      "Ġgetting": 2841,
      "Ġthus": 2842,
      "ifornia": 2843,
      "Ġtown": 2844,
      "Ġattack": 2845,
      "Ġ/": 2846,
      "ext": 2847,
      "Ġdraw": 2848,
      "Ġselect": 2849,
      "Ġideas": 2850,
      "Ġexpress": 2851,
      "box": 2852,
      "Ġteachers": 2853,
      "ashing": 2854,
      "oes": 2855,
      "Ġmilitary": 2856,
      "haps": 2857,
      "Ġsou": 2858,
      "ius": 2859,
      "Ġquite": 2860,
      "ography": 2861,
      "Ġcapt": 2862,
      "ension": 2863,
      "Ġtax": 2864,
      "erson": 2865,
      "ĠMore": 2866,
      "ĠJan": 2867,
      "On": 2868,
      "ems": 2869,
      "cont": 2870,
      "Ġeasily": 2871,
      "Ġtakes": 2872,
      "issions": 2873,
      "vention": 2874,
      "Ġhyd": 2875,
      "Ġinstead": 2876,
      "ying": 2877,
      "ror": 2878,
      "Ġinside": 2879,
      "OR": 2880,
      "rs": 2881,
      "Ġthous": 2882,
      "mar": 2883,
      "Ġsil": 2884,
      "Ġearl": 2885,
      "Ġago": 2886,
      "Ġsold": 2887,
      "Ġadded": 2888,
      "rie": 2889,
      "Ġmanufact": 2890,
      "Ġtheory": 2891,
      "Ġinternational": 2892,
      "itude": 2893,
      "Ġox": 2894,
      "Ġtur": 2895,
      "Ġcivil": 2896,
      "ĠInt": 2897,
      "Ġlooking": 2898,
      "ĠAg": 2899,
      "Ġcross": 2900,
      "Ġspeak": 2901,
      "Ġcommit": 2902,
      "mon": 2903,
      "na": 2904,
      "cell": 2905,
      "Ġtraditional": 2906,
      "asons": 2907,
      "Ġinvestig": 2908,
      "ĠCenter": 2909,
      "no": 2910,
      "Ġdifference": 2911,
      "Ġaware": 2912,
      "cies": 2913,
      "ĠEduc": 2914,
      "uary": 2915,
      "Ġinstit": 2916,
      "ĠEl": 2917,
      "Ġdetermine": 2918,
      "____": 2919,
      "anks": 2920,
      "Ġfav": 2921,
      "à¤": 2922,
      "Ġlarger": 2923,
      "Ġbab": 2924,
      "ads": 2925,
      "Ġstarted": 2926,
      "Ġprep": 2927,
      "Ġi": 2928,
      "rew": 2929,
      "hel": 2930,
      "bl": 2931,
      "Ġquickly": 2932,
      "Ġconcent": 2933,
      "Ġsea": 2934,
      "Ġallows": 2935,
      "Ġleaders": 2936,
      "Ġdaily": 2937,
      "cil": 2938,
      "inks": 2939,
      "Ġprimary": 2940,
      "Ġestablished": 2941,
      "ĠPart": 2942,
      "ino": 2943,
      "Ġeth": 2944,
      "Ġnation": 2945,
      "Ġpolicy": 2946,
      "Ġunique": 2947,
      "Ġtiss": 2948,
      "Ġappropri": 2949,
      "ĠCount": 2950,
      "iot": 2951,
      "ĠCalifornia": 2952,
      "Ġdang": 2953,
      "Ġdirectly": 2954,
      "ĠJu": 2955,
      "Ġtools": 2956,
      "orks": 2957,
      "udd": 2958,
      "Ġestim": 2959,
      "Ġcompared": 2960,
      "Ġcommunities": 2961,
      "Ġseason": 2962,
      "Ġhumans": 2963,
      "Ġheld": 2964,
      "pe": 2965,
      "Ġfinanc": 2966,
      "Ġdry": 2967,
      "Ġful": 2968,
      "aces": 2969,
      "Ġreve": 2970,
      "Ġmental": 2971,
      "ĠChina": 2972,
      "Ġcover": 2973,
      "Ġdiv": 2974,
      "Ġcit": 2975,
      "erg": 2976,
      "ceed": 2977,
      "ĠEuropean": 2978,
      "ĠCons": 2979,
      "Ġincome": 2980,
      "pril": 2981,
      "ĠMost": 2982,
      "Ġdocument": 2983,
      "ancy": 2984,
      "Ġoffer": 2985,
      "ĠIndian": 2986,
      "undred": 2987,
      "ille": 2988,
      "ift": 2989,
      "useum": 2990,
      "Ġprogress": 2991,
      "Ġanswer": 2992,
      "Ġmultiple": 2993,
      "Ġperformance": 2994,
      "Ġdrink": 2995,
      "Ġsearch": 2996,
      "ĠYour": 2997,
      "ords": 2998,
      "Ġachieve": 2999,
      "Ġthird": 3000,
      "Ġfoot": 3001,
      "Ġdecre": 3002,
      "Ġord": 3003,
      "Ġvacc": 3004,
      "osing": 3005,
      "Ġdiseases": 3006,
      "ĠAug": 3007,
      "Ġfamilies": 3008,
      "osure": 3009,
      "www": 3010,
      "One": 3011,
      "hern": 3012,
      "icated": 3013,
      "Ġwarm": 3014,
      "overy": 3015,
      "Ġwalk": 3016,
      "Ġsolar": 3017,
      "ellow": 3018,
      "elt": 3019,
      "Ġeval": 3020,
      "Ġhost": 3021,
      "bit": 3022,
      "Ġscientific": 3023,
      "gency": 3024,
      "Ġbirth": 3025,
      "Ġaud": 3026,
      "Ġrout": 3027,
      "Ġtri": 3028,
      "raw": 3029,
      "omb": 3030,
      "illing": 3031,
      "ĠGl": 3032,
      "Ġbit": 3033,
      "AN": 3034,
      "Ġsoon": 3035,
      "Ġpoints": 3036,
      "Ġtree": 3037,
      "Ġtend": 3038,
      "Ġbox": 3039,
      "oming": 3040,
      "Ġreflect": 3041,
      "omet": 3042,
      "Ġbehind": 3043,
      "Ġalthough": 3044,
      "iency": 3045,
      "Ġimmedi": 3046,
      "Ġaltern": 3047,
      "Ġbooks": 3048,
      "Ġbroad": 3049,
      "iers": 3050,
      "ĠInstitute": 3051,
      "Ġhor": 3052,
      "Ġwent": 3053,
      "ĠJes": 3054,
      "Ġcentral": 3055,
      "Ġhighly": 3056,
      "Ġsal": 3057,
      "Ġproced": 3058,
      "thern": 3059,
      "Ġfront": 3060,
      "Ġvit": 3061,
      "ĠPre": 3062,
      "Ġmount": 3063,
      "Ġdemonstr": 3064,
      "Ġactive": 3065,
      "ĠAc": 3066,
      "Ġtrees": 3067,
      "Ġsoftware": 3068,
      "Ġsevere": 3069,
      "Ġaspect": 3070,
      "ĠMarch": 3071,
      "Ġbeginning": 3072,
      "Ġgard": 3073,
      "joy": 3074,
      "Ġobt": 3075,
      "att": 3076,
      "Ġadditional": 3077,
      "yr": 3078,
      "Ġhar": 3079,
      "iques": 3080,
      "Ġuseful": 3081,
      "nov": 3082,
      "Ġclin": 3083,
      "Ġolder": 3084,
      "Ġvideo": 3085,
      "unch": 3086,
      "Ġtransport": 3087,
      "Ġcompanies": 3088,
      "Ġexercise": 3089,
      "Ġsection": 3090,
      "osition": 3091,
      "ev": 3092,
      "Ġshall": 3093,
      "ĠAfrica": 3094,
      "Ġmom": 3095,
      "Ġlabor": 3096,
      "Ġseems": 3097,
      "ĠWest": 3098,
      "Ġfram": 3099,
      "orthern": 3100,
      "ĠOf": 3101,
      "Ġpurpose": 3102,
      "Ġcard": 3103,
      "ĠOct": 3104,
      "ĠSm": 3105,
      "Ġleading": 3106,
      "Ġtowards": 3107,
      "Ġbad": 3108,
      "ĠRec": 3109,
      "ĠDepartment": 3110,
      "Ġcred": 3111,
      "Ġstat": 3112,
      "Ġhot": 3113,
      "yond": 3114,
      "ounds": 3115,
      "formation": 3116,
      "Ġsupply": 3117,
      "ĠMus": 3118,
      "ĠFrench": 3119,
      "Ġang": 3120,
      "ĠNot": 3121,
      "Ġdoctor": 3122,
      "ĠUs": 3123,
      "Ġwhose": 3124,
      "Ġdark": 3125,
      "Ġblock": 3126,
      "So": 3127,
      "ran": 3128,
      "Ġcritical": 3129,
      "ulate": 3130,
      "ĠJune": 3131,
      "Ġstay": 3132,
      "Ġteaching": 3133,
      "isms": 3134,
      "Ġanaly": 3135,
      "ĠHar": 3136,
      "orders": 3137,
      "iber": 3138,
      "ĠHer": 3139,
      "Ġnegative": 3140,
      "ĠAfrican": 3141,
      "Ġ,": 3142,
      "Ġaccur": 3143,
      "uman": 3144,
      "He": 3145,
      "ĠHistory": 3146,
      "Ġvalues": 3147,
      "Ġcontribut": 3148,
      "Ġeye": 3149,
      "Ġlargest": 3150,
      "Ġsecurity": 3151,
      "uries": 3152,
      "ĠFirst": 3153,
      "term": 3154,
      "ĠRuss": 3155,
      "Ġwaste": 3156,
      "Ġcustom": 3157,
      "Ġhands": 3158,
      "vant": 3159,
      "IV": 3160,
      "oke": 3161,
      "rag": 3162,
      "Ġlimited": 3163,
      "Ġunc": 3164,
      "Ġsituation": 3165,
      "Ġfast": 3166,
      "Ġreceived": 3167,
      "Ġlost": 3168,
      "oring": 3169,
      "lation": 3170,
      "cean": 3171,
      "Ġones": 3172,
      "Ġextra": 3173,
      "Ġhundred": 3174,
      "Ġprotein": 3175,
      "ĠChar": 3176,
      "Ġexpect": 3177,
      "ties": 3178,
      "Ġjud": 3179,
      "rition": 3180,
      "ĠArt": 3181,
      "Ġacid": 3182,
      "hest": 3183,
      "Ġinfection": 3184,
      "Ġexact": 3185,
      "ĠOther": 3186,
      "ĠCO": 3187,
      "Ġsymb": 3188,
      "Ġminutes": 3189,
      "Ġhttp": 3190,
      "Ġreligious": 3191,
      "come": 3192,
      "âĢĿ.": 3193,
      "Ġbase": 3194,
      "Ġbrought": 3195,
      "Ġfight": 3196,
      "ĠTra": 3197,
      "ĠChild": 3198,
      "ara": 3199,
      "aly": 3200,
      "used": 3201,
      "Ġquant": 3202,
      "Ġthinking": 3203,
      "IC": 3204,
      "reek": 3205,
      "Ġelse": 3206,
      "Ġwrite": 3207,
      "inct": 3208,
      "ilos": 3209,
      "Ġdescribed": 3210,
      "Ġdecl": 3211,
      "Ġfeatures": 3212,
      "ĠReg": 3213,
      "Ġcosts": 3214,
      "Ġsus": 3215,
      "inese": 3216,
      "wise": 3217,
      "hens": 3218,
      "And": 3219,
      "Ġhabit": 3220,
      "Ġimpl": 3221,
      "Ġimages": 3222,
      "Ġwa": 3223,
      "Ġ:": 3224,
      "Ġrequires": 3225,
      "rote": 3226,
      "Ġcapital": 3227,
      "iter": 3228,
      "Ġnews": 3229,
      "ĠAlthough": 3230,
      "Ġpack": 3231,
      "ĠCor": 3232,
      "den": 3233,
      "Ġstri": 3234,
      "Ġgot": 3235,
      "âĢ¢": 3236,
      "Ġnearly": 3237,
      "Ġx": 3238,
      "Ġcapac": 3239,
      "EN": 3240,
      "Ġcommunication": 3241,
      "Ġwebsite": 3242,
      "Ġdemand": 3243,
      "ĠApril": 3244,
      "Ġinterp": 3245,
      "Ġsummer": 3246,
      "Ġwinter": 3247,
      "ĠMon": 3248,
      "Ġcultural": 3249,
      "odies": 3250,
      "At": 3251,
      "olar": 3252,
      "Ġvict": 3253,
      "Ġenjoy": 3254,
      "Ġdepends": 3255,
      "ĠSept": 3256,
      "Ġdecision": 3257,
      "ĠInternational": 3258,
      "mission": 3259,
      "Ġprotection": 3260,
      "Ġlines": 3261,
      "Ġlaws": 3262,
      "ula": 3263,
      "rogen": 3264,
      "abetes": 3265,
      "Ġexcept": 3266,
      "Ġhappens": 3267,
      "ĠBar": 3268,
      "ĠJesus": 3269,
      "itch": 3270,
      "Ġlocated": 3271,
      "Ġfather": 3272,
      "Ġsolution": 3273,
      "Ġnorth": 3274,
      "ĠTw": 3275,
      "Ġadminist": 3276,
      "fort": 3277,
      "istry": 3278,
      "ipment": 3279,
      "ype": 3280,
      "lection": 3281,
      "tery": 3282,
      "Ġmention": 3283,
      "Ġnucle": 3284,
      "ologies": 3285,
      "Ġelements": 3286,
      "ashington": 3287,
      "Ġmole": 3288,
      "Ġcarry": 3289,
      "open": 3290,
      "ields": 3291,
      "Ġrates": 3292,
      "pper": 3293,
      "Ġapplication": 3294,
      "Ġweb": 3295,
      "gn": 3296,
      "ĠSch": 3297,
      "Ġagricult": 3298,
      "ĠGerman": 3299,
      "ipl": 3300,
      "ĠCity": 3301,
      "Ġstrateg": 3302,
      "Ġlength": 3303,
      "Ġborn": 3304,
      "Ġworkers": 3305,
      "'re": 3306,
      "Ġancient": 3307,
      "uk": 3308,
      "exic": 3309,
      "Ġtold": 3310,
      "Ġprojects": 3311,
      "Ġstru": 3312,
      "Ġtypically": 3313,
      "ĠSw": 3314,
      "ulated": 3315,
      "Ġcolon": 3316,
      "Ġweeks": 3317,
      "cks": 3318,
      "cial": 3319,
      "Ġsustain": 3320,
      "izations": 3321,
      "Ġbeaut": 3322,
      "Ġfit": 3323,
      "ĠAnt": 3324,
      "vest": 3325,
      "Ġcool": 3326,
      "see": 3327,
      "alled": 3328,
      "Ġinfluence": 3329,
      "Ġsurround": 3330,
      "cles": 3331,
      "Ġimportance": 3332,
      "Ġgoal": 3333,
      "arian": 3334,
      "Ġreach": 3335,
      "Ġprivate": 3336,
      "coh": 3337,
      "Ġbecomes": 3338,
      "Ġcrop": 3339,
      "Ġplaces": 3340,
      "Ġappropriate": 3341,
      "Ġestablish": 3342,
      "imal": 3343,
      "ĠDav": 3344,
      "AS": 3345,
      "ĠFrom": 3346,
      "Ġrare": 3347,
      "Ġagree": 3348,
      "year": 3349,
      "ĠPress": 3350,
      "Ġefforts": 3351,
      "Ġsn": 3352,
      "ĠHere": 3353,
      "ĠChristian": 3354,
      "Ġsouth": 3355,
      "iece": 3356,
      "ham": 3357,
      "Ġleaves": 3358,
      "Ġanything": 3359,
      "ĠAugust": 3360,
      "ĠCanada": 3361,
      "Ġtechniques": 3362,
      "Ġult": 3363,
      "ĠJuly": 3364,
      "Ġfinancial": 3365,
      "Ġcommand": 3366,
      "Ġveh": 3367,
      "co": 3368,
      "Ġprocesses": 3369,
      "Ġfinal": 3370,
      "Ġcalcul": 3371,
      "Ġbacteria": 3372,
      "oud": 3373,
      "Ġcam": 3374,
      "Ġmill": 3375,
      "Ġep": 3376,
      "Ġhimself": 3377,
      "med": 3378,
      "king": 3379,
      "Ġnothing": 3380,
      "Ġadults": 3381,
      "ĠMy": 3382,
      "water": 3383,
      "Ġeyes": 3384,
      "iles": 3385,
      "izes": 3386,
      "Ġgives": 3387,
      "Ġcenter": 3388,
      "Ġdead": 3389,
      "idents": 3390,
      "ĠRiver": 3391,
      "Ġremain": 3392,
      "rael": 3393,
      "Ġusers": 3394,
      "Ġmemory": 3395,
      "aid": 3396,
      "ĠChurch": 3397,
      "Ġscreen": 3398,
      "ĠJournal": 3399,
      "Ġrapid": 3400,
      "Ġadapt": 3401,
      "Ġrespond": 3402,
      "Ġadvant": 3403,
      "back": 3404,
      "Ġtable": 3405,
      "Ġjo": 3406,
      "ĠAmericans": 3407,
      "ĠAssoci": 3408,
      "ibrary": 3409,
      "Ġmiles": 3410,
      "resh": 3411,
      "Ġcold": 3412,
      "ĠServ": 3413,
      "iar": 3414,
      "ĠProg": 3415,
      "Ġbreat": 3416,
      "Ġbasis": 3417,
      "Ġroom": 3418,
      "equ": 3419,
      "Ġgame": 3420,
      "itect": 3421,
      "Ġremains": 3422,
      "ription": 3423,
      "ĠMc": 3424,
      "ellig": 3425,
      "Ġadj": 3426,
      "Ġdevices": 3427,
      "Ġfa": 3428,
      "itis": 3429,
      "ED": 3430,
      "Ġsaw": 3431,
      "aul": 3432,
      "Ġdied": 3433,
      "rim": 3434,
      "Ġreceive": 3435,
      "ĠEducation": 3436,
      "Ġcreating": 3437,
      "Ġeating": 3438,
      "uous": 3439,
      "Ġgradu": 3440,
      "Ġtherapy": 3441,
      "Ġadop": 3442,
      "bur": 3443,
      "sec": 3444,
      "sect": 3445,
      "head": 3446,
      "Ġrob": 3447,
      "ĠEngland": 3448,
      "atur": 3449,
      "Ġrain": 3450,
      "cember": 3451,
      "Ġhope": 3452,
      "uments": 3453,
      "Ġfriends": 3454,
      "can": 3455,
      "entially": 3456,
      "que": 3457,
      "Ġice": 3458,
      "Ġbul": 3459,
      "ondon": 3460,
      "Ġforces": 3461,
      "ogen": 3462,
      "Ġegg": 3463,
      "Ġautom": 3464,
      "Ġtests": 3465,
      "Ġder": 3466,
      "ira": 3467,
      "ixed": 3468,
      "These": 3469,
      "Ġbehavi": 3470,
      "Ġcou": 3471,
      "Ġcitiz": 3472,
      "Ġmid": 3473,
      "Ġfear": 3474,
      "IT": 3475,
      "oses": 3476,
      "Ġson": 3477,
      "eal": 3478,
      "ĠMexic": 3479,
      "Ġsites": 3480,
      "ĠDay": 3481,
      "Ġresponsible": 3482,
      "Ġmonitor": 3483,
      "Ġteacher": 3484,
      "Ġstage": 3485,
      "Ġspirit": 3486,
      "life": 3487,
      "mosp": 3488,
      "Ġconstruction": 3489,
      "Ġteeth": 3490,
      "Ġeverything": 3491,
      "ĠPresident": 3492,
      "estic": 3493,
      "Ġfollowed": 3494,
      "ĠWilliam": 3495,
      "ĠRet": 3496,
      "Ġfuel": 3497,
      "aught": 3498,
      "ĠWashington": 3499,
      "ĠChinese": 3500,
      "Ġcoast": 3501,
      "Ġcele": 3502,
      "Ġrecently": 3503,
      "Ġcode": 3504,
      "Ġwoman": 3505,
      "Ġpractices": 3506,
      "ĠGreat": 3507,
      "Ġapplications": 3508,
      "ford": 3509,
      "Ġreasons": 3510,
      "Ġsequ": 3511,
      ");": 3512,
      "Ġbeyond": 3513,
      "con": 3514,
      "Ġexpected": 3515,
      "ĠEven": 3516,
      "Ġproperty": 3517,
      "Ex": 3518,
      "ĠPark": 3519,
      "Ġpromot": 3520,
      "Ġoccurs": 3521,
      "Ġasked": 3522,
      "Ġcontroll": 3523,
      "ĠKe": 3524,
      "closed": 3525,
      "Ġtrade": 3526,
      "Ġstrength": 3527,
      "Ġequipment": 3528,
      "Ġblue": 3529,
      "EU": 3530,
      "AC": 3531,
      "Ġten": 3532,
      "rab": 3533,
      "Ġdepend": 3534,
      "Ġtesting": 3535,
      "Ġmiddle": 3536,
      "Ġinsp": 3537,
      "apter": 3538,
      "Ġswe": 3539,
      "Ġhon": 3540,
      "ocr": 3541,
      "mitted": 3542,
      "With": 3543,
      "orage": 3544,
      "ĠJanuary": 3545,
      "Ġorganization": 3546,
      "Ġimag": 3547,
      "ĠPol": 3548,
      "ought": 3549,
      "Ġconnect": 3550,
      "ica": 3551,
      "uff": 3552,
      "Ġaffected": 3553,
      "ĠGovern": 3554,
      "time": 3555,
      "Ġdate": 3556,
      "ĠFeb": 3557,
      "Ġscale": 3558,
      "Ġund": 3559,
      "Ġdevice": 3560,
      "ĠOctober": 3561,
      "irection": 3562,
      "Ġfederal": 3563,
      "Ġbenefit": 3564,
      "Ġdigital": 3565,
      "men": 3566,
      "itable": 3567,
      "Ġweather": 3568,
      "Ġopportunity": 3569,
      "ari": 3570,
      "Ġvisual": 3571,
      "dep": 3572,
      "Ġking": 3573,
      "Ġproviding": 3574,
      "Ġpan": 3575,
      "edia": 3576,
      "lin": 3577,
      "Ġgenetic": 3578,
      "strial": 3579,
      "Ġhous": 3580,
      "Ġchoose": 3581,
      "Ġanti": 3582,
      "oe": 3583,
      "Ġeveryone": 3584,
      "Ġpen": 3585,
      "Ġbott": 3586,
      "By": 3587,
      "Ġwon": 3588,
      "Ġyourself": 3589,
      "Ġapprox": 3590,
      "Ġexamples": 3591,
      "ĠPat": 3592,
      "rees": 3593,
      "Ġplanet": 3594,
      "cohol": 3595,
      "Ġbeg": 3596,
      "ĠTechn": 3597,
      "rick": 3598,
      "Ġnamed": 3599,
      "Ġrock": 3600,
      "Ġdestro": 3601,
      "iring": 3602,
      "Ġlocation": 3603,
      "Ġearlier": 3604,
      "airs": 3605,
      "ovember": 3606,
      "Ġconflic": 3607,
      "Ġconstant": 3608,
      "icate": 3609,
      "Ġconsequ": 3610,
      "Ġmodels": 3611,
      "Ġobjects": 3612,
      "While": 3613,
      "Ġalone": 3614,
      "Ġtit": 3615,
      "ĠIsrael": 3616,
      "iples": 3617,
      "Ġmember": 3618,
      "Ġcurrently": 3619,
      "Ġdegree": 3620,
      "ĠCong": 3621,
      "eech": 3622,
      "PAC": 3623,
      "Ġlegal": 3624,
      "reet": 3625,
      "ĠCommun": 3626,
      "Ġsett": 3627,
      "Ġperfect": 3628,
      "Ġstra": 3629,
      "ĠSeptember": 3630,
      "Ġsmaller": 3631,
      "Ġinstru": 3632,
      "Ġwrote": 3633,
      "aur": 3634,
      "Ġpick": 3635,
      "ribute": 3636,
      "ama": 3637,
      "iest": 3638,
      "Ġplaced": 3639,
      "Ġjoint": 3640,
      "su": 3641,
      "Ġcontinued": 3642,
      "Ġexposure": 3643,
      "Ġgoes": 3644,
      "ĠAccording": 3645,
      "Ġrecommend": 3646,
      "Ġcru": 3647,
      "Ġcompletely": 3648,
      "Ġneigh": 3649,
      "ĠSystem": 3650,
      "Ġinteresting": 3651,
      "Ġtrying": 3652,
      "ĠSur": 3653,
      "Ġshape": 3654,
      "anish": 3655,
      "ĠOur": 3656,
      "Ġgold": 3657,
      "Ġisn": 3658,
      "Ġillness": 3659,
      "ensity": 3660,
      "Ġbra": 3661,
      "ests": 3662,
      "Ġconstit": 3663,
      "Ġformer": 3664,
      "oday": 3665,
      "Ġeffort": 3666,
      "osen": 3667,
      "Ġallowed": 3668,
      "Ġvia": 3669,
      "Ġcommonly": 3670,
      "Ġmeasures": 3671,
      "aced": 3672,
      "ĠInc": 3673,
      "rief": 3674,
      "Ġmax": 3675,
      "Ġeconomy": 3676,
      "Ġpoly": 3677,
      "ĠLear": 3678,
      "Ġguid": 3679,
      "Ġprobability": 3680,
      "Ġcompar": 3681,
      "Ġleave": 3682,
      "Ġrule": 3683,
      "aters": 3684,
      "ĠThen": 3685,
      "vert": 3686,
      "Ġrise": 3687,
      "ĠRed": 3688,
      "emy": 3689,
      "ding": 3690,
      "Ġmoment": 3691,
      "ĠBlack": 3692,
      "Ġcollection": 3693,
      "ĠLondon": 3694,
      "Ġdiscovered": 3695,
      "Ġbelief": 3696,
      "bre": 3697,
      "ĠBi": 3698,
      "book": 3699,
      "Ġsuccessful": 3700,
      "Ġrules": 3701,
      "Ġdrugs": 3702,
      "more": 3703,
      "Ġstandards": 3704,
      "Ġcontext": 3705,
      "ĠLaw": 3706,
      "Ġmaintain": 3707,
      "ospital": 3708,
      "Ġhyp": 3709,
      "ingu": 3710,
      "Ġmig": 3711,
      "Ġcorn": 3712,
      "Ġchurch": 3713,
      "Ġapplied": 3714,
      "ĠTrans": 3715,
      "ĠDecember": 3716,
      "Ad": 3717,
      "Ġdeal": 3718,
      "Ġrich": 3719,
      "ĠDevelop": 3720,
      "enge": 3721,
      "Ġworth": 3722,
      "ĠSim": 3723,
      "ĠVal": 3724,
      "ĠSan": 3725,
      "lam": 3726,
      "aste": 3727,
      "pending": 3728,
      "Ġcateg": 3729,
      "Ġcoming": 3730,
      "Some": 3731,
      "lamm": 3732,
      "ĠHigh": 3733,
      "ĠEc": 3734,
      "Ġoverall": 3735,
      "Ġenter": 3736,
      "Ġreduced": 3737,
      "Ġmoving": 3738,
      "ibly": 3739,
      "Ġoccup": 3740,
      "ĠBr": 3741,
      "Ġprofessional": 3742,
      "Ġgir": 3743,
      "ĠIS": 3744,
      "enty": 3745,
      "ĠVir": 3746,
      "Ġenh": 3747,
      "iable": 3748,
      "Ġfair": 3749,
      "ading": 3750,
      "ruary": 3751,
      "Ġhistorical": 3752,
      "Ġgave": 3753,
      "Ġcourt": 3754,
      "odes": 3755,
      "Ġeight": 3756,
      "Ġbillion": 3757,
      "Ġdifferences": 3758,
      "Ġdidn": 3759,
      "Ġpowerful": 3760,
      "Ġbirds": 3761,
      "Ġcommerc": 3762,
      "Ġshowed": 3763,
      "Ġwond": 3764,
      "ĠInst": 3765,
      "Ġpet": 3766,
      "Ġpregn": 3767,
      "Ġlimit": 3768,
      "ĠDuring": 3769,
      "ĠCoun": 3770,
      "craft": 3771,
      "Ġvill": 3772,
      "osy": 3773,
      "ocol": 3774,
      "Ġformed": 3775,
      "Ġpresence": 3776,
      "Ġteach": 3777,
      "ternal": 3778,
      "ĠRoman": 3779,
      "Ġsteps": 3780,
      "Ġroad": 3781,
      "Ġpredict": 3782,
      "Ġsigns": 3783,
      "ĠWater": 3784,
      "Ġmajority": 3785,
      "Ġdisplay": 3786,
      "Ġacqu": 3787,
      "Ġcook": 3788,
      "ĠDis": 3789,
      "Ġden": 3790,
      "Ġtox": 3791,
      "Ġperhaps": 3792,
      "Ġelectr": 3793,
      "Ġcities": 3794,
      "Ġexec": 3795,
      "hemat": 3796,
      "Ġmachine": 3797,
      "off": 3798,
      "Ġtele": 3799,
      "Ġsugar": 3800,
      "Ġstatus": 3801,
      "Ġsymbol": 3802,
      "Ġuser": 3803,
      "Ġfile": 3804,
      "Ġpurch": 3805,
      "ĠCounty": 3806,
      "Ġtissue": 3807,
      "ĠSince": 3808,
      "aint": 3809,
      "AL": 3810,
      "Ġincor": 3811,
      "Ġatmosp": 3812,
      "ĠEast": 3813,
      "aled": 3814,
      "Ġpeace": 3815,
      "Ġantib": 3816,
      "ĠAlso": 3817,
      "ĠDNA": 3818,
      "known": 3819,
      "Ġdat": 3820,
      "wide": 3821,
      "Ġtrack": 3822,
      "Ġpow": 3823,
      "Ġstim": 3824,
      "Ġdistance": 3825,
      "Ġidentified": 3826,
      "ĠGeneral": 3827,
      "Ġnote": 3828,
      "Ġmis": 3829,
      "Ġmiss": 3830,
      "Ġfruit": 3831,
      "ĠCour": 3832,
      "Ġactions": 3833,
      "era": 3834,
      "orge": 3835,
      "Ġversion": 3836,
      "Ġmouth": 3837,
      "Ġstar": 3838,
      "Ġdirection": 3839,
      "Ġchanged": 3840,
      "ĠMod": 3841,
      "Ġdiabetes": 3842,
      "APAC": 3843,
      "Ġwrong": 3844,
      "Ġvirt": 3845,
      "Ġcapacity": 3846,
      "Ġnames": 3847,
      "gery": 3848,
      "Ġsect": 3849,
      "Ġtub": 3850,
      "ees": 3851,
      "II": 3852,
      "iful": 3853,
      "oration": 3854,
      "Ġnutri": 3855,
      "phas": 3856,
      "Ġfactor": 3857,
      "Ġrelatively": 3858,
      "Ġbreast": 3859,
      "son": 3860,
      "ero": 3861,
      "ocks": 3862,
      "Ġpiece": 3863,
      "ĠNow": 3864,
      "Ġpatterns": 3865,
      "ĠBecause": 3866,
      "Ġmob": 3867,
      "Ġassist": 3868,
      "Ġacad": 3869,
      "Ġsitu": 3870,
      "ament": 3871,
      "ĠRo": 3872,
      "Ġstories": 3873,
      "ĠCom": 3874,
      "ĠConf": 3875,
      "Pro": 3876,
      "Ġunit": 3877,
      "ĠAre": 3878,
      "Ġcry": 3879,
      "Ġremember": 3880,
      "resp": 3881,
      "Ġworked": 3882,
      "ĠNovember": 3883,
      "Ġcontract": 3884,
      "Ġfully": 3885,
      "Ġincreases": 3886,
      "âĢĿ,": 3887,
      "encies": 3888,
      "Ġappears": 3889,
      "Ġinstance": 3890,
      "Ġsch": 3891,
      "RE": 3892,
      "Ġmut": 3893,
      "Ġstrugg": 3894,
      "related": 3895,
      "ĠHouse": 3896,
      "cious": 3897,
      "Ġ+": 3898,
      "Ġefficient": 3899,
      "edom": 3900,
      "Ġball": 3901,
      "amb": 3902,
      "ĠJust": 3903,
      "Ġconstruct": 3904,
      "HE": 3905,
      "Ġast": 3906,
      "Ġfresh": 3907,
      "Ġpp": 3908,
      "Ġexperim": 3909,
      "Ġtask": 3910,
      "Ġillust": 3911,
      "Ġbalance": 3912,
      "Ġvo": 3913,
      "Ġdetect": 3914,
      "aign": 3915,
      "ĠUnion": 3916,
      "ĠProf": 3917,
      "Ġsurvey": 3918,
      "Ġchoice": 3919,
      "Ġproperties": 3920,
      "Ġbaby": 3921,
      "Ġfunctions": 3922,
      "Ġap": 3923,
      "aus": 3924,
      "Ġthousands": 3925,
      "ĠFl": 3926,
      "Ġweak": 3927,
      "rome": 3928,
      "Ġimmune": 3929,
      "atin": 3930,
      "Ġemp": 3931,
      "Ġconvers": 3932,
      "Ġfemale": 3933,
      "Ġgiving": 3934,
      "ky": 3935,
      "Ġinnov": 3936,
      "ĠSociety": 3937,
      "Ġeducational": 3938,
      "igen": 3939,
      "Ġsac": 3940,
      "Ġtransfer": 3941,
      "rest": 3942,
      "Ġtou": 3943,
      "iences": 3944,
      "Ġrunning": 3945,
      "Ġelement": 3946,
      "Ġassign": 3947,
      "inated": 3948,
      "icip": 3949,
      "Ġforward": 3950,
      "Ġwid": 3951,
      "Ġbelieved": 3952,
      "ophy": 3953,
      "Ġobserved": 3954,
      "Ġanx": 3955,
      "iny": 3956,
      "Ġoffice": 3957,
      "DA": 3958,
      "ste": 3959,
      "Ġarchitect": 3960,
      "Ġrat": 3961,
      "Ġphilos": 3962,
      "ald": 3963,
      "ĠPhil": 3964,
      "ĠArch": 3965,
      "Ġoffers": 3966,
      "iate": 3967,
      "rupt": 3968,
      "Ġevolution": 3969,
      "Ġregions": 3970,
      "Ġasse": 3971,
      "Ġspring": 3972,
      "ĠFin": 3973,
      "ĠPeople": 3974,
      "ĠProt": 3975,
      "rieved": 3976,
      "ĠLord": 3977,
      "All": 3978,
      "Ġcomponents": 3979,
      "ses": 3980,
      "Ġbound": 3981,
      "Ġgarden": 3982,
      "Ġmission": 3983,
      "Ġpicture": 3984,
      "Ġrepe": 3985,
      "Ġassum": 3986,
      "Ġmuscle": 3987,
      "house": 3988,
      "Ġexisting": 3989,
      "Ġfindings": 3990,
      "ĠAng": 3991,
      "parent": 3992,
      "ĠBudd": 3993,
      "iding": 3994,
      "met": 3995,
      "abilities": 3996,
      "Ġemail": 3997,
      "Ġinstruct": 3998,
      "Ġeffic": 3999,
      "rehens": 4000,
      "Ġfaith": 4001,
      "Ġexplain": 4002,
      "Ġgain": 4003,
      "Ġmap": 4004,
      "Ġvision": 4005,
      "Ġemissions": 4006,
      "Ġhour": 4007,
      "ĠEnvironment": 4008,
      "Ġfeature": 4009,
      "Un": 4010,
      "Ġexhib": 4011,
      "Ġreports": 4012,
      "Ġopportunities": 4013,
      "Ġalcohol": 4014,
      "Ġeventually": 4015,
      "Â°": 4016,
      "Ġexpand": 4017,
      "Ġchallenges": 4018,
      "Ġroot": 4019,
      "Ġforeign": 4020,
      "ĠFebruary": 4021,
      "ession": 4022,
      "Ġauth": 4023,
      "Ġextremely": 4024,
      "Ġwatch": 4025,
      "Ġboard": 4026,
      "Ġseparate": 4027,
      "Be": 4028,
      "pective": 4029,
      "Ġcarried": 4030,
      "Ġpassed": 4031,
      "Ġsuppl": 4032,
      "force": 4033,
      "Ġcra": 4034,
      "Ġdecades": 4035,
      "Ġhighest": 4036,
      "Ġhuge": 4037,
      "Ġdetails": 4038,
      "ĠMary": 4039,
      "ogle": 4040,
      "nes": 4041,
      "Ġnative": 4042,
      "ygen": 4043,
      "Ġaim": 4044,
      "ĠUse": 4045,
      "Ġstaff": 4046,
      "ken": 4047,
      "Ġresistance": 4048,
      "ĠAustralia": 4049,
      "Ġchance": 4050,
      "Ġdisorder": 4051,
      "ulum": 4052,
      "Ġequal": 4053,
      "Ġheavy": 4054,
      "Ġdivid": 4055,
      "pped": 4056,
      "Ġseven": 4057,
      "Ġabsor": 4058,
      "ĠThus": 4059,
      "Ġdefined": 4060,
      "Ġclinical": 4061,
      "ĠAssociation": 4062,
      "Ġplanning": 4063,
      "asion": 4064,
      "Ġfamous": 4065,
      "Ġfavor": 4066,
      "iant": 4067,
      "Ġoptions": 4068,
      "load": 4069,
      "Ġstyle": 4070,
      "Ġfriend": 4071,
      "Ġfert": 4072,
      "Ġcitizens": 4073,
      "ĠFrance": 4074,
      "ifically": 4075,
      "oma": 4076,
      "Ġing": 4077,
      "omas": 4078,
      "ĠJewish": 4079,
      "Ġdestroy": 4080,
      "Ġtruth": 4081,
      "Ġrot": 4082,
      "Ġriver": 4083,
      "Ġevalu": 4084,
      "Ġutil": 4085,
      "Ġguide": 4086,
      "ffee": 4087,
      "bed": 4088,
      "Ġgeneration": 4089,
      "Ġqual": 4090,
      "Ġsurpr": 4091,
      "iance": 4092,
      "Ġâ": 4093,
      "ĠEach": 4094,
      "Ġsuggests": 4095,
      "cast": 4096,
      "Ġiron": 4097,
      "ĠTheir": 4098,
      "ĠUK": 4099,
      "Ġsave": 4100,
      "ĠInternet": 4101,
      "ĠCur": 4102,
      "Is": 4103,
      "Ġspect": 4104,
      "ĠGermany": 4105,
      "ĠColle": 4106,
      "Ġstorage": 4107,
      "Ġign": 4108,
      "Ġintellig": 4109,
      "ographic": 4110,
      "Ġlearned": 4111,
      "After": 4112,
      "Ġexperiences": 4113,
      "Ġbone": 4114,
      "Ġstructures": 4115,
      "gypt": 4116,
      "Ġtreated": 4117,
      "Ġliqu": 4118,
      "ĠDon": 4119,
      "imens": 4120,
      "ĠGreen": 4121,
      "Ġconsumption": 4122,
      "Ġcelebr": 4123,
      "Ġspeech": 4124,
      "Ġcollabor": 4125,
      "Ġstrategies": 4126,
      "do": 4127,
      "Ġattract": 4128,
      "Ġprice": 4129,
      "ĠCongress": 4130,
      "ĠLet": 4131,
      "Ġplans": 4132,
      "Ġfigure": 4133,
      "Ġpresented": 4134,
      "ĠVol": 4135,
      "bal": 4136,
      "Ġsignificantly": 4137,
      "Ġapproximately": 4138,
      "Ġpul": 4139,
      "Ġjournal": 4140,
      "ĠJapanese": 4141,
      "Ġmoved": 4142,
      "Ġcommercial": 4143,
      "Ġnovel": 4144,
      "Ġimmediately": 4145,
      "wards": 4146,
      "ĠProgram": 4147,
      "uit": 4148,
      "Ġclassroom": 4149,
      "Ġgoals": 4150,
      "Ġtransl": 4151,
      "Ġphen": 4152,
      "Ġbank": 4153,
      "Ġcand": 4154,
      "ĠInter": 4155,
      "Ġmo": 4156,
      "Ġremove": 4157,
      "Ġapply": 4158,
      "They": 4159,
      "Ġeasier": 4160,
      "ĠMic": 4161,
      "Ġhappen": 4162,
      "tical": 4163,
      "Ġinsect": 4164,
      "Ġmer": 4165,
      "Ġresource": 4166,
      "che": 4167,
      "Ġrequirements": 4168,
      "ĠMat": 4169,
      "Ġsample": 4170,
      "Ġplastic": 4171,
      "ĠNA": 4172,
      "ĠPal": 4173,
      "Ġpresident": 4174,
      "ĠTur": 4175,
      "ĠWestern": 4176,
      "Ġurban": 4177,
      "Ġglass": 4178,
      "eding": 4179,
      "ĠAut": 4180,
      "Ġparty": 4181,
      "Ġintroduced": 4182,
      "Ġperformed": 4183,
      "Ġkilled": 4184,
      "Ġtechnologies": 4185,
      "Ġvary": 4186,
      "Ġspend": 4187,
      "Ġslight": 4188,
      "ching": 4189,
      "Ġorganizations": 4190,
      "Ġdrive": 4191,
      "Ġbecoming": 4192,
      "Ġves": 4193,
      "Ġhair": 4194,
      "Ġexcess": 4195,
      "ĠRepublic": 4196,
      "asks": 4197,
      "Ġconducted": 4198,
      "Ġsexual": 4199,
      "Ġmale": 4200,
      "Ġrecords": 4201,
      "Ġbodies": 4202,
      "Ġmilk": 4203,
      "ĠBra": 4204,
      "care": 4205,
      "Ġexplore": 4206,
      "roph": 4207,
      "Ġhom": 4208,
      "Ġtrust": 4209,
      "Ġserve": 4210,
      "iated": 4211,
      "Ġpopulations": 4212,
      "Ġrelease": 4213,
      "Ġletter": 4214,
      "Ġmal": 4215,
      "gra": 4216,
      "Ġitems": 4217,
      "uild": 4218,
      "zz": 4219,
      "eces": 4220,
      "Ġalg": 4221,
      "Ġstream": 4222,
      "Ġneu": 4223,
      "ulf": 4224,
      "ĠSam": 4225,
      "Ġdistribution": 4226,
      "ĠChe": 4227,
      "Ġlived": 4228,
      "Ġbed": 4229,
      "Ġconnected": 4230,
      "ĠNet": 4231,
      "Ġcontrast": 4232,
      "Ġindustrial": 4233,
      "Ġtemperatures": 4234,
      "weight": 4235,
      "ris": 4236,
      "ĠDec": 4237,
      "Ġesc": 4238,
      "Ġburn": 4239,
      "ĠDavid": 4240,
      "antic": 4241,
      "Ġreleased": 4242,
      "Ġdoub": 4243,
      "Ġfilm": 4244,
      "Ġgene": 4245,
      "ĠCouncil": 4246,
      "ĠMor": 4247,
      "Ġmedicine": 4248,
      "ĠST": 4249,
      "Ġdepression": 4250,
      "ĠPublic": 4251,
      "Ġterrit": 4252,
      "ologist": 4253,
      "Ġhear": 4254,
      "ĠJames": 4255,
      "EM": 4256,
      "ST": 4257,
      "Ġmag": 4258,
      "Ġfrequently": 4259,
      "Ġalternative": 4260,
      "Ġgets": 4261,
      "Ġelectricity": 4262,
      "apers": 4263,
      "Ġemphas": 4264,
      "Ġgraph": 4265,
      "Ġactual": 4266,
      "Ġreference": 4267,
      "ĠFound": 4268,
      "ĠSpec": 4269,
      "ructure": 4270,
      "change": 4271,
      "Ar": 4272,
      "ĠUN": 4273,
      "erate": 4274,
      "Ġsignal": 4275,
      "EC": 4276,
      "ĠSee": 4277,
      "ĠOver": 4278,
      "ares": 4279,
      "Ġreality": 4280,
      "enth": 4281,
      "ias": 4282,
      "ĠMich": 4283,
      "ĠHuman": 4284,
      "tered": 4285,
      "ynam": 4286,
      "Ġhomes": 4287,
      "works": 4288,
      "ache": 4289,
      "Ġnuclear": 4290,
      "porary": 4291,
      "Ġchallenge": 4292,
      "Ġfields": 4293,
      "Ġsetting": 4294,
      "Ġrelation": 4295,
      "yd": 4296,
      "Ġgames": 4297,
      "Sh": 4298,
      "Ġoutput": 4299,
      "Ġinternal": 4300,
      "unction": 4301,
      "Ġcycle": 4302,
      "Ġnutrition": 4303,
      "Ġradio": 4304,
      "ĠEgypt": 4305,
      "Ġinitial": 4306,
      "ously": 4307,
      "Ġrecommended": 4308,
      "Ġbattle": 4309,
      "raction": 4310,
      "Ġconnection": 4311,
      "Ġappe": 4312,
      "Ġdecisions": 4313,
      "Ġestimated": 4314,
      "Ġhousehold": 4315,
      "AM": 4316,
      "Ġdesp": 4317,
      "Ġcombination": 4318,
      "Ġthr": 4319,
      "ped": 4320,
      "Ġtopic": 4321,
      "olid": 4322,
      "Ġtrou": 4323,
      "Ġstore": 4324,
      "erved": 4325,
      "ĠRel": 4326,
      "depends": 4327,
      "ĠRev": 4328,
      "ĠRetrieved": 4329,
      "ii": 4330,
      "Ġanyone": 4331,
      "Ġmeeting": 4332,
      "Ġminor": 4333,
      "Ġkid": 4334,
      "Ġaspects": 4335,
      "hetic": 4336,
      "ET": 4337,
      "nic": 4338,
      "Ġ#": 4339,
      "Ġpartners": 4340,
      "Ġmessage": 4341,
      "Ġindependent": 4342,
      "Ġlegis": 4343,
      "mark": 4344,
      "Ġbottom": 4345,
      "Ġfig": 4346,
      "Ġnotes": 4347,
      "Ġwanted": 4348,
      "Ġwall": 4349,
      "Ġflood": 4350,
      "clus": 4351,
      "Ġdisp": 4352,
      "Ġexperiment": 4353,
      "Ġready": 4354,
      "Ġremoved": 4355,
      "Ġwidely": 4356,
      "Ġtechnique": 4357,
      "Ġbuy": 4358,
      "Ġradiation": 4359,
      "Ġcausing": 4360,
      "Ġcircum": 4361,
      "Ġdegrees": 4362,
      "given": 4363,
      "ologists": 4364,
      "Ġinput": 4365,
      "ognitive": 4366,
      "ĠCollege": 4367,
      "Ġreprodu": 4368,
      "Ġunivers": 4369,
      "Ġvot": 4370,
      "atically": 4371,
      "ios": 4372,
      "Ġsem": 4373,
      "Ġconv": 4374,
      "ĠFood": 4375,
      "Ġturned": 4376,
      "ĠCath": 4377,
      "ĠPlan": 4378,
      "key": 4379,
      "Ġinjury": 4380,
      "Ph": 4381,
      "ocal": 4382,
      "ĠGreek": 4383,
      "ager": 4384,
      "Ġcovered": 4385,
      "Ġmostly": 4386,
      "othes": 4387,
      "Ġdogs": 4388,
      "Ġtim": 4389,
      "Ġvessel": 4390,
      "Ġclearly": 4391,
      "Ġoxygen": 4392,
      "isation": 4393,
      "Ġtrib": 4394,
      "ĠMount": 4395,
      "Ġessay": 4396,
      "Ġviolence": 4397,
      "Ġprepar": 4398,
      "Ġarm": 4399,
      "Ġheard": 4400,
      "Ġsurgery": 4401,
      "Ġmetal": 4402,
      "ressive": 4403,
      "Ġmentioned": 4404,
      "char": 4405,
      "ĠWeb": 4406,
      "Ġunf": 4407,
      "stitution": 4408,
      "Ġdiscussion": 4409,
      "ya": 4410,
      "Ġprefer": 4411,
      "ĠDes": 4412,
      "ĠMuseum": 4413,
      "Ġmotor": 4414,
      "Ġdisorders": 4415,
      "Ġisol": 4416,
      "tee": 4417,
      "anging": 4418,
      "ander": 4419,
      "Ġdrop": 4420,
      "Ġcampaign": 4421,
      "Ġrace": 4422,
      "Ġcredit": 4423,
      "Ġhorm": 4424,
      "Ġnor": 4425,
      "icial": 4426,
      "Ġincorpor": 4427,
      "roup": 4428,
      "Ġnumerous": 4429,
      "anted": 4430,
      "Ġsolutions": 4431,
      "Ġdri": 4432,
      "Ġphase": 4433,
      "ĠChildren": 4434,
      "isher": 4435,
      "Ġsav": 4436,
      "ndrome": 4437,
      "osystem": 4438,
      "ss": 4439,
      "Ġresulting": 4440,
      "Ġcollege": 4441,
      "lim": 4442,
      "rans": 4443,
      "ception": 4444,
      "Ġopin": 4445,
      "cop": 4446,
      "riage": 4447,
      "ĠUnder": 4448,
      "ĠDem": 4449,
      "Ġbackground": 4450,
      "ĠTex": 4451,
      "ĠTherefore": 4452,
      "poses": 4453,
      "Ġexactly": 4454,
      "ĠSocial": 4455,
      "ĠGeorge": 4456,
      "Ġcharacteristics": 4457,
      "Ġwhom": 4458,
      "ĠDevelopment": 4459,
      "riculum": 4460,
      "Ġreplace": 4461,
      "Ġwin": 4462,
      "Ġreferred": 4463,
      "Ġstarting": 4464,
      "Ġdistinct": 4465,
      "Ġchanging": 4466,
      "ilit": 4467,
      "Ġchronic": 4468,
      "Ġphysic": 4469,
      "ĠHIV": 4470,
      "ĠPaul": 4471,
      "ij": 4472,
      "Ġreligion": 4473,
      "Ġclasses": 4474,
      "respond": 4475,
      "Ġmel": 4476,
      "Ġcounter": 4477,
      "Ġfinding": 4478,
      "Ġlayer": 4479,
      "Ġhelped": 4480,
      "Ġoperations": 4481,
      "ĠMexico": 4482,
      "Ġbuildings": 4483,
      "ĠPhys": 4484,
      "ĠWork": 4485,
      "Ã¡": 4486,
      "Ġtrend": 4487,
      "cular": 4488,
      "Ġnoted": 4489,
      "Ġcreation": 4490,
      "ĠWhy": 4491,
      "Ġinvolves": 4492,
      "aughter": 4493,
      "Ġpolicies": 4494,
      "olved": 4495,
      "ĠTest": 4496,
      "Ġunits": 4497,
      "Ġdivers": 4498,
      "Ġgod": 4499,
      "Ġadvanced": 4500,
      "with": 4501,
      "ida": 4502,
      "Ġinvolve": 4503,
      "Ġbeautiful": 4504,
      "umn": 4505,
      "Ġraised": 4506,
      "Ġliterature": 4507,
      "oyal": 4508,
      "atform": 4509,
      "Ġreducing": 4510,
      "Ġpi": 4511,
      "Ġocean": 4512,
      "According": 4513,
      "Ġhearing": 4514,
      "Ġauthors": 4515,
      "Ġadvantage": 4516,
      "Ġplease": 4517,
      "However": 4518,
      "ĠSpanish": 4519,
      "Ġfeeling": 4520,
      "ressed": 4521,
      "Ġvolume": 4522,
      "Ġunless": 4523,
      "Ġcalc": 4524,
      "Ġassessment": 4525,
      "erences": 4526,
      "Ġorganic": 4527,
      "Ġcore": 4528,
      "Ġvitamin": 4529,
      "RO": 4530,
      "Ġsand": 4531,
      "Con": 4532,
      "Ġmeat": 4533,
      "Ġnorthern": 4534,
      "Ġengineering": 4535,
      "rows": 4536,
      "ĠOff": 4537,
      "Ġgenes": 4538,
      "Ġrelationships": 4539,
      "Ġadjust": 4540,
      "Ġconfirm": 4541,
      "Ġannual": 4542,
      "ux": 4543,
      "essor": 4544,
      "orial": 4545,
      "board": 4546,
      "ago": 4547,
      "Ġexpression": 4548,
      "Ġdangerous": 4549,
      "Ġthick": 4550,
      "ĠCourt": 4551,
      "Ġded": 4552,
      "Ġexcell": 4553,
      "Ġkept": 4554,
      "Ġdie": 4555,
      "ĠSun": 4556,
      "Ġshap": 4557,
      "Ġpric": 4558,
      "amental": 4559,
      "ĠGovernment": 4560,
      "Ġreb": 4561,
      "Ġprocessing": 4562,
      "elines": 4563,
      "ĠIsland": 4564,
      "Ġexperienced": 4565,
      "Ġfailure": 4566,
      "Ġfine": 4567,
      "Ġanxiety": 4568,
      "ta": 4569,
      "ieties": 4570,
      "Ġserved": 4571,
      "Ġtour": 4572,
      "Ġtrig": 4573,
      "ortunately": 4574,
      "Ġupper": 4575,
      "vision": 4576,
      "Ġtherap": 4577,
      "Ġpreviously": 4578,
      "ĠProject": 4579,
      "ĠBro": 4580,
      "ĠWhite": 4581,
      "col": 4582,
      "Ġfarmers": 4583,
      "Ġinflamm": 4584,
      "Ġproperly": 4585,
      "Ġoption": 4586,
      "Ġ{": 4587,
      "Ġrisks": 4588,
      "Ġship": 4589,
      "Ġpal": 4590,
      "ĠAsia": 4591,
      "PS": 4592,
      "Ġdetermined": 4593,
      "rep": 4594,
      "ĠFore": 4595,
      "Ġdecided": 4596,
      "iverse": 4597,
      "Ġsaying": 4598,
      "ĠBur": 4599,
      "ĠHen": 4600,
      "Ġupd": 4601,
      "ĠRober": 4602,
      "Ġelimin": 4603,
      "Ġagg": 4604,
      "ĠSen": 4605,
      "CO": 4606,
      "Ġspot": 4607,
      "rete": 4608,
      "atric": 4609,
      "Ġmeant": 4610,
      "Ġarticles": 4611,
      "Ġdram": 4612,
      "ĠPort": 4613,
      "cers": 4614,
      "uing": 4615,
      "Ġgrass": 4616,
      "osa": 4617,
      "Ġmist": 4618,
      "Ġstatement": 4619,
      "Ġtransform": 4620,
      "ĠOnce": 4621,
      "ributed": 4622,
      "Ġencourage": 4623,
      "lick": 4624,
      "ĠGra": 4625,
      "Ġbrother": 4626,
      "uration": 4627,
      "aker": 4628,
      "Ġpret": 4629,
      "ĠAv": 4630,
      "Ġlanguages": 4631,
      "Here": 4632,
      "Res": 4633,
      "Ġdefinition": 4634,
      "uted": 4635,
      "ĠBel": 4636,
      "Ġinstall": 4637,
      "ishing": 4638,
      "ĠMars": 4639,
      "ping": 4640,
      "Ġpollution": 4641,
      "Ġisland": 4642,
      "Ġparticipants": 4643,
      "Ġdepending": 4644,
      "ĠAir": 4645,
      "Ġstation": 4646,
      "Ġtooth": 4647,
      "Ġinterested": 4648,
      "which": 4649,
      "Ġvegetables": 4650,
      "Ġmathemat": 4651,
      "berg": 4652,
      "Ġaffects": 4653,
      "ample": 4654,
      "Ġspent": 4655,
      "Ġclick": 4656,
      "Ġleads": 4657,
      "ĠOrgan": 4658,
      "Ġcere": 4659,
      "rum": 4660,
      "Ġconflict": 4661,
      "Ġinfluen": 4662,
      "anch": 4663,
      "ĠRich": 4664,
      "Sp": 4665,
      "Ġbelong": 4666,
      "Ġsouthern": 4667,
      "Ġseed": 4668,
      "och": 4669,
      "Ġcompleted": 4670,
      "Ġcomfort": 4671,
      "Ġprinciples": 4672,
      "lease": 4673,
      "Ġdatab": 4674,
      "Ġsort": 4675,
      "Ġacademic": 4676,
      "ship": 4677,
      "Ġinfections": 4678,
      "otal": 4679,
      "rant": 4680,
      "Ġround": 4681,
      "Ġexperts": 4682,
      "well": 4683,
      "rich": 4684,
      "Ġcomprehens": 4685,
      "Ġfinally": 4686,
      "ĠSub": 4687,
      "Ġscen": 4688,
      "Ġobvious": 4689,
      "Ġamounts": 4690,
      "Ġrelevant": 4691,
      "itors": 4692,
      "rog": 4693,
      "Ġlung": 4694,
      "Ġwealth": 4695,
      "ĠMr": 4696,
      "ifying": 4697,
      "ĠFranc": 4698,
      "Ġsynt": 4699,
      "New": 4700,
      "Ġlandsc": 4701,
      "Many": 4702,
      "Ġtum": 4703,
      "ĠOb": 4704,
      "Ġkill": 4705,
      "Ġfreedom": 4706,
      "Ġaid": 4707,
      "Ġinterpret": 4708,
      "Ġatmosphere": 4709,
      "Ġdescribe": 4710,
      "Ġbud": 4711,
      "ded": 4712,
      "Ġsong": 4713,
      "Ġappoint": 4714,
      "Ġemotional": 4715,
      "Ġpages": 4716,
      "wood": 4717,
      "ĠLa": 4718,
      "Ġprofession": 4719,
      "Ġreached": 4720,
      "Ġeffectively": 4721,
      "ĠCle": 4722,
      "urance": 4723,
      "Ġinh": 4724,
      "That": 4725,
      "mal": 4726,
      "Ġexposed": 4727,
      "Ġlinked": 4728,
      "Ġinstitutions": 4729,
      "ĠMark": 4730,
      "Ġhelping": 4731,
      "itz": 4732,
      "Ġpromote": 4733,
      "Ġseeds": 4734,
      "ĠAD": 4735,
      "ĠAcad": 4736,
      "Ġjour": 4737,
      "ĠIts": 4738,
      "ria": 4739,
      "Ġsquare": 4740,
      "Ġconcepts": 4741,
      "Ġofficial": 4742,
      "mat": 4743,
      "Ġconver": 4744,
      "Ġimproved": 4745,
      "Ġmuscles": 4746,
      "Ġprocedure": 4747,
      "Ġdiss": 4748,
      "Ġregarding": 4749,
      "Why": 4750,
      "tes": 4751,
      "astern": 4752,
      "Ġconcern": 4753,
      "Ġfrequency": 4754,
      "leg": 4755,
      "Ġsolid": 4756,
      "ĠBer": 4757,
      "ĠArmy": 4758,
      "Cl": 4759,
      "Ġconsult": 4760,
      "place": 4761,
      "Ġprepared": 4762,
      "Ġowners": 4763,
      "Ġcorrespond": 4764,
      "ĠTexas": 4765,
      "Ġoperation": 4766,
      "Ġcast": 4767,
      "vis": 4768,
      "Ġinvent": 4769,
      "Ġmanufacture": 4770,
      "ÃŃ": 4771,
      "Ġconcerns": 4772,
      "Ġtraffic": 4773,
      "ĠStudents": 4774,
      "Ġpip": 4775,
      "za": 4776,
      "Ġnav": 4777,
      "ĠMal": 4778,
      "standing": 4779,
      "ras": 4780,
      "Ġheight": 4781,
      "Our": 4782,
      "Ġbrief": 4783,
      "ĠSer": 4784,
      "ĠRem": 4785,
      "ĠInf": 4786,
      "onic": 4787,
      "Ġvolunt": 4788,
      "Now": 4789,
      "Ġpun": 4790,
      "Ġclos": 4791,
      "Ġcoal": 4792,
      "Ġreaction": 4793,
      "],": 4794,
      "Ġdefic": 4795,
      "ĠArab": 4796,
      "umin": 4797,
      "Ġcoffee": 4798,
      "ules": 4799,
      "Ġnotice": 4800,
      "Ġmanner": 4801,
      "acific": 4802,
      "Ġexpert": 4803,
      "comes": 4804,
      "Ġlic": 4805,
      "ĠIslam": 4806,
      "Ġwest": 4807,
      "Ġfol": 4808,
      "Ġmanage": 4809,
      "AD": 4810,
      "li": 4811,
      "rier": 4812,
      "rence": 4813,
      "Ġsalt": 4814,
      "uable": 4815,
      "ams": 4816,
      "Ġvul": 4817,
      "Ġmainly": 4818,
      "Ġmorning": 4819,
      "zing": 4820,
      "Ġformation": 4821,
      "ĠMedicine": 4822,
      "ĠDi": 4823,
      "Ġblog": 4824,
      "Ġoperating": 4825,
      "Ġsupported": 4826,
      "Ġseek": 4827,
      "Ġcharge": 4828,
      "ĠBen": 4829,
      "Ġfault": 4830,
      "Ġforced": 4831,
      "Ġsufficient": 4832,
      "Ġdiagnosis": 4833,
      "Ġlooks": 4834,
      "Ġeggs": 4835,
      "Ġidentity": 4836,
      "Ġconservation": 4837,
      "ategy": 4838,
      "oking": 4839,
      "Ġproposed": 4840,
      "Ġyouth": 4841,
      "Ġauthority": 4842,
      "akers": 4843,
      "ĠOld": 4844,
      "ĠJews": 4845,
      "Ġpieces": 4846,
      "des": 4847,
      "Ġcalls": 4848,
      "Although": 4849,
      "urt": 4850,
      "iling": 4851,
      "ĠMac": 4852,
      "Ġdiscover": 4853,
      "'ll": 4854,
      "ormal": 4855,
      "AP": 4856,
      "lig": 4857,
      "onomic": 4858,
      "ĠMet": 4859,
      "Ġoffered": 4860,
      "Ġremained": 4861,
      "Ġallowing": 4862,
      "Ġsustainable": 4863,
      "bi": 4864,
      "Ġwaters": 4865,
      "ĠVirgin": 4866,
      "roid": 4867,
      "ĠCivil": 4868,
      "Ġconclud": 4869,
      "Ġmath": 4870,
      "Ġshared": 4871,
      "ĠLou": 4872,
      "Ġ...": 4873,
      "Ġpurposes": 4874,
      "Ġfoss": 4875,
      "ensus": 4876,
      "Ġbegins": 4877,
      "Ġdrinking": 4878,
      "Ġwonder": 4879,
      "ĠIr": 4880,
      "Ġstrategy": 4881,
      "Ġstorm": 4882,
      "Ġindicate": 4883,
      "kin": 4884,
      "Ġlesson": 4885,
      "Ġcoord": 4886,
      "ĠBas": 4887,
      "Ġcontinues": 4888,
      "ĠEv": 4889,
      "ht": 4890,
      "ostic": 4891,
      "ĠPen": 4892,
      "Ġarmy": 4893,
      "Ġelectrical": 4894,
      "Ġgrade": 4895,
      "Im": 4896,
      "Ġtreatments": 4897,
      "ĠService": 4898,
      "ING": 4899,
      "Ġbright": 4900,
      "Ġplatform": 4901,
      "Ġrecorded": 4902,
      "Ġintended": 4903,
      "Ġeast": 4904,
      "ĠMil": 4905,
      "ĠJe": 4906,
      "Ġrenew": 4907,
      "alle": 4908,
      "Ġstraight": 4909,
      "Ġsecret": 4910,
      "Ġfocused": 4911,
      "Ġecosystem": 4912,
      "Ġtechnical": 4913,
      "Ġhop": 4914,
      "Ġefficiency": 4915,
      "Ġyellow": 4916,
      "Ġcris": 4917,
      "Ġdoll": 4918,
      "Ġlargely": 4919,
      "Ġwet": 4920,
      "Äģ": 4921,
      "iveness": 4922,
      "Ġliquid": 4923,
      "Ġcomment": 4924,
      "ĠHel": 4925,
      "Ġcareer": 4926,
      "eters": 4927,
      "Ġrural": 4928,
      "Ġcontribute": 4929,
      "gl": 4930,
      "Ġphenomen": 4931,
      "ounced": 4932,
      "Ġjobs": 4933,
      "Ġcertainly": 4934,
      "ey": 4935,
      "cript": 4936,
      "ĠEvery": 4937,
      "Ġban": 4938,
      "Ġprofessor": 4939,
      "Ġfort": 4940,
      "Ġgrand": 4941,
      "Ġfelt": 4942,
      "Ġexistence": 4943,
      "Ġhit": 4944,
      "ĠCentral": 4945,
      "ĠFre": 4946,
      "Ġmotiv": 4947,
      "Ġlov": 4948,
      "Ġshowing": 4949,
      "Ġpark": 4950,
      "Ġcombined": 4951,
      "Ġsubjects": 4952,
      "otic": 4953,
      "Ġchemicals": 4954,
      "omin": 4955,
      "clusion": 4956,
      "what": 4957,
      "ĠNews": 4958,
      "itness": 4959,
      "Ġtaught": 4960,
      "Ġhttps": 4961,
      "ball": 4962,
      "ishes": 4963,
      "Ġstem": 4964,
      "Ġflex": 4965,
      "Americ": 4966,
      "arrow": 4967,
      "tion": 4968,
      "Ġpractical": 4969,
      "Ġdynam": 4970,
      "ado": 4971,
      "Ġcollected": 4972,
      "Ġprimarily": 4973,
      "ĠLife": 4974,
      "Ġgender": 4975,
      "ĠMedical": 4976,
      "Ġvoice": 4977,
      "Ġhospital": 4978,
      "ĠCam": 4979,
      "Ġkeeping": 4980,
      "Ġstars": 4981,
      "inger": 4982,
      "nam": 4983,
      "Ġsituations": 4984,
      "ek": 4985,
      "OT": 4986,
      "eria": 4987,
      "Ġideal": 4988,
      "Ġemergency": 4989,
      "Ġtrial": 4990,
      "Ġfloor": 4991,
      "Ġtro": 4992,
      "ĠDist": 4993,
      "ĠJer": 4994,
      "Ġpray": 4995,
      "field": 4996,
      "osite": 4997,
      "Ġfacts": 4998,
      "igenous": 4999,
      "Ġspecifically": 5000,
      "CC": 5001,
      "ĠRead": 5002,
      "Ġdro": 5003,
      "ĠCommission": 5004,
      "?âĢĿ": 5005,
      "Ġperman": 5006,
      "Ġconsequences": 5007,
      "Ġtasks": 5008,
      "Ġmere": 5009,
      "Ġsurrounding": 5010,
      "Ġsche": 5011,
      "Ġpersons": 5012,
      "oo": 5013,
      "Ġkn": 5014,
      "ĠLatin": 5015,
      "ĠThomas": 5016,
      "No": 5017,
      "west": 5018,
      "that": 5019,
      "Ġreduction": 5020,
      "ĠMart": 5021,
      "Ġawareness": 5022,
      "ĠKore": 5023,
      "Ġcenturies": 5024,
      "Ġvaccine": 5025,
      "Ġmix": 5026,
      "Ġadvance": 5027,
      "EL": 5028,
      "From": 5029,
      "Ġrefers": 5030,
      "hi": 5031,
      "ĠNav": 5032,
      "Ab": 5033,
      "Ġimmig": 5034,
      "verty": 5035,
      "Ġsounds": 5036,
      "onds": 5037,
      "aturally": 5038,
      "inent": 5039,
      "ossible": 5040,
      "Ġparticles": 5041,
      "la": 5042,
      "Ġther": 5043,
      "Ġmort": 5044,
      "nel": 5045,
      "Ġdouble": 5046,
      "ĠFurther": 5047,
      "Ġkinds": 5048,
      "ĠNASA": 5049,
      "Ġpoverty": 5050,
      "Ġmotion": 5051,
      "going": 5052,
      "Ġwife": 5053,
      "Ġfaster": 5054,
      "gment": 5055,
      "enses": 5056,
      "espite": 5057,
      "RI": 5058,
      "Ġload": 5059,
      "ĠHol": 5060,
      "Ġtoxic": 5061,
      "lar": 5062,
      "roc": 5063,
      "BC": 5064,
      "Most": 5065,
      "Ġapparent": 5066,
      "ĠMass": 5067,
      "'ve": 5068,
      "Ġsettle": 5069,
      "Ġsusp": 5070,
      "Ġnutrients": 5071,
      "Ġexcellent": 5072,
      "Ġplayed": 5073,
      "Ġflowers": 5074,
      "ework": 5075,
      "Ġholds": 5076,
      "Ġpil": 5077,
      "ĠBoth": 5078,
      "Ġpolice": 5079,
      "Ġfamiliar": 5080,
      "ĠSal": 5081,
      "Ġshar": 5082,
      "Ġoccurred": 5083,
      "ĠBritain": 5084,
      "rastructure": 5085,
      "Ġnerv": 5086,
      "Ġmaximum": 5087,
      "Ġexternal": 5088,
      "Ġperspective": 5089,
      "Ġthoughts": 5090,
      "Ġinstruction": 5091,
      "ixt": 5092,
      "ĠâĢ¦": 5093,
      "Ġvast": 5094,
      "Ġmaster": 5095,
      "olute": 5096,
      "ĠDirect": 5097,
      "Ġofficials": 5098,
      "Ġsend": 5099,
      "eline": 5100,
      "unk": 5101,
      "down": 5102,
      "ĠLake": 5103,
      "ulating": 5104,
      "Ġotherwise": 5105,
      "ĠMiss": 5106,
      "ĠCatholic": 5107,
      "Ġexplained": 5108,
      "Ġfib": 5109,
      "iced": 5110,
      "Ġbird": 5111,
      "name": 5112,
      "Ġnations": 5113,
      "Ġcert": 5114,
      "ears": 5115,
      "ipped": 5116,
      "Ġpig": 5117,
      "Ġinterview": 5118,
      "].": 5119,
      "Ġonto": 5120,
      "Ġvital": 5121,
      "Ġiniti": 5122,
      "ville": 5123,
      "Ġgirls": 5124,
      "Ġstone": 5125,
      "othing": 5126,
      "Ġmeasured": 5127,
      "Ġletters": 5128,
      "Ġroll": 5129,
      "Ġextent": 5130,
      "Ġmoist": 5131,
      ".;": 5132,
      "oper": 5133,
      "Ġflat": 5134,
      "Ġneighbor": 5135,
      "ND": 5136,
      "Ġdomin": 5137,
      "acters": 5138,
      "Ġsnow": 5139,
      "Ġaren": 5140,
      "roke": 5141,
      "oughly": 5142,
      "ael": 5143,
      "celer": 5144,
      "ĠSou": 5145,
      "resents": 5146,
      "ĠSom": 5147,
      "Ġnit": 5148,
      "Ġdespite": 5149,
      "Ġlib": 5150,
      "Ġimpacts": 5151,
      "ĠSte": 5152,
      "rations": 5153,
      "Ġphone": 5154,
      "Ġdetailed": 5155,
      "Ġbill": 5156,
      "Ġdivided": 5157,
      "Ġexplains": 5158,
      "Ġplaying": 5159,
      "rates": 5160,
      "ĠClass": 5161,
      "ĠSpace": 5162,
      "ĠBible": 5163,
      "ĠJud": 5164,
      "ĠMont": 5165,
      "Ġkm": 5166,
      "Ġcrops": 5167,
      "ĠTechnology": 5168,
      "Ġresponsibility": 5169,
      "crib": 5170,
      "Ġhundreds": 5171,
      "ificial": 5172,
      "Ġcontrolled": 5173,
      "Ġbiological": 5174,
      "point": 5175,
      "Ġmonitoring": 5176,
      "Ġcurriculum": 5177,
      "ĠQue": 5178,
      "ompl": 5179,
      "Ġpros": 5180,
      "band": 5181,
      "Ġsector": 5182,
      "Ġleader": 5183,
      "umber": 5184,
      "Ġju": 5185,
      "Ġneut": 5186,
      "Ġcomponent": 5187,
      "ĠPacific": 5188,
      "istan": 5189,
      "anges": 5190,
      "onomy": 5191,
      "Ġlooked": 5192,
      "More": 5193,
      "alse": 5194,
      "oxide": 5195,
      "Ġhyper": 5196,
      "Ġrecognized": 5197,
      "ĠSecond": 5198,
      "Ġvehicle": 5199,
      "ĠFoundation": 5200,
      "Ġslightly": 5201,
      "ĠAtl": 5202,
      "ested": 5203,
      "OS": 5204,
      "ĠÃ": 5205,
      "Ġsyn": 5206,
      "anes": 5207,
      "yright": 5208,
      "Ġ*": 5209,
      "Ġbow": 5210,
      "Ġtrain": 5211,
      "Ġroots": 5212,
      "Ġresist": 5213,
      "ĠWomen": 5214,
      "Ġdepth": 5215,
      "Ġsatis": 5216,
      "Ġspiritual": 5217,
      "ĠDise": 5218,
      "ĠToday": 5219,
      "othe": 5220,
      "Ġrecy": 5221,
      "Ġsamples": 5222,
      "Ġtested": 5223,
      "atever": 5224,
      "Ġdisapp": 5225,
      "ION": 5226,
      "Ġmetab": 5227,
      "Ġhelpful": 5228,
      "Ġsen": 5229,
      "Ġpump": 5230,
      "ĠUsing": 5231,
      "ĠTwo": 5232,
      "pen": 5233,
      "Ġalt": 5234,
      "arts": 5235,
      "Ġcontaining": 5236,
      "Ġagricultural": 5237,
      "Ġchosen": 5238,
      "ĠDef": 5239,
      "Ġproteins": 5240,
      "Ġgun": 5241,
      "Ġfollows": 5242,
      "Ġproport": 5243,
      "Ġlinks": 5244,
      "Ġrail": 5245,
      "Ġoral": 5246,
      "Ġclim": 5247,
      "ĠOut": 5248,
      "Ġcrisis": 5249,
      "Ġhappened": 5250,
      "Ġincreasingly": 5251,
      "Ġaccurate": 5252,
      "itage": 5253,
      "Ġchann": 5254,
      "Ġgrown": 5255,
      "Ġspl": 5256,
      "Ġsyndrome": 5257,
      "olf": 5258,
      "ĠEnergy": 5259,
      "Ġinstrument": 5260,
      "Ġpropos": 5261,
      "aks": 5262,
      "Ġvulner": 5263,
      "inding": 5264,
      "Ġattacks": 5265,
      "Ġvisible": 5266,
      "Ġmoon": 5267,
      "ava": 5268,
      "Ġinterests": 5269,
      "ague": 5270,
      "Ġgovernments": 5271,
      "orith": 5272,
      "stood": 5273,
      "ĠHenry": 5274,
      "Ġreturned": 5275,
      "Ġconvent": 5276,
      "mp": 5277,
      "ena": 5278,
      "right": 5279,
      "zy": 5280,
      "Ġlik": 5281,
      "anguage": 5282,
      "omy": 5283,
      "Ġrepresents": 5284,
      "ĠGoogle": 5285,
      "Ġfundamental": 5286,
      "ĠBay": 5287,
      "Ġmedium": 5288,
      "eck": 5289,
      "Ġadvice": 5290,
      "Ġgreatest": 5291,
      "athy": 5292,
      "rian": 5293,
      "ĠRobert": 5294,
      "abil": 5295,
      "Ġindex": 5296,
      "ario": 5297,
      "Ġsuffering": 5298,
      "Pl": 5299,
      "Do": 5300,
      "Ġtopics": 5301,
      "ĠPost": 5302,
      "ĠLand": 5303,
      "Ġquar": 5304,
      "Ġinfected": 5305,
      "Ġkil": 5306,
      "Ġwestern": 5307,
      "Ġchief": 5308,
      "Ġfacilities": 5309,
      "uls": 5310,
      "ĠFam": 5311,
      "inf": 5312,
      "gal": 5313,
      "Ġimmun": 5314,
      "Ġfle": 5315,
      "Ġperiods": 5316,
      "Ġfif": 5317,
      "Ġdut": 5318,
      "ags": 5319,
      "ĠInformation": 5320,
      "MS": 5321,
      "Ġcognitive": 5322,
      "Ġharvest": 5323,
      "Ġsuggested": 5324,
      "Ġtypical": 5325,
      "Ġrevolution": 5326,
      "Ġcharacters": 5327,
      "Ġstudied": 5328,
      "ĠBook": 5329,
      "utive": 5330,
      "ails": 5331,
      "Ġprison": 5332,
      "Ġtried": 5333,
      "Ġelev": 5334,
      "burg": 5335,
      "ĠCD": 5336,
      "Ġvalid": 5337,
      "ĠNor": 5338,
      "cest": 5339,
      "ĠTreat": 5340,
      "Ġconcerned": 5341,
      "Ġthin": 5342,
      "ĠSmith": 5343,
      "Ġappeared": 5344,
      "Ġprices": 5345,
      "uke": 5346,
      "win": 5347,
      "Ġknew": 5348,
      "rolog": 5349,
      "Ġsubsequ": 5350,
      "olars": 5351,
      "ĠElect": 5352,
      "Ġlose": 5353,
      "ĠData": 5354,
      "Ġ<": 5355,
      "Ġrand": 5356,
      "Ġinvestment": 5357,
      "Another": 5358,
      "mic": 5359,
      "ĠSea": 5360,
      "Ġsin": 5361,
      "Ġconsists": 5362,
      "Ġsubstant": 5363,
      "Ġcrucial": 5364,
      "ĠRights": 5365,
      "Ġargument": 5366,
      "olester": 5367,
      "Ġobtained": 5368,
      "ĠCompany": 5369,
      "Ġdriving": 5370,
      "Ġtips": 5371,
      "Ġexplan": 5372,
      "olicy": 5373,
      "ĠStudies": 5374,
      "Ġpaint": 5375,
      "van": 5376,
      "Ġoutcomes": 5377,
      "Ġrandom": 5378,
      "Ġfirm": 5379,
      "asure": 5380,
      "Ġclosely": 5381,
      "Ġvaluable": 5382,
      "Ġviews": 5383,
      "Ġportion": 5384,
      "Ġwire": 5385,
      "Ġpotentially": 5386,
      "ĠJose": 5387,
      "Ġdial": 5388,
      "ancing": 5389,
      "ĠLearning": 5390,
      "Ġconcentration": 5391,
      "Ġwalls": 5392,
      "Ġexpensive": 5393,
      "Ġhaz": 5394,
      "Ġvent": 5395,
      "Ġhorse": 5396,
      "Ġcontinuous": 5397,
      "Ġcardi": 5398,
      "ato": 5399,
      "Ġinches": 5400,
      "ĠRussia": 5401,
      "ĠAnother": 5402,
      "Ġprotected": 5403,
      "Ġapproaches": 5404,
      "Ġdiscussed": 5405,
      "Ġaccompl": 5406,
      "Ġleaving": 5407,
      "Ġsmart": 5408,
      "oral": 5409,
      "Ġabuse": 5410,
      "alian": 5411,
      "rot": 5412,
      "Ġprinciple": 5413,
      "Ġdiam": 5414,
      "olesterol": 5415,
      "Ġdocuments": 5416,
      "Ġselected": 5417,
      "Ġsick": 5418,
      "Ġclaims": 5419,
      "Ġfruits": 5420,
      "Ġminimum": 5421,
      "Ġfiles": 5422,
      "Ġmovements": 5423,
      "Ġfeelings": 5424,
      "ĠFederal": 5425,
      "Ġjustice": 5426,
      "active": 5427,
      "Ġtitle": 5428,
      "Ġsides": 5429,
      "ĠMiddle": 5430,
      "Ġadding": 5431,
      "ĠInstead": 5432,
      "Ġregularly": 5433,
      "ingly": 5434,
      "Ġsoldiers": 5435,
      "stream": 5436,
      "HO": 5437,
      "Ġsatell": 5438,
      "oviet": 5439,
      "ĠWind": 5440,
      "Ġfertil": 5441,
      "ocratic": 5442,
      "ĠBuddh": 5443,
      "Ġinfrastructure": 5444,
      "Ġintelligence": 5445,
      "long": 5446,
      "Ġpaid": 5447,
      "icks": 5448,
      "Ġgoods": 5449,
      "Ġhabitat": 5450,
      "Ġstated": 5451,
      "ĠHam": 5452,
      "ĠMake": 5453,
      "Ġdomestic": 5454,
      "ĠKen": 5455,
      "âĢĻ.": 5456,
      "Ġstock": 5457,
      "Ġdecrease": 5458,
      "Ġbattery": 5459,
      "ĠMem": 5460,
      "Ġdiscovery": 5461,
      "Ġlatest": 5462,
      "rem": 5463,
      "Ã¼": 5464,
      "ascular": 5465,
      "Ġsubstance": 5466,
      "chers": 5467,
      "tenance": 5468,
      "ĠBC": 5469,
      "ĠUp": 5470,
      "Ġagriculture": 5471,
      "ĠPers": 5472,
      "Ġrecognize": 5473,
      "Ġbudget": 5474,
      "CT": 5475,
      "Ġrecon": 5476,
      "pat": 5477,
      "Ġages": 5478,
      "ka": 5479,
      "Ġparties": 5480,
      "iled": 5481,
      "Ġpregnancy": 5482,
      "ĠStand": 5483,
      "Ġshel": 5484,
      "Ġfluid": 5485,
      "ona": 5486,
      "ĠEnvironmental": 5487,
      "Ġcouple": 5488,
      "Ġfrag": 5489,
      "ĠFlor": 5490,
      "Ġraise": 5491,
      "ĠCharles": 5492,
      "Ġrapidly": 5493,
      "pping": 5494,
      "Ġpush": 5495,
      "road": 5496,
      "Ġhunt": 5497,
      "Ġsimpl": 5498,
      "ĠBat": 5499,
      "Ġresidents": 5500,
      "Ġconscious": 5501,
      "ĠRussian": 5502,
      "Ġcandid": 5503,
      "Ġformal": 5504,
      "Ġdirector": 5505,
      "Ġprocedures": 5506,
      "Ġwear": 5507,
      "venue": 5508,
      "ĠLouis": 5509,
      "De": 5510,
      "Ġchain": 5511,
      "ĠEngine": 5512,
      "ston": 5513,
      "Ġforests": 5514,
      "Ġadvoc": 5515,
      "Ġcircumst": 5516,
      "uses": 5517,
      "Ġprevention": 5518,
      "Ġod": 5519,
      "Ġaccomp": 5520,
      "Ġmillions": 5521,
      "ĠAlex": 5522,
      "Ġnaturally": 5523,
      "Ġclosed": 5524,
      "Ġextract": 5525,
      "My": 5526,
      "ĠLike": 5527,
      "ĠSupp": 5528,
      "During": 5529,
      "Ġunlike": 5530,
      "Ġsuffer": 5531,
      "agers": 5532,
      "Ġmedications": 5533,
      "Ġdeliver": 5534,
      "Ġrein": 5535,
      "fl": 5536,
      "ĠSuch": 5537,
      "Ġmarriage": 5538,
      "Ind": 5539,
      "ĠNature": 5540,
      "Ġsteel": 5541,
      "Ġdu": 5542,
      "Ġdistingu": 5543,
      "ĠÎ": 5544,
      "Ġcapable": 5545,
      "Ġcomputers": 5546,
      "Ġappearance": 5547,
      "Ġcontem": 5548,
      "Ġlessons": 5549,
      "Ġmountain": 5550,
      "ĠDel": 5551,
      "ĊĠ": 5552,
      "organ": 5553,
      "Ġgar": 5554,
      "ny": 5555,
      "Ġtun": 5556,
      "Ġstret": 5557,
      "Ġband": 5558,
      "Ġdeaths": 5559,
      "ĠDiv": 5560,
      "ĠCarol": 5561,
      "ĠVirginia": 5562,
      "Ġsweet": 5563,
      "Ġaw": 5564,
      "Ġalgorith": 5565,
      "LE": 5566,
      "Ġstored": 5567,
      "Ġinflammation": 5568,
      "Ġsed": 5569,
      "Ġfacilit": 5570,
      "Ġopened": 5571,
      "Ġformat": 5572,
      "war": 5573,
      "Ġ},": 5574,
      "Ġsets": 5575,
      "born": 5576,
      "Ġentirely": 5577,
      "Ġtalking": 5578,
      "ĠRef": 5579,
      "TS": 5580,
      "lers": 5581,
      "ada": 5582,
      "Ġpure": 5583,
      "Ġvillage": 5584,
      "Ġuniverse": 5585,
      "bing": 5586,
      "Ġmassive": 5587,
      "dden": 5588,
      "Ġapart": 5589,
      "idden": 5590,
      "rid": 5591,
      "Ġspeaking": 5592,
      "ellect": 5593,
      "Ġpictures": 5594,
      "ooth": 5595,
      "Ġcolors": 5596,
      "ĠConstitution": 5597,
      "ĠColumb": 5598,
      "icit": 5599,
      "Ġstages": 5600,
      "ĠPeter": 5601,
      "ĠWell": 5602,
      "Ġcultiv": 5603,
      "Ġrestrict": 5604,
      "Gen": 5605,
      "ditionally": 5606,
      "Ġbehaviour": 5607,
      "Ġmyth": 5608,
      "ĠTHE": 5609,
      "Ġinterf": 5610,
      "Ġsan": 5611,
      "Ġdigest": 5612,
      "Ġdiversity": 5613,
      ".|": 5614,
      "flow": 5615,
      "Ġgenerate": 5616,
      "liam": 5617,
      "ola": 5618,
      "ĠSoviet": 5619,
      "vironments": 5620,
      "free": 5621,
      "Ġimproving": 5622,
      "Ġpretty": 5623,
      "Ġprecise": 5624,
      "aser": 5625,
      "ett": 5626,
      "ĠPower": 5627,
      "atal": 5628,
      "Ġhappy": 5629,
      "ĠAp": 5630,
      "Ġaged": 5631,
      "ĠMo": 5632,
      "ĠHistor": 5633,
      "ĠWild": 5634,
      "Ġdust": 5635,
      "Ġpossibly": 5636,
      "Ġmoral": 5637,
      "ĠSl": 5638,
      "Ġsignals": 5639,
      "Ġaccepted": 5640,
      "ĠEmp": 5641,
      "Ġdefault": 5642,
      "Ġsurvival": 5643,
      "Ġwel": 5644,
      "Ġancest": 5645,
      "urd": 5646,
      "ulin": 5647,
      "Ġ{\"": 5648,
      "Ġintroduction": 5649,
      "Ġsell": 5650,
      "ait": 5651,
      "Ġsports": 5652,
      "Ġconsid": 5653,
      "state": 5654,
      "ĠSum": 5655,
      "Ġemployees": 5656,
      "mas": 5657,
      "Ġnarrow": 5658,
      "Ġweap": 5659,
      "Ġextensive": 5660,
      "indu": 5661,
      "Ġdental": 5662,
      "ĠTor": 5663,
      "Ġleaf": 5664,
      "Ġmobile": 5665,
      "CS": 5666,
      "Ġoriginally": 5667,
      "Ġliver": 5668,
      "racy": 5669,
      "ĠSaf": 5670,
      "Ġedge": 5671,
      "Ġtrad": 5672,
      "Ġsecure": 5673,
      "Ġvolt": 5674,
      "Ġenhance": 5675,
      "DF": 5676,
      "obe": 5677,
      "spec": 5678,
      "\"}": 5679,
      "Ġproducing": 5680,
      "Other": 5681,
      "Ġbrown": 5682,
      "ĠOx": 5683,
      "Ġplate": 5684,
      "Ġnarr": 5685,
      "Ġchapter": 5686,
      "Ġleadership": 5687,
      "Ġengage": 5688,
      "Ġingred": 5689,
      "ua": 5690,
      "Ġbusinesses": 5691,
      "Ġprepare": 5692,
      "Ġsudden": 5693,
      "ĠLibrary": 5694,
      "last": 5695,
      "struct": 5696,
      "Ġmamm": 5697,
      "apping": 5698,
      "Ġantibiot": 5699,
      "ota": 5700,
      "Ġacceler": 5701,
      "Ġreform": 5702,
      "Ġsensitive": 5703,
      "Ġlifest": 5704,
      "Ġnurs": 5705,
      "ĠDisc": 5706,
      "Ġrevealed": 5707,
      "Ġbones": 5708,
      "omach": 5709,
      "ĠAny": 5710,
      "Ġadequ": 5711,
      "ypes": 5712,
      "Te": 5713,
      "ĠTer": 5714,
      "Ġethnic": 5715,
      "Ġunderstood": 5716,
      "Ġimpossible": 5717,
      "Ġfunding": 5718,
      "Ġacts": 5719,
      "Ġnormally": 5720,
      "Ġindeed": 5721,
      "Us": 5722,
      "See": 5723,
      "ĠPsych": 5724,
      "Ġarms": 5725,
      "Ġgather": 5726,
      "cling": 5727,
      "Ġinternet": 5728,
      "Ġassemb": 5729,
      "Ġexchange": 5730,
      "Ġboost": 5731,
      "UR": 5732,
      "esity": 5733,
      "Ġapprec": 5734,
      "ĠOF": 5735,
      "Ġdecline": 5736,
      "Ġbroken": 5737,
      "Ġcourses": 5738,
      "ĠGroup": 5739,
      "Sc": 5740,
      "ini": 5741,
      "ĠBet": 5742,
      "anged": 5743,
      "Ġtow": 5744,
      "Ġflav": 5745,
      "Ġdescribes": 5746,
      "Ġmuseum": 5747,
      "Ġlands": 5748,
      "Ġgrav": 5749,
      "Dr": 5750,
      "Ġmit": 5751,
      "Ġwindow": 5752,
      "Ġobtain": 5753,
      "Ġdoor": 5754,
      "Ġfell": 5755,
      "Ġyield": 5756,
      "inet": 5757,
      "rics": 5758,
      "Ġroutine": 5759,
      "Re": 5760,
      "Ġcars": 5761,
      "Ġnetworks": 5762,
      "Ġvehicles": 5763,
      "ĠLabor": 5764,
      "ĠMicro": 5765,
      "Ġdiverse": 5766,
      "ĠScient": 5767,
      "Ġassistance": 5768,
      "Ġcorpor": 5769,
      "Ġabsolute": 5770,
      "Ġlibrary": 5771,
      "Ġamb": 5772,
      "Ġremaining": 5773,
      "cules": 5774,
      "Ġlatter": 5775,
      "liament": 5776,
      "ifies": 5777,
      "erals": 5778,
      "hips": 5779,
      "ĠManagement": 5780,
      "ront": 5781,
      "ĠAI": 5782,
      "inations": 5783,
      "ibilities": 5784,
      "Ġrecovery": 5785,
      "Ġincl": 5786,
      "Ġpossess": 5787,
      "Ġexperiments": 5788,
      "teries": 5789,
      "ĠMad": 5790,
      "Ġdistrict": 5791,
      "Ġcreates": 5792,
      "Ġdatabase": 5793,
      "Ġnan": 5794,
      "Ġsuc": 5795,
      "Ġfill": 5796,
      "Ġallerg": 5797,
      "Ġtouch": 5798,
      "ĠChic": 5799,
      "ctive": 5800,
      "Cont": 5801,
      "Ġworse": 5802,
      "Ġcloud": 5803,
      "Ġpref": 5804,
      "Ġtells": 5805,
      "pass": 5806,
      "Ġpossibility": 5807,
      "Ġpoet": 5808,
      "Ġslowly": 5809,
      "ĠKnow": 5810,
      "Ġ>": 5811,
      "being": 5812,
      "Ġreaders": 5813,
      "oto": 5814,
      "agues": 5815,
      "Ġcolour": 5816,
      "Ġswitch": 5817,
      "Ġtank": 5818,
      "ĠControl": 5819,
      "pan": 5820,
      "Ġcholesterol": 5821,
      "normal": 5822,
      "Ġabund": 5823,
      "alysis": 5824,
      "eless": 5825,
      "ĠGood": 5826,
      "olve": 5827,
      "osph": 5828,
      "Ġcopy": 5829,
      "rants": 5830,
      "Ġcrow": 5831,
      "Ġseeing": 5832,
      "Ġafford": 5833,
      "ĠOffice": 5834,
      "Ġstarts": 5835,
      "va": 5836,
      "Ġaf": 5837,
      "Ġphr": 5838,
      "BN": 5839,
      "Ġcreative": 5840,
      "ĠBre": 5841,
      "Ġfilled": 5842,
      "Ġtroops": 5843,
      "orter": 5844,
      "Ġintervention": 5845,
      "Ġadopted": 5846,
      "ĠNations": 5847,
      "ĠReview": 5848,
      "Go": 5849,
      "Ġlisted": 5850,
      "Ġoptim": 5851,
      "Ġgal": 5852,
      "Ġflight": 5853,
      "Ġtransmission": 5854,
      "Ġadministration": 5855,
      "Ġchildhood": 5856,
      "ĠThose": 5857,
      "Ġachieved": 5858,
      "ĠStreet": 5859,
      "Ġfab": 5860,
      "Ġgall": 5861,
      "ĠProv": 5862,
      "Ġveter": 5863,
      "hemical": 5864,
      "ĠParis": 5865,
      "asp": 5866,
      "Ġrecip": 5867,
      "Ġsurf": 5868,
      "Ġfigures": 5869,
      "Ġble": 5870,
      "ĠProfessor": 5871,
      "phone": 5872,
      "Ġera": 5873,
      "Ġharmful": 5874,
      "Ġlandscape": 5875,
      "Ġdaughter": 5876,
      "Ġopinion": 5877,
      "Ġselection": 5878,
      "Ġgenerated": 5879,
      "Ġmechanism": 5880,
      "Ġhardware": 5881,
      "Ġrepresented": 5882,
      "Ġcatch": 5883,
      "ĠCare": 5884,
      "Ġdepos": 5885,
      "ĠAtt": 5886,
      "hop": 5887,
      "iology": 5888,
      "throp": 5889,
      "ropical": 5890,
      "Ġrequirement": 5891,
      "inction": 5892,
      "Ġtoler": 5893,
      "ĠNative": 5894,
      "Ġenvironments": 5895,
      "ivalent": 5896,
      "Ġdoubt": 5897,
      "lements": 5898,
      "Ġsequence": 5899,
      "Ġreject": 5900,
      "Ġorganized": 5901,
      "Ġunknown": 5902,
      "htm": 5903,
      "Ġwants": 5904,
      "Ġtruly": 5905,
      "uilding": 5906,
      "AA": 5907,
      "Ġplays": 5908,
      "ceived": 5909,
      "Ġrub": 5910,
      "Ġlabel": 5911,
      "Ġwww": 5912,
      "Ġrepeated": 5913,
      "erent": 5914,
      "Ġshell": 5915,
      "Ġsecondary": 5916,
      "gent": 5917,
      "Ġmanufacturing": 5918,
      "Ġexpressed": 5919,
      "Ġpull": 5920,
      "Ġhouses": 5921,
      "zen": 5922,
      "Ġsales": 5923,
      "ĠMa": 5924,
      "from": 5925,
      "Ġcalcium": 5926,
      "Ġinjuries": 5927,
      "Ġax": 5928,
      "Ġelectronic": 5929,
      "Ġsurvive": 5930,
      "Ġcomprehensive": 5931,
      "but": 5932,
      "ester": 5933,
      "Ġgreatly": 5934,
      "ĠAbout": 5935,
      "Se": 5936,
      "under": 5937,
      "reland": 5938,
      "Ġtwice": 5939,
      "Ġsentence": 5940,
      "Ġresolution": 5941,
      "Ġaircraft": 5942,
      "Ġmanaged": 5943,
      "oted": 5944,
      "abits": 5945,
      "Ġremote": 5946,
      "Ġworldwide": 5947,
      "Ġprotocol": 5948,
      "BS": 5949,
      "ĠAnn": 5950,
      "Ġdream": 5951,
      "Ġclust": 5952,
      "Ġdecide": 5953,
      "ums": 5954,
      "Ġtal": 5955,
      "Ġopening": 5956,
      "Ġbeneficial": 5957,
      "ĠFrank": 5958,
      "Ġconcrete": 5959,
      "Ġfailed": 5960,
      "Ġagencies": 5961,
      "Ġminim": 5962,
      "ĠSouthern": 5963,
      "ĠTem": 5964,
      "utch": 5965,
      "ĠCult": 5966,
      "Ġextended": 5967,
      "Ġarrived": 5968,
      "IL": 5969,
      "ki": 5970,
      "Ġsupplement": 5971,
      "ye": 5972,
      "Ġparam": 5973,
      "Ġregional": 5974,
      "exp": 5975,
      "Ġhero": 5976,
      "ĠCommon": 5977,
      "Ġproduces": 5978,
      "Ġdensity": 5979,
      "Stud": 5980,
      "Ġaudience": 5981,
      "asive": 5982,
      "Ġstick": 5983,
      "mary": 5984,
      "Ġfixed": 5985,
      "iform": 5986,
      "Ã³": 5987,
      "ĠRad": 5988,
      "ĠId": 5989,
      "Ġprem": 5990,
      "Ġnoise": 5991,
      "ĠVict": 5992,
      "Ġconsistent": 5993,
      "Ġanswers": 5994,
      "Ġreplaced": 5995,
      "Ġsuitable": 5996,
      "Ġfoundation": 5997,
      "ĠCanadian": 5998,
      "ĠUSA": 5999,
      "icians": 6000,
      "Ġframework": 6001,
      "Ġtiny": 6002,
      "Ġwitness": 6003,
      "Ġcircuit": 6004,
      "Ġguidelines": 6005,
      "Ġprofessionals": 6006,
      "Ġaccounts": 6007,
      "Ġheating": 6008,
      "ĠYet": 6009,
      "orrow": 6010,
      "Ġvote": 6011,
      "ĠPub": 6012,
      "ĠOnly": 6013,
      "Ġintake": 6014,
      "Ġauthorities": 6015,
      "Ġjourney": 6016,
      "Ġagreement": 6017,
      "Ġstruggle": 6018,
      "Ġdecade": 6019,
      "inking": 6020,
      "Ġlocations": 6021,
      "ĠKh": 6022,
      "Ġdoctors": 6023,
      "itudes": 6024,
      "Ġopposite": 6025,
      "Ġlots": 6026,
      "ĠGold": 6027,
      "Ġsolve": 6028,
      "ctic": 6029,
      "ĠDan": 6030,
      "ĠIP": 6031,
      "Ġimper": 6032,
      "Ġthousand": 6033,
      "Ġwalking": 6034,
      "reed": 6035,
      "ĠThrough": 6036,
      "contains": 6037,
      "inder": 6038,
      "Ġtail": 6039,
      "quar": 6040,
      "bour": 6041,
      "body": 6042,
      "wo": 6043,
      "Ġtransition": 6044,
      "ĠCommit": 6045,
      "Ġfilter": 6046,
      "itan": 6047,
      "Ġsuccessfully": 6048,
      "Ġcircumstances": 6049,
      "Ġfalse": 6050,
      "imer": 6051,
      "ogue": 6052,
      "Ġstudying": 6053,
      "ĠBul": 6054,
      "ĠFe": 6055,
      "Ġmaintenance": 6056,
      "Ġmarked": 6057,
      "rors": 6058,
      "________": 6059,
      "uh": 6060,
      "Ġlisten": 6061,
      "Ġlaunch": 6062,
      "Ġcomparison": 6063,
      "ĠExpl": 6064,
      "Not": 6065,
      "Ġsight": 6066,
      "Ġwaves": 6067,
      "ĠRome": 6068,
      "tra": 6069,
      "Ġelectron": 6070,
      "Ġcrime": 6071,
      "ĠJoseph": 6072,
      "Ġdiscipl": 6073,
      "ĠEth": 6074,
      "eper": 6075,
      "eer": 6076,
      "Ġenable": 6077,
      "Ġgone": 6078,
      "Ġthor": 6079,
      "ansion": 6080,
      "Ġmarine": 6081,
      "----": 6082,
      "Ġwildlife": 6083,
      "ĠNorthern": 6084,
      "Ġroof": 6085,
      "Ġvessels": 6086,
      "Can": 6087,
      "Ġdifficulty": 6088,
      "IG": 6089,
      "Ġsharing": 6090,
      "Ġderived": 6091,
      "luding": 6092,
      "rigation": 6093,
      "pet": 6094,
      "ĠLab": 6095,
      "Ġcart": 6096,
      "Ġcompr": 6097,
      "Ġmolecules": 6098,
      "aud": 6099,
      "Ġwish": 6100,
      "kins": 6101,
      "Ġskill": 6102,
      "add": 6103,
      "Ġhealthcare": 6104,
      "look": 6105,
      "ĠFlorida": 6106,
      "Ġunp": 6107,
      "prior": 6108,
      "Ġstomach": 6109,
      "fall": 6110,
      "ĠLeg": 6111,
      "Ġinstitution": 6112,
      "Ġtraum": 6113,
      "Ġindicates": 6114,
      "Ġmarried": 6115,
      "Ġnecessarily": 6116,
      "gu": 6117,
      "ĠReport": 6118,
      "orses": 6119,
      "Ġwarming": 6120,
      "anta": 6121,
      "Ġscholars": 6122,
      "ĠIreland": 6123,
      "ifications": 6124,
      "Ġpermanent": 6125,
      "Ġcamera": 6126,
      "Ġerror": 6127,
      "Ġlaun": 6128,
      "Ġimplementation": 6129,
      "kes": 6130,
      "Ġcomposition": 6131,
      "Ġsky": 6132,
      "ipping": 6133,
      "Ġcloser": 6134,
      "Ġaer": 6135,
      "Ġlaboratory": 6136,
      "ĠRoyal": 6137,
      "Ġintellect": 6138,
      ".âĢĻ": 6139,
      "Since": 6140,
      "izer": 6141,
      "arant": 6142,
      "Ġfly": 6143,
      "Ġconventional": 6144,
      "Ġbear": 6145,
      "Ġcultures": 6146,
      "Ġwave": 6147,
      "Ġhus": 6148,
      "ĠCancer": 6149,
      "def": 6150,
      "Ġchoices": 6151,
      "ĠLong": 6152,
      "âĢĻ,": 6153,
      "ĠHome": 6154,
      "Ġattend": 6155,
      "Ġterritory": 6156,
      "American": 6157,
      "iration": 6158,
      "Ġacknow": 6159,
      "Read": 6160,
      "Ġneck": 6161,
      "Ġaccum": 6162,
      "ediatric": 6163,
      "rine": 6164,
      "Ġserver": 6165,
      "Ġdesire": 6166,
      "Ġinject": 6167,
      "ĠScott": 6168,
      "Ġfewer": 6169,
      "draw": 6170,
      "CR": 6171,
      "lets": 6172,
      "Ġcomments": 6173,
      "Ġfossil": 6174,
      "ĠHall": 6175,
      "Ġthy": 6176,
      "Ġcarefully": 6177,
      "Ġinteraction": 6178,
      "ĠAustralian": 6179,
      "level": 6180,
      "ĠJohns": 6181,
      "Ġourselves": 6182,
      "Let": 6183,
      "Ġinner": 6184,
      "ashion": 6185,
      "Ġdestroyed": 6186,
      "heast": 6187,
      "Ġmedication": 6188,
      "Ġrhy": 6189,
      "Ġdedicated": 6190,
      "Ġremark": 6191,
      "acing": 6192,
      "aph": 6193,
      "hma": 6194,
      "ĠIll": 6195,
      "Ġfasc": 6196,
      "Ġinsects": 6197,
      "cher": 6198,
      "riers": 6199,
      "Ġprincip": 6200,
      "Ġnine": 6201,
      "Ġtrials": 6202,
      "ĠStudy": 6203,
      "ĠGlobal": 6204,
      "Ġshift": 6205,
      "Ġcommunicate": 6206,
      "Ġrepair": 6207,
      "Ġfighting": 6208,
      "ivery": 6209,
      "wing": 6210,
      "Ġnewsp": 6211,
      "Ġbreathing": 6212,
      "agon": 6213,
      "Ġvolcan": 6214,
      "Ġuns": 6215,
      "ĠDisease": 6216,
      "Ġrelax": 6217,
      "Ġwriter": 6218,
      "stone": 6219,
      "Ġunable": 6220,
      "ictionary": 6221,
      "Ġraw": 6222,
      "Ġeastern": 6223,
      "Ġyounger": 6224,
      "antly": 6225,
      "Ġmulti": 6226,
      "Ġdent": 6227,
      "ĠSol": 6228,
      "Ġdioxide": 6229,
      "EP": 6230,
      "riting": 6231,
      "Ġhighlight": 6232,
      "Ġgrew": 6233,
      "Ġsupplies": 6234,
      "isters": 6235,
      "ĠValley": 6236,
      "icide": 6237,
      "Ġdin": 6238,
      "....": 6239,
      "ca": 6240,
      "Ġratio": 6241,
      "Ġmac": 6242,
      "ĠAdd": 6243,
      "Ġsucceed": 6244,
      "Ġcos": 6245,
      "itative": 6246,
      "yles": 6247,
      "ĠBank": 6248,
      "Ġcritic": 6249,
      "zil": 6250,
      "Ġdescription": 6251,
      "En": 6252,
      "uzz": 6253,
      "Ġultimately": 6254,
      "rd": 6255,
      "Ġcm": 6256,
      "igned": 6257,
      "Ġfiber": 6258,
      "ctor": 6259,
      "blue": 6260,
      "ĠForm": 6261,
      "Ġfounded": 6262,
      "Ġlifestyle": 6263,
      "ĠMag": 6264,
      "gans": 6265,
      "Ġchrom": 6266,
      "Ġdebate": 6267,
      "Ã¢": 6268,
      "Ġmixed": 6269,
      "elled": 6270,
      "inity": 6271,
      "Bl": 6272,
      "Ġresponses": 6273,
      "Ġzone": 6274,
      "Ġalle": 6275,
      "Ġships": 6276,
      "upp": 6277,
      "before": 6278,
      "Ġuniversity": 6279,
      "Ġpreval": 6280,
      "Ġdepartment": 6281,
      "Ġimmediate": 6282,
      "cel": 6283,
      "Ġpercentage": 6284,
      "sey": 6285,
      "Ġbiggest": 6286,
      "Ġkit": 6287,
      "isk": 6288,
      "Ġlimits": 6289,
      "Ġshut": 6290,
      "Ġexists": 6291,
      "Ġknows": 6292,
      "Ġacids": 6293,
      "Ġbeliefs": 6294,
      "ĠHaw": 6295,
      "Ġevaluation": 6296,
      "anda": 6297,
      "Ġcutting": 6298,
      "Ġhoriz": 6299,
      "roduction": 6300,
      "Med": 6301,
      "âĢĺ": 6302,
      "ĠMill": 6303,
      "ĠRob": 6304,
      "Ġoccasion": 6305,
      "ĠGal": 6306,
      "ĠColor": 6307,
      "Ġmechanisms": 6308,
      "igation": 6309,
      "Ġwhatever": 6310,
      "ditional": 6311,
      "ĠCamp": 6312,
      "bert": 6313,
      "Ġmachines": 6314,
      "Ġregul": 6315,
      "raining": 6316,
      "ĠChicago": 6317,
      "Ġpersist": 6318,
      "ih": 6319,
      "Ġtwenty": 6320,
      "Ġsod": 6321,
      "Ġshop": 6322,
      "Ġpron": 6323,
      "positive": 6324,
      "ocracy": 6325,
      "Ġregulations": 6326,
      "Ġturns": 6327,
      "Ġenemy": 6328,
      "Ġbio": 6329,
      "Ġstands": 6330,
      "inn": 6331,
      "Qu": 6332,
      "Ġcolleagues": 6333,
      "ube": 6334,
      "azing": 6335,
      "Ġath": 6336,
      "orous": 6337,
      "rovers": 6338,
      "hether": 6339,
      "ĠSk": 6340,
      "ora": 6341,
      "irty": 6342,
      "ĠIN": 6343,
      "Ġregist": 6344,
      "Ġvictims": 6345,
      "ĠNatural": 6346,
      "Ġshot": 6347,
      "Ġends": 6348,
      "print": 6349,
      "Ġphilosophy": 6350,
      "called": 6351,
      "Ġtall": 6352,
      "Ġhandle": 6353,
      "Ġstanding": 6354,
      "Ġconstitution": 6355,
      "then": 6356,
      "Ġsupporting": 6357,
      "Ġhonor": 6358,
      "inate": 6359,
      "Ġunderlying": 6360,
      "Ġfeeding": 6361,
      "erior": 6362,
      "Ġvoc": 6363,
      "earchers": 6364,
      "Ġattached": 6365,
      "acts": 6366,
      "Ġnerve": 6367,
      "irt": 6368,
      "fortunately": 6369,
      "Ġmagnetic": 6370,
      "Ġpresentation": 6371,
      "ymph": 6372,
      "rating": 6373,
      "ĠTimes": 6374,
      "uter": 6375,
      "ocy": 6376,
      "ĠAdminist": 6377,
      "ĠGet": 6378,
      "Ġparalle": 6379,
      "Ġimprovement": 6380,
      "Ġeld": 6381,
      "Ġreserv": 6382,
      "Ġartificial": 6383,
      "bridge": 6384,
      "ĠISBN": 6385,
      "ĠAcademy": 6386,
      "Ġsubs": 6387,
      "Ġhydrogen": 6388,
      "ĠExper": 6389,
      "Ġwilling": 6390,
      "Ġbrand": 6391,
      "Ġinstructions": 6392,
      "Ġcontained": 6393,
      "aped": 6394,
      "ĠSpain": 6395,
      "Ġmice": 6396,
      "Ġinhib": 6397,
      "Ġlies": 6398,
      "Ġmanif": 6399,
      "Ġzero": 6400,
      "Ġparticipate": 6401,
      "IA": 6402,
      "Ġmand": 6403,
      "cycl": 6404,
      "stract": 6405,
      "stein": 6406,
      "Ġstimul": 6407,
      "Ġahead": 6408,
      "arn": 6409,
      "Ġborder": 6410,
      "Ġtea": 6411,
      "ĠItaly": 6412,
      "Ġrecognition": 6413,
      "umes": 6414,
      "aked": 6415,
      "een": 6416,
      "Ġrequest": 6417,
      "Ġtransportation": 6418,
      "Ġagency": 6419,
      "ĠEnd": 6420,
      "ĠDet": 6421,
      "Ġarrange": 6422,
      "Of": 6423,
      "Ġresulted": 6424,
      "Ġwhereas": 6425,
      "Ġsubstances": 6426,
      "Ġdrawing": 6427,
      "Ġtrip": 6428,
      "ĠCr": 6429,
      "ĠSciences": 6430,
      "ĠStep": 6431,
      "Ġcapture": 6432,
      "Ġcryst": 6433,
      "hand": 6434,
      "word": 6435,
      "Â·": 6436,
      "Ġjoin": 6437,
      "Ġdrawn": 6438,
      "ita": 6439,
      "ittle": 6440,
      "Ġhabits": 6441,
      "ĠBoard": 6442,
      "Ġnone": 6443,
      "Ġbehaviors": 6444,
      "Ġmicros": 6445,
      "ĠCommittee": 6446,
      "ĠHoly": 6447,
      "Ġtaste": 6448,
      "facts": 6449,
      "Ġmaps": 6450,
      "uts": 6451,
      "rimination": 6452,
      "Ġrid": 6453,
      "esis": 6454,
      "iah": 6455,
      "Ġentry": 6456,
      "ĠForest": 6457,
      "Ġjoined": 6458,
      "Ġemotions": 6459,
      "Ġarchitecture": 6460,
      "uels": 6461,
      "itely": 6462,
      "Ġreader": 6463,
      "Ġcustomers": 6464,
      "icious": 6465,
      "ĠItalian": 6466,
      "Ġdefe": 6467,
      "Ġorganisms": 6468,
      "top": 6469,
      "Ġcav": 6470,
      "Ġmild": 6471,
      "Ġdrought": 6472,
      "ĠOh": 6473,
      "Ġsmoke": 6474,
      "Ġobservations": 6475,
      "irds": 6476,
      "Ġwasn": 6477,
      "Ġpositions": 6478,
      "struction": 6479,
      "ĠWik": 6480,
      "Ġphotograph": 6481,
      "zed": 6482,
      "Ġmm": 6483,
      "Ġflag": 6484,
      "Ġvoltage": 6485,
      "ups": 6486,
      "Ġring": 6487,
      "Ġhousing": 6488,
      "ĠCap": 6489,
      "ĠRichard": 6490,
      "Ġsupports": 6491,
      "usiness": 6492,
      "First": 6493,
      "isp": 6494,
      "Ġtrained": 6495,
      "teen": 6496,
      "Ġdebt": 6497,
      "ĠAS": 6498,
      "ĠRevolution": 6499,
      "comm": 6500,
      "Ġflo": 6501,
      "Ġlegs": 6502,
      "Ġnearby": 6503,
      "Ġstreet": 6504,
      "Ġconfidence": 6505,
      "Ġpair": 6506,
      "Ġlect": 6507,
      "Ġsacr": 6508,
      "ĠMichael": 6509,
      "Ġmode": 6510,
      "ĠScot": 6511,
      "iral": 6512,
      "Pe": 6513,
      "Ġsurve": 6514,
      "Ġdemonstrated": 6515,
      "Ġastr": 6516,
      "IP": 6517,
      "Ġobesity": 6518,
      "Ġrising": 6519,
      "Ġphysics": 6520,
      "ĠBrown": 6521,
      "Ġprev": 6522,
      "Ġunus": 6523,
      "Ġconnections": 6524,
      "such": 6525,
      "abul": 6526,
      "nee": 6527,
      "Ġrefuge": 6528,
      "Ġinstruments": 6529,
      "Ġbread": 6530,
      "Ġequivalent": 6531,
      "Int": 6532,
      "Ġdistur": 6533,
      "ĠClin": 6534,
      "Ġadministr": 6535,
      "Ġcup": 6536,
      "ĠGree": 6537,
      "Ġcompounds": 6538,
      "aine": 6539,
      "Ġprogramming": 6540,
      "Ġburning": 6541,
      "Ġpsychological": 6542,
      "oding": 6543,
      "Ġpoison": 6544,
      "tic": 6545,
      "Ġfunctional": 6546,
      "Ġestimates": 6547,
      "Ġpurchase": 6548,
      "Ġsmoking": 6549,
      "htt": 6550,
      "Ġpartner": 6551,
      "ĠLanguage": 6552,
      "Ġforth": 6553,
      "Ġelig": 6554,
      "Ġconsumers": 6555,
      "Ġissued": 6556,
      "Ġboys": 6557,
      "while": 6558,
      "ĠParty": 6559,
      "hered": 6560,
      "everal": 6561,
      "Ġfrequent": 6562,
      "Ġexamine": 6563,
      "ĠPract": 6564,
      "ĠOcean": 6565,
      "ĠWhere": 6566,
      "Ġspok": 6567,
      "Ġnob": 6568,
      "omic": 6569,
      "Ġtight": 6570,
      "Ġteen": 6571,
      "Ġsole": 6572,
      "Ġscan": 6573,
      "ĠVis": 6574,
      "Ġpassage": 6575,
      "Ġmedic": 6576,
      "cription": 6577,
      "Ġpolitics": 6578,
      "rooms": 6579,
      "xts": 6580,
      "Ġvac": 6581,
      "Ġstroke": 6582,
      "ella": 6583,
      "Ġputting": 6584,
      "scale": 6585,
      "Ġdiagnosed": 6586,
      "di": 6587,
      "dule": 6588,
      "Ġusage": 6589,
      "etime": 6590,
      "ishment": 6591,
      "Ġdelay": 6592,
      "Ġprove": 6593,
      "ighter": 6594,
      "gs": 6595,
      "Ġmeth": 6596,
      "Ġstring": 6597,
      "Ġemployment": 6598,
      "Ġfract": 6599,
      "Ġprompt": 6600,
      "Ġorders": 6601,
      "Ġframe": 6602,
      "ritis": 6603,
      "alm": 6604,
      "ĠEastern": 6605,
      "Ġcontamin": 6606,
      "Ġcentre": 6607,
      "itter": 6608,
      "Ġguarant": 6609,
      "Ġaward": 6610,
      "Ġscene": 6611,
      "Ġrow": 6612,
      "Ġneur": 6613,
      "ĠCarolina": 6614,
      "Ġstable": 6615,
      "ĠDiff": 6616,
      "Ġcompetition": 6617,
      "hav": 6618,
      "IR": 6619,
      "Ġchick": 6620,
      "Ġlayers": 6621,
      "ĠDesign": 6622,
      "ĠAgricult": 6623,
      "CA": 6624,
      "ĠEmpire": 6625,
      "aria": 6626,
      "Ġaccident": 6627,
      "Ġlaunched": 6628,
      "ĠSat": 6629,
      "Ġreactions": 6630,
      "ureau": 6631,
      "Ġscript": 6632,
      "onia": 6633,
      "Ġmeters": 6634,
      "Ġinteractions": 6635,
      "Ġment": 6636,
      "Ġobjective": 6637,
      "itt": 6638,
      "Ġdelivery": 6639,
      "Ġassociation": 6640,
      "Ġcategories": 6641,
      "Ġtheme": 6642,
      "Ġhem": 6643,
      "Ġfeedback": 6644,
      "à¥": 6645,
      "Ġbreath": 6646,
      "Ġgluc": 6647,
      "ĠWood": 6648,
      "Ġdemonstrate": 6649,
      "how": 6650,
      "IDS": 6651,
      "agram": 6652,
      "Ġhole": 6653,
      "fish": 6654,
      "Ġdanger": 6655,
      "ĠStat": 6656,
      "ala": 6657,
      "asters": 6658,
      "Ġsections": 6659,
      "oster": 6660,
      "Ġpool": 6661,
      "earing": 6662,
      "ployment": 6663,
      "espread": 6664,
      "ĠRom": 6665,
      "ĠFree": 6666,
      "ĠIrish": 6667,
      "Ġbeings": 6668,
      "Ġconclusion": 6669,
      "Ġmeasurements": 6670,
      "iratory": 6671,
      "arsh": 6672,
      "Ġmatch": 6673,
      "Ġcards": 6674,
      "ĠHave": 6675,
      "fit": 6676,
      "ĠTime": 6677,
      "ushed": 6678,
      "Ġneither": 6679,
      "Ġvariable": 6680,
      "Ġmoisture": 6681,
      "ĠEqu": 6682,
      "Ġsupposed": 6683,
      "Ġtheore": 6684,
      "Ġmood": 6685,
      "Ġpowers": 6686,
      "Ġrecept": 6687,
      "Ġru": 6688,
      "Ġoperate": 6689,
      "ĠKeep": 6690,
      "Ġsheet": 6691,
      "Ġreceiving": 6692,
      "sue": 6693,
      "umps": 6694,
      "Ġundert": 6695,
      "Ġoblig": 6696,
      "Ġparticipation": 6697,
      "bra": 6698,
      "Ġbanks": 6699,
      "ĠMer": 6700,
      "Ġindependence": 6701,
      "ĠVictor": 6702,
      "Le": 6703,
      "Your": 6704,
      "ether": 6705,
      "Ġmatters": 6706,
      "Ġcaptured": 6707,
      "ugh": 6708,
      "aska": 6709,
      "ĠIII": 6710,
      "Figure": 6711,
      "itivity": 6712,
      "Ġhypothes": 6713,
      "inating": 6714,
      "Ġpapers": 6715,
      "Ġforget": 6716,
      "erty": 6717,
      "andon": 6718,
      "Ġscreening": 6719,
      "Ġorgans": 6720,
      "abled": 6721,
      "Ġdepart": 6722,
      "azine": 6723,
      "Rec": 6724,
      "Ġworship": 6725,
      "making": 6726,
      "Ġalter": 6727,
      "Ġgenerations": 6728,
      "etics": 6729,
      "Ġgreenhouse": 6730,
      "gical": 6731,
      "Ġemployed": 6732,
      "Ġcommitted": 6733,
      "icon": 6734,
      "ĠHill": 6735,
      "ĠExt": 6736,
      "Ġwound": 6737,
      "lines": 6738,
      "Ġcream": 6739,
      "Ġrig": 6740,
      "Ġeveryday": 6741,
      "Ġtrouble": 6742,
      "Ġvulnerable": 6743,
      "ML": 6744,
      "OL": 6745,
      "Ġspaces": 6746,
      "Ġrelief": 6747,
      "Ġfever": 6748,
      "%)": 6749,
      "Ġgap": 6750,
      "Ġcolumn": 6751,
      "Ġmaintaining": 6752,
      "Ġsomewhat": 6753,
      "Ġindustries": 6754,
      "Ġentered": 6755,
      "urrent": 6756,
      "ĠFamily": 6757,
      "Ġcovers": 6758,
      "Ġcriteria": 6759,
      "CD": 6760,
      "Ġvirtual": 6761,
      "Ġsmooth": 6762,
      "hesis": 6763,
      "Ġmarkets": 6764,
      "Ġruns": 6765,
      "apse": 6766,
      "Ġmeal": 6767,
      "Lear": 6768,
      "idential": 6769,
      "Ġbrings": 6770,
      "Ġepid": 6771,
      "Ġoutbre": 6772,
      "anches": 6773,
      "Over": 6774,
      "Ġske": 6775,
      "Ġongoing": 6776,
      "Ġexplo": 6777,
      "inally": 6778,
      "Ġphoto": 6779,
      "test": 6780,
      "Ġapproved": 6781,
      "Ġofficers": 6782,
      "Ġfunds": 6783,
      "ipedia": 6784,
      "Ġexplanation": 6785,
      "cons": 6786,
      "Ġbiod": 6787,
      "Ġprescrib": 6788,
      "Ġremoval": 6789,
      "IM": 6790,
      "à®": 6791,
      "Ġdefine": 6792,
      "ĠBrazil": 6793,
      "Ġinstalled": 6794,
      "Ġestimate": 6795,
      "using": 6796,
      "Ġbabies": 6797,
      "Ġlake": 6798,
      "ĠProp": 6799,
      "Ġfarming": 6800,
      "Ġholid": 6801,
      "nect": 6802,
      "Ġrivers": 6803,
      "Ġhorses": 6804,
      "Ġdistributed": 6805,
      "Ġshif": 6806,
      "ĠAsian": 6807,
      "Ġmerely": 6808,
      "Ġcontrovers": 6809,
      "Ġfurn": 6810,
      "Ġinvolving": 6811,
      "ĠGuide": 6812,
      "Ġexercises": 6813,
      "ĠEarly": 6814,
      "Ġturning": 6815,
      "Ġtexts": 6816,
      "utrition": 6817,
      "Ġroute": 6818,
      "total": 6819,
      "Ġsail": 6820,
      "Ġexperimental": 6821,
      "ĠGeorg": 6822,
      "ĠPan": 6823,
      "Ġviruses": 6824,
      "Ġdownload": 6825,
      "Ġloved": 6826,
      "iability": 6827,
      "Ġasking": 6828,
      "ĠKingdom": 6829,
      "Ġlegislation": 6830,
      "ĠSil": 6831,
      "Ġpra": 6832,
      "illa": 6833,
      "ĠStr": 6834,
      "eers": 6835,
      "Ġfold": 6836,
      "Ġchallenging": 6837,
      "ĠMel": 6838,
      "Ġdestruction": 6839,
      "Ġtube": 6840,
      "mes": 6841,
      "eren": 6842,
      "Ġagents": 6843,
      "Ġille": 6844,
      "Ġmales": 6845,
      "Ġplayers": 6846,
      "Ġaccessible": 6847,
      "Ġintegrated": 6848,
      "Ġwait": 6849,
      "Ġdollars": 6850,
      "Ġconven": 6851,
      "osc": 6852,
      "Ġagreed": 6853,
      "Ġindicated": 6854,
      "Ġstre": 6855,
      "Ġreliable": 6856,
      "Ġdys": 6857,
      "peror": 6858,
      "olesc": 6859,
      "ĠEss": 6860,
      "Ġdivision": 6861,
      "Ġtissues": 6862,
      "oom": 6863,
      "Ġwidespread": 6864,
      "Ġadequate": 6865,
      "Ã¶": 6866,
      "ĠNaz": 6867,
      "Ġbridge": 6868,
      "Don": 6869,
      "ĠAcc": 6870,
      "Ġguard": 6871,
      "ourage": 6872,
      "Ġblow": 6873,
      "ĠIndians": 6874,
      "Ġended": 6875,
      "Ġreduces": 6876,
      "Ġearn": 6877,
      "Ġgram": 6878,
      "ĠFort": 6879,
      "Ġpup": 6880,
      "Ġholding": 6881,
      "Ġmeasurement": 6882,
      "ĠCreat": 6883,
      "rey": 6884,
      "Ġmos": 6885,
      "osion": 6886,
      "Ġchest": 6887,
      "ady": 6888,
      "Ġconsumer": 6889,
      "abulary": 6890,
      "Ġelection": 6891,
      "Ġrealize": 6892,
      "Ġrespectively": 6893,
      "ĠPM": 6894,
      "Ġspending": 6895,
      "Ġangle": 6896,
      "Ġsought": 6897,
      "Even": 6898,
      "Ġminerals": 6899,
      "ĠServices": 6900,
      "Ġexpansion": 6901,
      "Ġmembr": 6902,
      "oples": 6903,
      "Ġhusband": 6904,
      "ĠGard": 6905,
      "sis": 6906,
      "Ġintest": 6907,
      "ĠLib": 6908,
      "rene": 6909,
      "Ġconversation": 6910,
      "Comp": 6911,
      "gov": 6912,
      "yth": 6913,
      "Ġmanip": 6914,
      "Ġarrest": 6915,
      "Ġvs": 6916,
      "Ġsilver": 6917,
      "Ġnervous": 6918,
      "rite": 6919,
      "Ġcommission": 6920,
      "airy": 6921,
      "CH": 6922,
      "ĠGrand": 6923,
      "otherapy": 6924,
      "Ġconstantly": 6925,
      "forest": 6926,
      "Ġtelevision": 6927,
      "Once": 6928,
      "acher": 6929,
      "Ġcenters": 6930,
      "press": 6931,
      "Ġsettings": 6932,
      "ĠSing": 6933,
      "Ġoutcome": 6934,
      "'m": 6935,
      "Ġkidney": 6936,
      "Ġfacility": 6937,
      "Ġrenewable": 6938,
      "she": 6939,
      "Ġpreparation": 6940,
      "example": 6941,
      "ivered": 6942,
      "Ġintellectual": 6943,
      "Ed": 6944,
      "Ġcomposed": 6945,
      "Ġmaintained": 6946,
      "Ġscore": 6947,
      "Ġpreced": 6948,
      "Ġworry": 6949,
      "Ġintense": 6950,
      "Ġdamaged": 6951,
      "SS": 6952,
      "ĠResources": 6953,
      "Ġescape": 6954,
      "thritis": 6955,
      "Ġmining": 6956,
      "ented": 6957,
      "iary": 6958,
      "plant": 6959,
      "ĠClimate": 6960,
      "Ġconstructed": 6961,
      "VID": 6962,
      "Ġelectro": 6963,
      "Ġseemed": 6964,
      "Ġboy": 6965,
      "Ġdesigns": 6966,
      "Ġturb": 6967,
      "aired": 6968,
      "Ġhun": 6969,
      "Ġcalories": 6970,
      "Ġevil": 6971,
      "ventions": 6972,
      "Ġbiom": 6973,
      "Ġdiagnostic": 6974,
      "Ġtons": 6975,
      "Ġfashion": 6976,
      "ĠCy": 6977,
      "Ġcontrols": 6978,
      "Ġmoves": 6979,
      "Ġrely": 6980,
      "Ġoffering": 6981,
      "Ġannounced": 6982,
      "idity": 6983,
      "Ġpublication": 6984,
      "Ġplenty": 6985,
      "Ġstations": 6986,
      "isdom": 6987,
      "Ġengaged": 6988,
      "Ġjudge": 6989,
      "eenth": 6990,
      "Ġbath": 6991,
      "ĠSign": 6992,
      "Ġcrim": 6993,
      "Ġcategory": 6994,
      "Ġconsidering": 6995,
      "igan": 6996,
      "medi": 6997,
      "Ġstatistics": 6998,
      "orph": 6999,
      "ĠBefore": 7000,
      "Ġfer": 7001,
      "Ġguidance": 7002,
      "Ġcooking": 7003,
      "RA": 7004,
      "ĠAgency": 7005,
      "Ġblocks": 7006,
      "ĠAngel": 7007,
      "ĠPet": 7008,
      "Ġmechanical": 7009,
      "Ġfairly": 7010,
      "Ġid": 7011,
      "Ġstrongly": 7012,
      "ĠColumbia": 7013,
      "irus": 7014,
      "Ġserving": 7015,
      "Ġrarely": 7016,
      "Ġcomplicated": 7017,
      "Ġfavorite": 7018,
      "Ġbot": 7019,
      "ĠCop": 7020,
      "ĠIran": 7021,
      "Ġhistoric": 7022,
      "ĠCheck": 7023,
      "Me": 7024,
      "Ġcounty": 7025,
      "Ġcounsel": 7026,
      "Ġdrain": 7027,
      "cyclop": 7028,
      "itamin": 7029,
      "ĠWho": 7030,
      "Ġmissing": 7031,
      "ĠSpecial": 7032,
      "Ġowner": 7033,
      "Ġaccuracy": 7034,
      "Ġbeauty": 7035,
      "ishop": 7036,
      "oven": 7037,
      "usal": 7038,
      "Ġproportion": 7039,
      "Ġsurfaces": 7040,
      "Ġevaluate": 7041,
      "pes": 7042,
      "ĠAge": 7043,
      "Ġstrict": 7044,
      "ĠYear": 7045,
      "Ġfacing": 7046,
      "riz": 7047,
      "Ġabandon": 7048,
      "Because": 7049,
      "Ġinsulin": 7050,
      "Ġracial": 7051,
      "car": 7052,
      "herent": 7053,
      "elesc": 7054,
      "ĠDar": 7055,
      "Ġdeclared": 7056,
      "Ġabnormal": 7057,
      "Ġclaimed": 7058,
      "bar": 7059,
      "lims": 7060,
      "aning": 7061,
      "Ġholes": 7062,
      "ĠBig": 7063,
      "Ġincred": 7064,
      "Ġrecommendations": 7065,
      "Ġlegisl": 7066,
      "ĠTake": 7067,
      "aded": 7068,
      "Ġorbit": 7069,
      "Ġcollaboration": 7070,
      "ĠSup": 7071,
      "Ġroles": 7072,
      "Ġcircle": 7073,
      "Ġcontemporary": 7074,
      "Ġprohib": 7075,
      "ĠVer": 7076,
      "Ġeligible": 7077,
      "ani": 7078,
      "otton": 7079,
      "unicip": 7080,
      "Ġexamination": 7081,
      "Ġstronger": 7082,
      "Ġmessages": 7083,
      "osh": 7084,
      "Ġdependent": 7085,
      "ĠQuest": 7086,
      "Ġinfluenced": 7087,
      "Ġsatellite": 7088,
      "%.": 7089,
      "ĠAND": 7090,
      "Ġparallel": 7091,
      "Ġgradually": 7092,
      "ĠCommunity": 7093,
      "Ġcats": 7094,
      "Ġfix": 7095,
      "Ġrocks": 7096,
      "Ġuncertain": 7097,
      "Ġneighborhood": 7098,
      "Ġbond": 7099,
      "Ġformula": 7100,
      "ĠYoung": 7101,
      "Ġsignificance": 7102,
      "Ġcarrying": 7103,
      "rial": 7104,
      "Ġrank": 7105,
      "Ġcompare": 7106,
      "ĠDev": 7107,
      "Ġimplemented": 7108,
      "ano": 7109,
      "ĠAdv": 7110,
      "Ġpainting": 7111,
      "Ġfulf": 7112,
      "rin": 7113,
      "Ġinsurance": 7114,
      "esides": 7115,
      "ĠDig": 7116,
      "Ġchlor": 7117,
      "Ġswim": 7118,
      "Ġfemales": 7119,
      "Am": 7120,
      "ounter": 7121,
      "Ġpin": 7122,
      "otes": 7123,
      "Ġcriminal": 7124,
      "reated": 7125,
      "otion": 7126,
      "Ġseconds": 7127,
      "Every": 7128,
      "theless": 7129,
      "ĠSometimes": 7130,
      "LA": 7131,
      "ĠAccess": 7132,
      "ommod": 7133,
      "Ġordered": 7134,
      "roat": 7135,
      "Ġinfant": 7136,
      "Ġthanks": 7137,
      "Ġblind": 7138,
      "iox": 7139,
      "Ġprinting": 7140,
      "ĠPop": 7141,
      "Ġtract": 7142,
      "rary": 7143,
      "otype": 7144,
      "ĠOxford": 7145,
      "ĠFace": 7146,
      "Ġadvantages": 7147,
      "Ġproven": 7148,
      "Ġproved": 7149,
      "Ġlie": 7150,
      "inson": 7151,
      "Ġattempts": 7152,
      "Ġcoastal": 7153,
      "oga": 7154,
      "Ġdecor": 7155,
      "Ġbringing": 7156,
      "Ġballs": 7157,
      "Ġseeking": 7158,
      "Ġbranch": 7159,
      "ĠMuslim": 7160,
      "Ġorient": 7161,
      "ĠAtlantic": 7162,
      "ocation": 7163,
      "Ġroughly": 7164,
      "heric": 7165,
      "ĠMoreover": 7166,
      "ĠFurthermore": 7167,
      "Ġimplications": 7168,
      "Ġmetabol": 7169,
      "Ġdelivered": 7170,
      "Ġtheories": 7171,
      "Ġov": 7172,
      "Ġeditor": 7173,
      "Ġplane": 7174,
      "Ġclothing": 7175,
      "Ġchart": 7176,
      "Ġsigned": 7177,
      "Ġconfirmed": 7178,
      "Ġmolecular": 7179,
      "Or": 7180,
      "Ġpassing": 7181,
      "ĠTV": 7182,
      "Ġdefect": 7183,
      "greg": 7184,
      "Ġphotos": 7185,
      "Ġgalax": 7186,
      "Ġglucose": 7187,
      "oston": 7188,
      "Ġbiology": 7189,
      "Ġabsence": 7190,
      "Ġsession": 7191,
      "Ġassume": 7192,
      "Ġsoul": 7193,
      "Today": 7194,
      "UT": 7195,
      "Ġequally": 7196,
      "Ġphenomenon": 7197,
      "Ġuniversal": 7198,
      "Ġproceed": 7199,
      "Ġcrew": 7200,
      "ĠMartin": 7201,
      "health": 7202,
      "operation": 7203,
      "ĠDen": 7204,
      "ĠDoes": 7205,
      "ontal": 7206,
      "Ġplus": 7207,
      "Ġnose": 7208,
      "ĠEU": 7209,
      "Ġcompound": 7210,
      "Ġartists": 7211,
      "Ġsteam": 7212,
      "Ġfro": 7213,
      "Ġelected": 7214,
      "oured": 7215,
      "icted": 7216,
      "Ġnegot": 7217,
      "Per": 7218,
      "Ġflows": 7219,
      "Ġbutter": 7220,
      "itals": 7221,
      "gers": 7222,
      "Ġdoi": 7223,
      "EE": 7224,
      "rowing": 7225,
      "oir": 7226,
      "hyd": 7227,
      "Ġped": 7228,
      "Ġparas": 7229,
      "Ġprinted": 7230,
      "Ġinfect": 7231,
      "Ġnewly": 7232,
      "Ġvisitors": 7233,
      "Ġnest": 7234,
      "Ġminute": 7235,
      "Ġfocuses": 7236,
      "itual": 7237,
      "ĠDirector": 7238,
      "UN": 7239,
      "vard": 7240,
      "outs": 7241,
      "ĠHeb": 7242,
      "DP": 7243,
      "orted": 7244,
      "Ġpeak": 7245,
      "Ġvariables": 7246,
      "ibl": 7247,
      "Ġdetection": 7248,
      "Ġdefense": 7249,
      "Ġfung": 7250,
      "bles": 7251,
      "records": 7252,
      "amination": 7253,
      "quit": 7254,
      "Ġteams": 7255,
      "Ġgrain": 7256,
      "Ġessentially": 7257,
      "ĠGr": 7258,
      "Ġcareful": 7259,
      "Ġgiant": 7260,
      "ĠVeter": 7261,
      "tles": 7262,
      "ĠEffect": 7263,
      "ĠChange": 7264,
      "Ġinformed": 7265,
      "amine": 7266,
      "Ġgrant": 7267,
      "Ġinterpre": 7268,
      "Ġnitrogen": 7269,
      "ĠThough": 7270,
      "Ġautism": 7271,
      "Ġjump": 7272,
      "Ġpharm": 7273,
      "Ġmodified": 7274,
      "pling": 7275,
      "ĠViet": 7276,
      "Ġplayer": 7277,
      "CP": 7278,
      "chen": 7279,
      "Ġremind": 7280,
      "ollowing": 7281,
      "Ġhormone": 7282,
      "ĠAL": 7283,
      "Ġtreating": 7284,
      "Ġstructural": 7285,
      "forcement": 7286,
      "Ġsubsequent": 7287,
      "Ġmigration": 7288,
      "ĠFrancisc": 7289,
      "olving": 7290,
      "Ġterror": 7291,
      "Ġsurprising": 7292,
      "Ġdesired": 7293,
      "Ġvarieties": 7294,
      "Ġacute": 7295,
      "ĠDistrict": 7296,
      "isted": 7297,
      "ogether": 7298,
      "Ġdiscrimination": 7299,
      "ĠCoast": 7300,
      "Ġcomfortable": 7301,
      "Ġaims": 7302,
      "eness": 7303,
      "amins": 7304,
      "Ġpresents": 7305,
      "ĠIndust": 7306,
      "Ġmarks": 7307,
      "Ġweapons": 7308,
      "Ġvel": 7309,
      "ĠHim": 7310,
      "Ġcombat": 7311,
      "ixture": 7312,
      "hent": 7313,
      "Ġpanel": 7314,
      "Ġrobot": 7315,
      "Ġimagine": 7316,
      "Ġprominent": 7317,
      "Ġpounds": 7318,
      "Ġpreventing": 7319,
      "ograp": 7320,
      "Ġedition": 7321,
      "Ġprincipal": 7322,
      "Ġrab": 7323,
      "ĠPlant": 7324,
      "Ġcharacterized": 7325,
      "Ġlaid": 7326,
      "?\"": 7327,
      "Ġinn": 7328,
      "ĠAdministration": 7329,
      "ĠâĢ¢": 7330,
      "ptions": 7331,
      "ĠSecret": 7332,
      "Ġinvestigation": 7333,
      "ĠMen": 7334,
      "Ġarts": 7335,
      "Ġopposed": 7336,
      "ĠPrinc": 7337,
      "Ġroads": 7338,
      "Ġanalys": 7339,
      "coming": 7340,
      "Ġmineral": 7341,
      "Ġouter": 7342,
      "OC": 7343,
      "ounce": 7344,
      "Ġrice": 7345,
      "Ġmicrob": 7346,
      "Ġusual": 7347,
      "ba": 7348,
      "Ġexclus": 7349,
      "ĠEp": 7350,
      "Ġgut": 7351,
      "ĠLar": 7352,
      "Ġknowing": 7353,
      "ovascular": 7354,
      "ura": 7355,
      "istical": 7356,
      "ĠFather": 7357,
      "Ġheavily": 7358,
      "Ġshapes": 7359,
      "Ġfabric": 7360,
      "Ġdeeper": 7361,
      "class": 7362,
      "acco": 7363,
      "ĠNetwork": 7364,
      "ĠSar": 7365,
      "Ġhealing": 7366,
      "including": 7367,
      "Ġbreeding": 7368,
      "Ġlistening": 7369,
      "ĠSym": 7370,
      "Ġcorner": 7371,
      "Ġoverw": 7372,
      "rance": 7373,
      "Ġstuff": 7374,
      "eli": 7375,
      "occ": 7376,
      "Ġsla": 7377,
      "onal": 7378,
      "Ġmathematics": 7379,
      "ĠJohnson": 7380,
      "ĠBab": 7381,
      "Ġtranslation": 7382,
      "Ġpregnant": 7383,
      "Ġintent": 7384,
      "Ġingredients": 7385,
      "Ġstead": 7386,
      "Ġempt": 7387,
      "requ": 7388,
      "ints": 7389,
      "Ġconsiderable": 7390,
      "Ġfed": 7391,
      "Ġproof": 7392,
      "Ġplanned": 7393,
      "urric": 7394,
      "Ġdealing": 7395,
      "Ġmold": 7396,
      "ĠResp": 7397,
      "Ġpicked": 7398,
      "ĠType": 7399,
      "Ġdose": 7400,
      "Ġsuffered": 7401,
      "App": 7402,
      "iological": 7403,
      "ĠSund": 7404,
      "ulty": 7405,
      "Ġmaybe": 7406,
      "Ġfourth": 7407,
      "Ġdiameter": 7408,
      "Ġencouraged": 7409,
      "Ġtraditions": 7410,
      "ortion": 7411,
      "ults": 7412,
      "sm": 7413,
      "Ġwriters": 7414,
      "Ġ)": 7415,
      "Ġgained": 7416,
      "ĠMoon": 7417,
      "ersonal": 7418,
      "ĠMD": 7419,
      "Ġeffectiveness": 7420,
      "ogenic": 7421,
      "Ġrhyth": 7422,
      "Ġinher": 7423,
      "Ġshock": 7424,
      "yal": 7425,
      "Ġadvert": 7426,
      "night": 7427,
      "sell": 7428,
      "Ġclar": 7429,
      "Ġserves": 7430,
      "Ġassigned": 7431,
      "rous": 7432,
      "Ġdisaster": 7433,
      "ĠAP": 7434,
      "Ġadm": 7435,
      "Ġanywhere": 7436,
      "Ġvariation": 7437,
      "rox": 7438,
      "ĠTop": 7439,
      "Ġengineers": 7440,
      "iana": 7441,
      "ĠAdditionally": 7442,
      "http": 7443,
      "Ġbomb": 7444,
      "ĠCa": 7445,
      "ĠPo": 7446,
      "elfare": 7447,
      "produ": 7448,
      "ĠCat": 7449,
      "Ġdispos": 7450,
      "eting": 7451,
      "Ġslavery": 7452,
      "Ġinsert": 7453,
      "Ġvictim": 7454,
      "Ġinterpretation": 7455,
      "quir": 7456,
      "ultane": 7457,
      "Ġsitting": 7458,
      "ĠThree": 7459,
      "asty": 7460,
      "net": 7461,
      "ĠFire": 7462,
      "ĠLow": 7463,
      "\":[": 7464,
      "ĠAmong": 7465,
      "Ġsatisf": 7466,
      "]}": 7467,
      "ĠDespite": 7468,
      "rus": 7469,
      "atively": 7470,
      "Ġirrit": 7471,
      "ĠEst": 7472,
      "\"}]}": 7473,
      "\":[{\"": 7474,
      "Ġlaser": 7475,
      "ĠPlease": 7476,
      "Ġflour": 7477,
      "Ġspectrum": 7478,
      "Ġconcerning": 7479,
      "sen": 7480,
      "Ġislands": 7481,
      "just": 7482,
      "Ġcaught": 7483,
      "Ġphosph": 7484,
      "oids": 7485,
      "Ġunw": 7486,
      "Ġschedule": 7487,
      "icing": 7488,
      "Ġhoney": 7489,
      "Ġfalls": 7490,
      "Ġinnovation": 7491,
      "Ġexcessive": 7492,
      "oln": 7493,
      "Ġgrid": 7494,
      "ĠSwed": 7495,
      "essions": 7496,
      "Ġofficer": 7497,
      "Ġstrain": 7498,
      "action": 7499,
      "erman": 7500,
      "ilation": 7501,
      "Ġvertical": 7502,
      "haust": 7503,
      "Note": 7504,
      "ĠHy": 7505,
      "agraph": 7506,
      "door": 7507,
      "ĠLight": 7508,
      "Ġimaging": 7509,
      "Ġcarb": 7510,
      "lishing": 7511,
      "Ġtargets": 7512,
      "ĠAM": 7513,
      "ĠMethod": 7514,
      "soft": 7515,
      "ĠSir": 7516,
      "Ġfarms": 7517,
      "Ġconsume": 7518,
      "ĠFinally": 7519,
      "heimer": 7520,
      "Ġdecay": 7521,
      "Ġobserve": 7522,
      "Ġsport": 7523,
      "ĠZeal": 7524,
      "Ġduty": 7525,
      "Ġshoot": 7526,
      "Ġarray": 7527,
      "Ġflower": 7528,
      "Ġeru": 7529,
      "aming": 7530,
      "Ġsup": 7531,
      "Ġscar": 7532,
      "ĠWorks": 7533,
      "igue": 7534,
      "Ġeliminate": 7535,
      "Ġgranted": 7536,
      "Ġabilities": 7537,
      "rency": 7538,
      "Ġdifficulties": 7539,
      "gence": 7540,
      "Ġtrends": 7541,
      "ĠLy": 7542,
      "Ġrespiratory": 7543,
      "Ġbranches": 7544,
      "Ġexception": 7545,
      "Ġgro": 7546,
      "ĠOrganization": 7547,
      "Comm": 7548,
      "Ġitem": 7549,
      "Ġexceed": 7550,
      "iture": 7551,
      "ĠWord": 7552,
      "ĠRock": 7553,
      "ĠEliz": 7554,
      "Ġdynamic": 7555,
      "Ġhappening": 7556,
      "Ġaccompan": 7557,
      "Ġunusual": 7558,
      "Ġrac": 7559,
      "ĠChristians": 7560,
      "Ġweakness": 7561,
      "mers": 7562,
      "Ġmir": 7563,
      "Ġintensity": 7564,
      "Ġconference": 7565,
      "Ġfaced": 7566,
      "eut": 7567,
      "ricts": 7568,
      "html": 7569,
      "Ġcompens": 7570,
      "Ġprocessed": 7571,
      "Ġstatements": 7572,
      "Ġtemple": 7573,
      "Ġautomatically": 7574,
      "Ġsplit": 7575,
      "emia": 7576,
      "ĠSecurity": 7577,
      "ĠSimilar": 7578,
      "Ġye": 7579,
      "Ġwheel": 7580,
      "istor": 7581,
      "Ġplot": 7582,
      "ruption": 7583,
      "igate": 7584,
      "ĠOpen": 7585,
      "Ġchannel": 7586,
      "ĠDutch": 7587,
      "Ġenorm": 7588,
      "Ġrose": 7589,
      "ĠChristmas": 7590,
      "Ġbigger": 7591,
      "Ġcattle": 7592,
      "abeth": 7593,
      "Ġspin": 7594,
      "Ġwrites": 7595,
      "Ġinitially": 7596,
      "Ġcleaning": 7597,
      "Ġinspired": 7598,
      "Ġphysician": 7599,
      "ĠWall": 7600,
      "ĠList": 7601,
      "Ġobservation": 7602,
      "Ġsharp": 7603,
      "uality": 7604,
      "ĠVen": 7605,
      "Ġcontribution": 7606,
      "Ġrelie": 7607,
      "ylvan": 7608,
      "Ġrepresentation": 7609,
      "raq": 7610,
      "Ġaccommod": 7611,
      "ĠReading": 7612,
      "Ġgirl": 7613,
      "Ġadds": 7614,
      "Ġopposition": 7615,
      "Ġlights": 7616,
      "Ġconqu": 7617,
      "Ġvan": 7618,
      "Ġconj": 7619,
      "ĠJul": 7620,
      "Ġmortality": 7621,
      "Ġdates": 7622,
      "auses": 7623,
      "Ġtropical": 7624,
      "Ġamazing": 7625,
      "angered": 7626,
      "Ġdecreased": 7627,
      "CE": 7628,
      "Ġreward": 7629,
      "Ġtowns": 7630,
      "ĠSupreme": 7631,
      "Ġuniform": 7632,
      "Ġcorrectly": 7633,
      "Ġsubstantial": 7634,
      "ushing": 7635,
      "Ġcalculated": 7636,
      "rane": 7637,
      "Ġearliest": 7638,
      "ĠKorea": 7639,
      "ĠCre": 7640,
      "ĠNever": 7641,
      "ĠMuslims": 7642,
      "TP": 7643,
      "Ġarchae": 7644,
      "Ġliteracy": 7645,
      "Ġisolated": 7646,
      "ĠJeff": 7647,
      "ĠWindows": 7648,
      "She": 7649,
      "ĠMult": 7650,
      "ĠNon": 7651,
      "ptic": 7652,
      "Ġradical": 7653,
      "Ġcooling": 7654,
      "Ġkilomet": 7655,
      "ĠZealand": 7656,
      "allow": 7657,
      "Ġprovider": 7658,
      "Ġfishing": 7659,
      "fts": 7660,
      "Ġfest": 7661,
      "Ġdischar": 7662,
      "Ġreveal": 7663,
      "ĠMS": 7664,
      "Ġritual": 7665,
      "Ġcompost": 7666,
      "Ġthreats": 7667,
      "gon": 7668,
      "Ġcab": 7669,
      "ĠCentre": 7670,
      "ĠCho": 7671,
      "Ġfinished": 7672,
      "Ġregulation": 7673,
      "Ear": 7674,
      "ĠTre": 7675,
      "Ġexamined": 7676,
      "Ġmountains": 7677,
      "adder": 7678,
      "ĠSpring": 7679,
      "Ġconfig": 7680,
      "Ġsenior": 7681,
      "uro": 7682,
      "Ġearthqu": 7683,
      "ĠColl": 7684,
      "Ġhazard": 7685,
      "Ġcord": 7686,
      "Ġgate": 7687,
      "Ġindigenous": 7688,
      "Ġcontributed": 7689,
      "Ġasthma": 7690,
      "Ġdetected": 7691,
      "Ġmeasuring": 7692,
      "Ġartist": 7693,
      "effect": 7694,
      "ima": 7695,
      "ĠEr": 7696,
      "ĠFour": 7697,
      "ogs": 7698,
      "ĠIV": 7699,
      "opes": 7700,
      "ĠBoston": 7701,
      "Ġathlet": 7702,
      "Ġcham": 7703,
      "Ġwarning": 7704,
      "ribe": 7705,
      "Ġcomplications": 7706,
      "Ġinnovative": 7707,
      "ioxid": 7708,
      "apor": 7709,
      "Ġvisited": 7710,
      "Ġsuperior": 7711,
      "etary": 7712,
      "ohn": 7713,
      "Ġdemands": 7714,
      "Ġmusical": 7715,
      "ENT": 7716,
      "Ġpestic": 7717,
      "Ġadolesc": 7718,
      "Ġepis": 7719,
      ")|": 7720,
      "Ġdomain": 7721,
      "Ġpoem": 7722,
      "bel": 7723,
      "mod": 7724,
      "Ġbrows": 7725,
      "ĠScotland": 7726,
      "IF": 7727,
      "Ġaqu": 7728,
      "Ġnice": 7729,
      "Ġcalling": 7730,
      "ĠSafety": 7731,
      "ali": 7732,
      "ĠCast": 7733,
      "ĠPot": 7734,
      "Ġclock": 7735,
      "Ġremed": 7736,
      "Ġagent": 7737,
      "Ġdriven": 7738,
      "Ġtut": 7739,
      "Ġstores": 7740,
      "ĠBill": 7741,
      "semb": 7742,
      "Ġbless": 7743,
      "Ġscientist": 7744,
      "ustain": 7745,
      "Ġaudio": 7746,
      "ieval": 7747,
      "urches": 7748,
      "Ġconcluded": 7749,
      "ĠPak": 7750,
      "ĠDou": 7751,
      "rolled": 7752,
      "ĠFund": 7753,
      "Ġresid": 7754,
      "Ġrecover": 7755,
      "Ġidentifying": 7756,
      "Ġbreed": 7757,
      "Ġtor": 7758,
      "Col": 7759,
      "Ġhence": 7760,
      "mm": 7761,
      "Ġampl": 7762,
      "icking": 7763,
      "brid": 7764,
      "Ġviewed": 7765,
      "Ġexperiencing": 7766,
      "OM": 7767,
      "OW": 7768,
      "uten": 7769,
      "Ġirrigation": 7770,
      "Ġmothers": 7771,
      "ĠCard": 7772,
      "Ġwindows": 7773,
      "ĠCurrent": 7774,
      "burn": 7775,
      "lete": 7776,
      "Ġargue": 7777,
      "Ġtrigger": 7778,
      "People": 7779,
      "df": 7780,
      "onym": 7781,
      "Ġantibiotics": 7782,
      "ourse": 7783,
      "incoln": 7784,
      "ucky": 7785,
      "ĠLead": 7786,
      "Ġforming": 7787,
      "Ġdirected": 7788,
      "iop": 7789,
      "rection": 7790,
      "ildren": 7791,
      "Ġregardless": 7792,
      "Ġcommitment": 7793,
      "iner": 7794,
      "Ġmur": 7795,
      "Ġgrows": 7796,
      "ĠHebrew": 7797,
      "atial": 7798,
      "riend": 7799,
      "ansas": 7800,
      "uum": 7801,
      "Ġdimens": 7802,
      "Ġdefend": 7803,
      "Ġhosp": 7804,
      "ĠFigure": 7805,
      "Ġplanets": 7806,
      "Ġoccurring": 7807,
      "ĠCambridge": 7808,
      "Ġcash": 7809,
      "Ġevolved": 7810,
      "ĠSuper": 7811,
      "ocial": 7812,
      "Ġthereby": 7813,
      "Ġà¤": 7814,
      "Ġbag": 7815,
      "HD": 7816,
      "Ġstones": 7817,
      "ĠCell": 7818,
      "Ġmg": 7819,
      "ĠDown": 7820,
      "ĠLiter": 7821,
      "ĠPhilipp": 7822,
      "ĠCross": 7823,
      "ĠPC": 7824,
      "Ġprotecting": 7825,
      "Ġsmell": 7826,
      "copy": 7827,
      "Ġdisrupt": 7828,
      "AB": 7829,
      "Ġdress": 7830,
      "ĠHand": 7831,
      "ĠHospital": 7832,
      "ĠUr": 7833,
      "Ġproviders": 7834,
      "Ġsunlight": 7835,
      "Ġdesert": 7836,
      "uset": 7837,
      "Ġtong": 7838,
      "ĠChapter": 7839,
      "ĠSurvey": 7840,
      "Ġappointed": 7841,
      "ĠNov": 7842,
      "Ġalive": 7843,
      "ĠLearn": 7844,
      "Ġwine": 7845,
      "Ġovercome": 7846,
      "Ġcommunications": 7847,
      "Ġprogramme": 7848,
      "ĠEngineering": 7849,
      "esh": 7850,
      "Ġcancers": 7851,
      "Ġcharged": 7852,
      "cking": 7853,
      "Ġidentification": 7854,
      "Ġheads": 7855,
      "Ġaddressed": 7856,
      "ĠMah": 7857,
      "itarian": 7858,
      "Ġstability": 7859,
      "ĠUt": 7860,
      "Ġobjectives": 7861,
      "Ġfuels": 7862,
      "Ġles": 7863,
      "uris": 7864,
      "ĠNote": 7865,
      "Ġequation": 7866,
      "endar": 7867,
      "Ġtransmit": 7868,
      "Ġpolar": 7869,
      "Ġcovering": 7870,
      "Ġinterventions": 7871,
      "Ġfunctioning": 7872,
      "athered": 7873,
      "Ġquiet": 7874,
      "Ġdriver": 7875,
      "Ġconserv": 7876,
      "usetts": 7877,
      "Ġperception": 7878,
      "Ġstake": 7879,
      "achusetts": 7880,
      "ĠâĨ": 7881,
      "Ġstrengthen": 7882,
      "ĠFar": 7883,
      "century": 7884,
      "Ġembry": 7885,
      "ĠCOVID": 7886,
      "Ġmathematical": 7887,
      "ĠJac": 7888,
      "Ġalph": 7889,
      "Ġclient": 7890,
      "ĠOhio": 7891,
      "ĠGeorgia": 7892,
      "Ġsubt": 7893,
      "Also": 7894,
      "ylvania": 7895,
      "edu": 7896,
      "Ġspr": 7897,
      "ricted": 7898,
      "Ġcharacteristic": 7899,
      "Ġsensor": 7900,
      "Ġconsideration": 7901,
      "Pre": 7902,
      "Ġseat": 7903,
      "grade": 7904,
      "Ġperm": 7905,
      "Ġmouse": 7906,
      "rize": 7907,
      "Ġtaxes": 7908,
      "asant": 7909,
      "Ġerrors": 7910,
      "ĠPolicy": 7911,
      "Ġfatty": 7912,
      "Ġvocabulary": 7913,
      "Ġfinger": 7914,
      "icular": 7915,
      "ĠTom": 7916,
      "Ġvideos": 7917,
      "ĠFacebook": 7918,
      "Ġsimultane": 7919,
      "About": 7920,
      "Ref": 7921,
      "Ġbacterial": 7922,
      "ĠIraq": 7923,
      "ocity": 7924,
      "Ġreporting": 7925,
      "Ġplanting": 7926,
      ".).": 7927,
      "iments": 7928,
      "Ġfisher": 7929,
      "wan": 7930,
      "Ġpersonality": 7931,
      "ĠSpirit": 7932,
      "Ġcopper": 7933,
      "Ġregarded": 7934,
      "Ġcolonial": 7935,
      "Ġpeoples": 7936,
      "Ġexped": 7937,
      "Ġseparated": 7938,
      "unning": 7939,
      "Ġaimed": 7940,
      "Ġven": 7941,
      "Ġlearners": 7942,
      "Ġprotective": 7943,
      "Ġcontainer": 7944,
      "Ġordinary": 7945,
      "yer": 7946,
      "Ġboat": 7947,
      "NS": 7948,
      "OP": 7949,
      "Ġsurge": 7950,
      "Ġinteractive": 7951,
      "was": 7952,
      "ographical": 7953,
      "ĠDivision": 7954,
      "omer": 7955,
      "Ġengines": 7956,
      "Ġworst": 7957,
      "elve": 7958,
      "ohyd": 7959,
      "mia": 7960,
      "Ġtribes": 7961,
      "atter": 7962,
      "Ġmeals": 7963,
      "Ġfalling": 7964,
      "ĠGulf": 7965,
      "Ġdisabilities": 7966,
      "Ġfinds": 7967,
      "zheimer": 7968,
      "ette": 7969,
      "Ġbelieves": 7970,
      "Ġrational": 7971,
      "Ġgases": 7972,
      "Ġstopped": 7973,
      "Ġexhaust": 7974,
      "achers": 7975,
      "Ġsettlement": 7976,
      "ĠOper": 7977,
      "Ġevening": 7978,
      "ĠConservation": 7979,
      "ĠLee": 7980,
      "Ġcomprom": 7981,
      "ĠPolit": 7982,
      "May": 7983,
      "disc": 7984,
      "oli": 7985,
      "Ġowned": 7986,
      "Ġextend": 7987,
      "Ġoldest": 7988,
      "ĠQueen": 7989,
      "archy": 7990,
      "Ġwaiting": 7991,
      "una": 7992,
      "Ġlock": 7993,
      "Ġliterary": 7994,
      "Ġtables": 7995,
      "irth": 7996,
      "anger": 7997,
      "holders": 7998,
      "hire": 7999,
      "adel": 8000,
      "Ġversions": 8001,
      "ĠProtection": 8002,
      "Ġ;": 8003,
      "Ġsizes": 8004,
      "ĠTry": 8005,
      "Ġkilling": 8006,
      "ĠColorado": 8007,
      "ao": 8008,
      "Ġrect": 8009,
      "ĠJo": 8010,
      "Ġpursu": 8011,
      "Ġmoderate": 8012,
      "Ġwisdom": 8013,
      "ĠCP": 8014,
      "plete": 8015,
      "ĠRoad": 8016,
      "Ġtumor": 8017,
      "ĠBattle": 8018,
      "enger": 8019,
      "ĠTim": 8020,
      "real": 8021,
      "aret": 8022,
      "Ġinhabit": 8023,
      "Ġlens": 8024,
      "amples": 8025,
      "ega": 8026,
      "ercury": 8027,
      "Ġoverwhel": 8028,
      "hus": 8029,
      "kind": 8030,
      "mun": 8031,
      "Ġmixture": 8032,
      "raham": 8033,
      "ude": 8034,
      "angle": 8035,
      "Ġacres": 8036,
      "Ġparameters": 8037,
      "Ġplain": 8038,
      "urning": 8039,
      "Ġdietary": 8040,
      "Ġnutrient": 8041,
      "GE": 8042,
      "Ġcreatures": 8043,
      "Ġran": 8044,
      "Ġfellow": 8045,
      "income": 8046,
      "Ġcomputing": 8047,
      "Ġlinear": 8048,
      "ĠMinister": 8049,
      "Ġexhibit": 8050,
      "ĠAuthor": 8051,
      "Ġquarter": 8052,
      "Ġpit": 8053,
      "ĠLo": 8054,
      "ĠIns": 8055,
      "Ġconsumed": 8056,
      "Ġadvent": 8057,
      "Ġargued": 8058,
      "',": 8059,
      "ptom": 8060,
      "Ġsched": 8061,
      "Ġtransmitted": 8062,
      "Ġharder": 8063,
      "icy": 8064,
      "Ġsettled": 8065,
      "Ġhidden": 8066,
      "ipe": 8067,
      "Ġbutton": 8068,
      "Ġinsight": 8069,
      "dr": 8070,
      "Ġom": 8071,
      "olt": 8072,
      "Ġupdated": 8073,
      "gien": 8074,
      "rays": 8075,
      "Ġpreserve": 8076,
      "Ġton": 8077,
      "ĠSand": 8078,
      "ĠBusiness": 8079,
      "ĠLess": 8080,
      "Ġpermission": 8081,
      "ivest": 8082,
      "azon": 8083,
      "Ġspoken": 8084,
      "ĠLook": 8085,
      "neys": 8086,
      "Ġbuff": 8087,
      "Ġresearcher": 8088,
      "ugg": 8089,
      "Ġcort": 8090,
      "utation": 8091,
      "ĠIslands": 8092,
      "Ġsuscept": 8093,
      "Ġemphasis": 8094,
      "ĠAR": 8095,
      "Ġsaved": 8096,
      "ĠJustice": 8097,
      "Ġorb": 8098,
      "ĠHor": 8099,
      "ĠConfed": 8100,
      "ĠWithout": 8101,
      "rat": 8102,
      "ĠSet": 8103,
      "ĠFind": 8104,
      "Ġecological": 8105,
      "Ġeducators": 8106,
      "Ġcoc": 8107,
      "ĠAnalysis": 8108,
      "Ġadvis": 8109,
      "Ġimprovements": 8110,
      "Ġacquired": 8111,
      "Ġreaching": 8112,
      "Ġdisability": 8113,
      "Ġphrase": 8114,
      "asy": 8115,
      "Ġheritage": 8116,
      "Ġdies": 8117,
      "olk": 8118,
      "agan": 8119,
      "ĠAssess": 8120,
      "Ġstreets": 8121,
      "vo": 8122,
      "pled": 8123,
      "ecess": 8124,
      "Ġlungs": 8125,
      "Ġlosses": 8126,
      "Ġdramatic": 8127,
      "Car": 8128,
      "through": 8129,
      "Ġcure": 8130,
      "Ġentertain": 8131,
      "Ġillegal": 8132,
      "Ġmyself": 8133,
      "Ġcapabilities": 8134,
      "Ġmanufacturers": 8135,
      "Ġattitude": 8136,
      "Ġentering": 8137,
      "Ġcustomer": 8138,
      "Ġgravity": 8139,
      "berry": 8140,
      "ĠÐ": 8141,
      "uting": 8142,
      "ĠMexican": 8143,
      "HS": 8144,
      "har": 8145,
      "asts": 8146,
      "Ġattach": 8147,
      "Ġtechnological": 8148,
      "Ġpointed": 8149,
      "Ã¤": 8150,
      "ruit": 8151,
      "eor": 8152,
      "Ġcolony": 8153,
      "ĠMassachusetts": 8154,
      "uan": 8155,
      "Ġcotton": 8156,
      "Ġlymph": 8157,
      "Ġunion": 8158,
      "Ġgrains": 8159,
      "Ġprofit": 8160,
      "ĠSystems": 8161,
      "Ġtick": 8162,
      "Ġinterface": 8163,
      "Ġcourts": 8164,
      "DS": 8165,
      "Ġenables": 8166,
      "Ġvariations": 8167,
      "ĠChristianity": 8168,
      "Ġincident": 8169,
      "Ġscope": 8170,
      "Ġquantity": 8171,
      "ĠFil": 8172,
      "Ġlogic": 8173,
      "Ġelder": 8174,
      "amps": 8175,
      "Ġtemporary": 8176,
      "Ġwatching": 8177,
      "ĠPakistan": 8178,
      "Ġphysically": 8179,
      "Ġintroduce": 8180,
      "Ġtrauma": 8181,
      "Ġtap": 8182,
      "ĠWil": 8183,
      "ĠStar": 8184,
      "ĠAgain": 8185,
      "ĠStart": 8186,
      "Ġvitamins": 8187,
      "ĠModern": 8188,
      "ĠBack": 8189,
      "ailable": 8190,
      "Ġsacred": 8191,
      "Ġassets": 8192,
      "Ġfra": 8193,
      "Ġbatteries": 8194,
      "Under": 8195,
      "Ġpand": 8196,
      "Ġdim": 8197,
      "endment": 8198,
      "Ġgrounds": 8199,
      "books": 8200,
      "ĠFrancisco": 8201,
      "Where": 8202,
      "Ġforg": 8203,
      "Ġspacecraft": 8204,
      "awn": 8205,
      "ĠMichigan": 8206,
      "ĠAlexander": 8207,
      "Ġapparently": 8208,
      "cyclopedia": 8209,
      "unicipal": 8210,
      "Ġbees": 8211,
      "ĠPur": 8212,
      "mann": 8213,
      "bean": 8214,
      "Ġenormous": 8215,
      "Fig": 8216,
      "MA": 8217,
      "ependent": 8218,
      "ila": 8219,
      "Ġsubstit": 8220,
      "ĠOnline": 8221,
      "Ġdefinitely": 8222,
      "ket": 8223,
      "Ġ?": 8224,
      "usalem": 8225,
      "asma": 8226,
      "Ġcorresponding": 8227,
      "Ġheaven": 8228,
      "ivestock": 8229,
      "vi": 8230,
      "Ġslaves": 8231,
      "Step": 8232,
      "Ġguess": 8233,
      "Ġlowest": 8234,
      "ĠPrevention": 8235,
      "adow": 8236,
      "ĠInit": 8237,
      "aws": 8238,
      "Ġcyber": 8239,
      "Ġexempt": 8240,
      "Ġgenome": 8241,
      "Ġlimitations": 8242,
      "Ġantioxid": 8243,
      "Ġavailability": 8244,
      "ĠBooks": 8245,
      "eping": 8246,
      "Ġaffecting": 8247,
      "Ġsensitivity": 8248,
      "Get": 8249,
      "Ġelsewhere": 8250,
      "Ġcow": 8251,
      "Ġviolent": 8252,
      "Ġwonderful": 8253,
      "Ġkeeps": 8254,
      "Ġbehavioral": 8255,
      "Ġnarrative": 8256,
      "zo": 8257,
      "Ġlip": 8258,
      "Ġkingdom": 8259,
      "'d": 8260,
      "thod": 8261,
      "ĠHeart": 8262,
      "ĠIndeed": 8263,
      "ĠModel": 8264,
      "Ġhunting": 8265,
      "uits": 8266,
      "Ġchances": 8267,
      "nsylvania": 8268,
      "ĠArticle": 8269,
      "ĠKar": 8270,
      "Ġsentences": 8271,
      "mond": 8272,
      "Ġwheat": 8273,
      "Ġassumed": 8274,
      "sts": 8275,
      "ols": 8276,
      "Ġboundaries": 8277,
      "Pub": 8278,
      "Ġgent": 8279,
      "ĠWal": 8280,
      "Ġdeficiency": 8281,
      "Ġdominant": 8282,
      "Ġthread": 8283,
      "Ġsymbols": 8284,
      "jo": 8285,
      "vin": 8286,
      "ĠHarvard": 8287,
      "ĠElizabeth": 8288,
      "Ġpel": 8289,
      "Ġcoverage": 8290,
      "ĠAlzheimer": 8291,
      "Ġminds": 8292,
      "Ġcann": 8293,
      "Ġsad": 8294,
      "Ġdense": 8295,
      "Ġjoints": 8296,
      "Ġinitiative": 8297,
      "ĠCorn": 8298,
      "Ġadverse": 8299,
      "Ġestablishment": 8300,
      "Ġchromos": 8301,
      "rical": 8302,
      "asm": 8303,
      "ĠLincoln": 8304,
      "Part": 8305,
      "Ġcas": 8306,
      "ĠLittle": 8307,
      "aka": 8308,
      "Ġparad": 8309,
      ")||": 8310,
      "Ġfires": 8311,
      "Ġyes": 8312,
      "Ġash": 8313,
      "Ġdeploy": 8314,
      "ĠUnfortunately": 8315,
      "ĠEdward": 8316,
      "Ġexpanded": 8317,
      "Are": 8318,
      "rob": 8319,
      "Ġneutral": 8320,
      "ashes": 8321,
      "ĠTable": 8322,
      "ĠWay": 8323,
      "Ġexciting": 8324,
      "Cons": 8325,
      "Ġauthent": 8326,
      "ĠLos": 8327,
      "Ġexploration": 8328,
      "Ġremoving": 8329,
      "Ġinfants": 8330,
      "Ġtip": 8331,
      "Ġdism": 8332,
      "ĠRh": 8333,
      "Ġfet": 8334,
      "aya": 8335,
      "Ġmarketing": 8336,
      "Ġtens": 8337,
      "Ġscores": 8338,
      "Ġfocusing": 8339,
      "aints": 8340,
      "Ġdemocracy": 8341,
      "ĠObs": 8342,
      "Ġcontinuing": 8343,
      "Ġchemistry": 8344,
      "Ġfatigue": 8345,
      "ĠIdent": 8346,
      "Ġfats": 8347,
      "Ġasp": 8348,
      "Ġremarkable": 8349,
      "Ġengaging": 8350,
      "ĠImp": 8351,
      "Ġthermal": 8352,
      "Ġadapted": 8353,
      "Ne": 8354,
      "raine": 8355,
      "Ġperceived": 8356,
      "Ġanalyze": 8357,
      "Ġbegun": 8358,
      "Ġweigh": 8359,
      "Ġextension": 8360,
      "ĠForce": 8361,
      "Ġecosystems": 8362,
      "Ġparagraph": 8363,
      "Ġprayer": 8364,
      "Ġpilot": 8365,
      "Ġthreatened": 8366,
      "Ġsummary": 8367,
      "ĠPortug": 8368,
      "Ġreverse": 8369,
      "Ġthyroid": 8370,
      "Ġsupplements": 8371,
      "Â®": 8372,
      "Ġdetermining": 8373,
      "borne": 8374,
      "you": 8375,
      "opher": 8376,
      "Ġembra": 8377,
      "Ġwouldn": 8378,
      "Ġlists": 8379,
      "istory": 8380,
      "Ġwearing": 8381,
      "Ġachievement": 8382,
      "Ġcolonies": 8383,
      "ician": 8384,
      "ĠOl": 8385,
      "Ġmyst": 8386,
      "Ġdirections": 8387,
      "Ġmovie": 8388,
      "Ġpromoting": 8389,
      "Ġdairy": 8390,
      "Ġuniversities": 8391,
      "ga": 8392,
      "aren": 8393,
      "Ġemerging": 8394,
      "Ġdeeply": 8395,
      "Ġcable": 8396,
      "Ġmanaging": 8397,
      "Ġinterior": 8398,
      "Ġvegetation": 8399,
      "ĠConference": 8400,
      "ĠpH": 8401,
      "icity": 8402,
      "Ġsensors": 8403,
      "Ġclassified": 8404,
      "Ġperforming": 8405,
      "Ġpropag": 8406,
      "Ġcardiovascular": 8407,
      "zer": 8408,
      "rip": 8409,
      "ĠPhot": 8410,
      "ĠParliament": 8411,
      "Ġastronom": 8412,
      "Ġabstract": 8413,
      "Ġinvestigate": 8414,
      "Pr": 8415,
      "oul": 8416,
      "amil": 8417,
      "Ġease": 8418,
      "Ġexplicit": 8419,
      "Ġclothes": 8420,
      "ĠJerusalem": 8421,
      "BT": 8422,
      "Ġrevenue": 8423,
      "Ġtargeted": 8424,
      "Ġdrivers": 8425,
      "bell": 8426,
      "Ġbare": 8427,
      "Ġstood": 8428,
      "Ġchap": 8429,
      "Ġresc": 8430,
      "ensed": 8431,
      "Ġburied": 8432,
      "eries": 8433,
      "ipher": 8434,
      "Ġgeomet": 8435,
      "Sim": 8436,
      "advant": 8437,
      "Ġapplying": 8438,
      "play": 8439,
      "Ġcouldn": 8440,
      "Ġcontributions": 8441,
      "HA": 8442,
      "Ġtempor": 8443,
      "Ġdescript": 8444,
      "Ġfatal": 8445,
      "Ġlifetime": 8446,
      "Ġfought": 8447,
      "Ġdipl": 8448,
      "iva": 8449,
      "Ġappeal": 8450,
      "%,": 8451,
      "Sm": 8452,
      "obile": 8453,
      "Ġhouseholds": 8454,
      "Ġevident": 8455,
      "Ġpromise": 8456,
      "Ġensuring": 8457,
      "ĠSunday": 8458,
      "Ġdance": 8459,
      "ĠLast": 8460,
      "Before": 8461,
      "Ġpreferred": 8462,
      "Ġbiodiversity": 8463,
      "Ġpanels": 8464,
      "Using": 8465,
      "ĠWikipedia": 8466,
      "vation": 8467,
      "Ġ^": 8468,
      "opl": 8469,
      "Co": 8470,
      "Ġduration": 8471,
      "ĠCapt": 8472,
      "Ġconverted": 8473,
      "uy": 8474,
      "izers": 8475,
      "ifice": 8476,
      "ĠMid": 8477,
      "Ġrecre": 8478,
      "Ġmosquit": 8479,
      "Ġflying": 8480,
      "Ġhaven": 8481,
      "Ġfeels": 8482,
      "Ġhormones": 8483,
      "Ġexecutive": 8484,
      "Art": 8485,
      "Ġarguments": 8486,
      "MP": 8487,
      "Ġtrick": 8488,
      "Ġprovince": 8489,
      "Ġverb": 8490,
      "Ġgods": 8491,
      "Ġinvolvement": 8492,
      "Ġtension": 8493,
      "Ġrealized": 8494,
      "olves": 8495,
      "Ġraising": 8496,
      "Ġflexible": 8497,
      "ĠCreek": 8498,
      "Ġapplicants": 8499,
      "ĠSS": 8500,
      "oca": 8501,
      "Ġconcentrations": 8502,
      "Ġmanifest": 8503,
      "Ġfur": 8504,
      "Ġpromotion": 8505,
      "Ġvaccines": 8506,
      "ĠBuddha": 8507,
      "actions": 8508,
      "ibet": 8509,
      "stant": 8510,
      "idal": 8511,
      "ĠBa": 8512,
      "sor": 8513,
      "Last": 8514,
      "Ġcompass": 8515,
      "made": 8516,
      "mented": 8517,
      "text": 8518,
      "Ġemerged": 8519,
      "world": 8520,
      "lymp": 8521,
      "Ġslave": 8522,
      "Ġaddresses": 8523,
      "Ġversus": 8524,
      "reprene": 8525,
      "foot": 8526,
      "hea": 8527,
      "ema": 8528,
      "Ġengagement": 8529,
      "ĠPennsylvania": 8530,
      "ĠHawai": 8531,
      "enced": 8532,
      "ĠDrug": 8533,
      "Ġwebsites": 8534,
      "irms": 8535,
      "istant": 8536,
      "Ġentit": 8537,
      "Ġhumanity": 8538,
      "ĠMath": 8539,
      "outheast": 8540,
      "Ġreasonable": 8541,
      "ĠBang": 8542,
      "Ġcelebrated": 8543,
      "fast": 8544,
      "Ġwat": 8545,
      "Ġinequ": 8546,
      "ĠHead": 8547,
      "Ġsocieties": 8548,
      "ĠÂ£": 8549,
      "ĠNavy": 8550,
      "erally": 8551,
      "Ġlighting": 8552,
      "Ġconsciousness": 8553,
      "Ġtact": 8554,
      "Ġexpectations": 8555,
      "ĠFact": 8556,
      "Ġliterally": 8557,
      "Ġintegration": 8558,
      "Ġfacilitate": 8559,
      "ĠVe": 8560,
      "cule": 8561,
      "ĠMess": 8562,
      "umer": 8563,
      "ailed": 8564,
      "Ġurine": 8565,
      "Ġtelling": 8566,
      "iat": 8567,
      "rix": 8568,
      "ulpt": 8569,
      "ĠAllah": 8570,
      "zym": 8571,
      "Ġhall": 8572,
      "Ġbeat": 8573,
      "Ġexisted": 8574,
      "ĠSenate": 8575,
      "ĠAC": 8576,
      "Ġreads": 8577,
      "feed": 8578,
      "acent": 8579,
      "Ġstrike": 8580,
      "ĠPalest": 8581,
      "Ġmature": 8582,
      "Like": 8583,
      "OD": 8584,
      "Ġtob": 8585,
      "Ġol": 8586,
      "Ġmanual": 8587,
      "ĠAsk": 8588,
      "Ġscheme": 8589,
      "claim": 8590,
      "Ġmetals": 8591,
      "Ġdegrad": 8592,
      "mentation": 8593,
      "Ġenterpr": 8594,
      "Ġnewspaper": 8595,
      "Ġempty": 8596,
      "Ġprox": 8597,
      "ĠMA": 8598,
      "Ġdistricts": 8599,
      "Ġaccompanied": 8600,
      "high": 8601,
      "Ġcoat": 8602,
      "Ġworkshe": 8603,
      "Ġrecycling": 8604,
      "ĠCE": 8605,
      "Ġspray": 8606,
      "ĠLaboratory": 8607,
      "Ġears": 8608,
      "Ġwelfare": 8609,
      "Ġpayments": 8610,
      "ĠTestament": 8611,
      "ĠPoint": 8612,
      "ĠEPA": 8613,
      "Ġclassical": 8614,
      "ĠOd": 8615,
      "Ġpriority": 8616,
      "Ġasc": 8617,
      "Ġnotion": 8618,
      "''": 8619,
      "ĠDC": 8620,
      "Ġunn": 8621,
      "Ġseriously": 8622,
      "Ġcheap": 8623,
      "hemistry": 8624,
      "sex": 8625,
      "Ġgast": 8626,
      "Ġchurches": 8627,
      "Ġfing": 8628,
      "icating": 8629,
      "Ġchair": 8630,
      "Ġoccas": 8631,
      "usive": 8632,
      "uscript": 8633,
      "Ġsevent": 8634,
      "Ġpsychology": 8635,
      "ĠID": 8636,
      "thur": 8637,
      "ĠTurk": 8638,
      "inth": 8639,
      "ĠMax": 8640,
      "Ġloose": 8641,
      "Ġcommittee": 8642,
      "Ġmembrane": 8643,
      "Ġdiffer": 8644,
      "fulness": 8645,
      "Ġproductivity": 8646,
      "erts": 8647,
      "ĠSaint": 8648,
      "ĠEconomic": 8649,
      "unc": 8650,
      "Ġsustainability": 8651,
      "Ġpill": 8652,
      "Ġsees": 8653,
      "Ġassociate": 8654,
      "Ġquantum": 8655,
      "Ġsongs": 8656,
      "Ġtelesc": 8657,
      "Ġwider": 8658,
      "kl": 8659,
      "Ġwars": 8660,
      "ĠBureau": 8661,
      "ouds": 8662,
      "Ġreplacement": 8663,
      "lights": 8664,
      "words": 8665,
      "Ġreferences": 8666,
      "Ġdevast": 8667,
      "Ġaccord": 8668,
      "Ġcirculation": 8669,
      "Ġverte": 8670,
      "ackson": 8671,
      "Ġoutl": 8672,
      "Ġsafely": 8673,
      "Rep": 8674,
      "Ġlosing": 8675,
      "lock": 8676,
      "Ġcopyright": 8677,
      "Ġprecip": 8678,
      "Ġtobacco": 8679,
      "Ġmanager": 8680,
      "Ġplanted": 8681,
      "Ġdrinks": 8682,
      "Ġfaces": 8683,
      "bec": 8684,
      "nia": 8685,
      "esium": 8686,
      "Ġreadily": 8687,
      "Ġfunded": 8688,
      "Ġacknowled": 8689,
      "Ġpainful": 8690,
      "Ġimmigrants": 8691,
      "ĠAgriculture": 8692,
      "trans": 8693,
      "ĠLin": 8694,
      "Ġhat": 8695,
      "Ġaggressive": 8696,
      "Ġmine": 8697,
      "Ġreaches": 8698,
      "ilson": 8699,
      "Ġvelocity": 8700,
      "Each": 8701,
      "Ġgraduate": 8702,
      "Ġpoetry": 8703,
      "ĠTO": 8704,
      "Just": 8705,
      "Ġacting": 8706,
      "Ġholiday": 8707,
      "ati": 8708,
      "ĠIT": 8709,
      "Ġbarrier": 8710,
      "ĠRam": 8711,
      "ĠOnt": 8712,
      "Ġpersonnel": 8713,
      "Ġjuice": 8714,
      "ĠCirc": 8715,
      "ologically": 8716,
      "Ġcalculate": 8717,
      "ocolate": 8718,
      "Ġcraft": 8719,
      "Ġresil": 8720,
      "Ġattitudes": 8721,
      "Ġemotion": 8722,
      "Ġunlikely": 8723,
      "Eng": 8724,
      "Rel": 8725,
      "Ġtack": 8726,
      "Ġnoticed": 8727,
      "Ġpowder": 8728,
      "Ġproposal": 8729,
      "wave": 8730,
      "ĠPass": 8731,
      "adelph": 8732,
      "orig": 8733,
      "ĠSeveral": 8734,
      "oded": 8735,
      "ĠVeterans": 8736,
      "quiry": 8737,
      "Ġsaving": 8738,
      "chain": 8739,
      "agen": 8740,
      "Ġpermit": 8741,
      "Ġrestore": 8742,
      "ĠWildlife": 8743,
      "ranean": 8744,
      "'.": 8745,
      "Ġpassion": 8746,
      "Ġreproductive": 8747,
      "ĠIslamic": 8748,
      "ĠSection": 8749,
      "Ġstyles": 8750,
      "Ġsegment": 8751,
      "Ġdifferently": 8752,
      "after": 8753,
      "ĠDictionary": 8754,
      "ĠFred": 8755,
      "Ġgathered": 8756,
      "Ġbreaking": 8757,
      "ceans": 8758,
      "aternal": 8759,
      "ĠView": 8760,
      "ĠChief": 8761,
      "John": 8762,
      "western": 8763,
      "Ġatoms": 8764,
      "ĠGar": 8765,
      "Ġspecified": 8766,
      "Ġrestaur": 8767,
      "Ġprey": 8768,
      "Ġanticip": 8769,
      "Ġconclus": 8770,
      "Ġhandling": 8771,
      "ĠStan": 8772,
      "Ġcooperation": 8773,
      "Ġlegit": 8774,
      "Ġcontrolling": 8775,
      "Ġshaped": 8776,
      "ĠBulgar": 8777,
      "eutic": 8778,
      "ĠHa": 8779,
      "ĠOrig": 8780,
      "Ġrepresenting": 8781,
      "Ġvegetable": 8782,
      "ĠTown": 8783,
      "Ġbene": 8784,
      "Ġsessions": 8785,
      "also": 8786,
      "ĠOS": 8787,
      "ĠOlymp": 8788,
      "Ġconvert": 8789,
      "Ġspoke": 8790,
      "Ġroyal": 8791,
      "Ġforecast": 8792,
      "Ġdivine": 8793,
      "iger": 8794,
      "Ġintention": 8795,
      "Ġaging": 8796,
      "Ġrefused": 8797,
      "Ġgrades": 8798,
      "ĠIce": 8799,
      "Ġorigins": 8800,
      "otor": 8801,
      "this": 8802,
      "Ġalgorithm": 8803,
      "Ġpion": 8804,
      "Ġranging": 8805,
      "Ġrecording": 8806,
      "Two": 8807,
      "ĠContin": 8808,
      "ĠPerhaps": 8809,
      "Ġphotographs": 8810,
      "itory": 8811,
      "ĠSon": 8812,
      "ĠSolar": 8813,
      "Ġreflected": 8814,
      "Ġoccupied": 8815,
      "Ġrestrictions": 8816,
      "Ġion": 8817,
      "Ġoverl": 8818,
      "Ġprime": 8819,
      "Ġabsorb": 8820,
      "section": 8821,
      "Ġregime": 8822,
      "Ġvictory": 8823,
      "zyme": 8824,
      "EF": 8825,
      "Ġhappiness": 8826,
      "ĠHit": 8827,
      "Ġshorter": 8828,
      "Ġtraits": 8829,
      "Ġnutritional": 8830,
      "best": 8831,
      "Ġactively": 8832,
      "ĠBlue": 8833,
      "Ġeverywhere": 8834,
      "ĠArctic": 8835,
      "Ġhal": 8836,
      "Ġarmed": 8837,
      "aware": 8838,
      "Ġprofile": 8839,
      "Ġrepresentative": 8840,
      "Ġannually": 8841,
      "Ġtransferred": 8842,
      "Ã±": 8843,
      "Ġchose": 8844,
      "Ġvirtually": 8845,
      "adelphia": 8846,
      "Ġft": 8847,
      "neum": 8848,
      "Ġhabitats": 8849,
      "Ġcontents": 8850,
      "ĠAbraham": 8851,
      "Ġcollective": 8852,
      "Ġshed": 8853,
      "Ġgum": 8854,
      "ĠHindu": 8855,
      "Ġdiscussions": 8856,
      "aque": 8857,
      "ĠClick": 8858,
      "Ġtongue": 8859,
      "unct": 8860,
      "ogy": 8861,
      "Ġcrimes": 8862,
      "ĠMinistry": 8863,
      "icts": 8864,
      "Ġdil": 8865,
      "Ġaddiction": 8866,
      "Ġbarriers": 8867,
      "ĠBiology": 8868,
      "Ġtheoretical": 8869,
      "ãģ": 8870,
      "Ġobst": 8871,
      "Ġpurchased": 8872,
      "Ġsurgical": 8873,
      "Ġassert": 8874,
      "Ġequality": 8875,
      "Ġprevalence": 8876,
      "han": 8877,
      "ĠPage": 8878,
      "Ġclients": 8879,
      "Ġpreserved": 8880,
      "ĠAlaska": 8881,
      "Ġconstra": 8882,
      "Ġwithdraw": 8883,
      "emb": 8884,
      "Ġestate": 8885,
      "Ġbeneath": 8886,
      "Ġknee": 8887,
      "Ġindirect": 8888,
      "Ġclassic": 8889,
      "Ġchoosing": 8890,
      "Ġfriendly": 8891,
      "Ġviral": 8892,
      "Ġcompetitive": 8893,
      "Ġreveals": 8894,
      "Ġneurons": 8895,
      "Ġorange": 8896,
      "Ġsuit": 8897,
      "Then": 8898,
      "Ġencounter": 8899,
      "Ġcarbohyd": 8900,
      "Ġbeans": 8901,
      "ĠHistorical": 8902,
      "green": 8903,
      "Ġpairs": 8904,
      "ĠGall": 8905,
      "Ġattribut": 8906,
      "Ġstrange": 8907,
      "ĠPhysical": 8908,
      "arming": 8909,
      "Ġmeaningful": 8910,
      "Ġcul": 8911,
      "roud": 8912,
      "Ġethical": 8913,
      "terior": 8914,
      "ĠUV": 8915,
      "Ġtrem": 8916,
      "Ġparticle": 8917,
      "Ġexpertise": 8918,
      "rizona": 8919,
      "mail": 8920,
      "Ġlivestock": 8921,
      "ĠSqu": 8922,
      "Sec": 8923,
      "UL": 8924,
      "Use": 8925,
      "ĠSecretary": 8926,
      "Source": 8927,
      "ĠHT": 8928,
      "ĠNob": 8929,
      "Ġspots": 8930,
      "Ġjoy": 8931,
      "Ġreef": 8932,
      "Ġherb": 8933,
      "Ġtherm": 8934,
      "ĠMach": 8935,
      "awa": 8936,
      "Ġtends": 8937,
      "Ġlakes": 8938,
      "Ġnom": 8939,
      "Ġanger": 8940,
      "apes": 8941,
      "ysical": 8942,
      "Ġhypothesis": 8943,
      "Ġtom": 8944,
      "Who": 8945,
      "Ġaccomplish": 8946,
      "Ġeleph": 8947,
      "Ġsleeping": 8948,
      "imp": 8949,
      "ĠMur": 8950,
      "Ġarise": 8951,
      "ĠConvention": 8952,
      "oil": 8953,
      "wa": 8954,
      "ĠColon": 8955,
      "Ġspecialized": 8956,
      "Ġdropped": 8957,
      "Despite": 8958,
      "rh": 8959,
      "Ġinfluences": 8960,
      "Ġgardens": 8961,
      "Ġoutbreak": 8962,
      "giene": 8963,
      "Ġdesignated": 8964,
      "ĠFrid": 8965,
      "ilst": 8966,
      "Ġenthus": 8967,
      "Ġcelebrate": 8968,
      "Ġchicken": 8969,
      "ami": 8970,
      "Ġoutdoor": 8971,
      "Ġpy": 8972,
      "Ġfrust": 8973,
      "Ġmedicines": 8974,
      "Ġconvey": 8975,
      "rowth": 8976,
      "Ġvaries": 8977,
      "det": 8978,
      "Ġtrace": 8979,
      "Ġlibr": 8980,
      "Ġjuris": 8981,
      "ĠPlay": 8982,
      "Ġcomplexity": 8983,
      "Ġbalanced": 8984,
      "Ġspeaker": 8985,
      "ĠTreatment": 8986,
      "ois": 8987,
      "ĠEmer": 8988,
      "Ġbuying": 8989,
      "Ġvaried": 8990,
      "Ġcandidate": 8991,
      "ĠInvest": 8992,
      "Ġcough": 8993,
      "urable": 8994,
      "ĠParent": 8995,
      "Ġrib": 8996,
      "Ġsodium": 8997,
      "PD": 8998,
      "ĠImpro": 8999,
      "ĠHeritage": 9000,
      "Ġpaying": 9001,
      "stru": 9002,
      "Ġlingu": 9003,
      "Ġqualities": 9004,
      "GO": 9005,
      "Ġsolving": 9006,
      "Ġdisplayed": 9007,
      "TA": 9008,
      "ĠRight": 9009,
      "Ġscenario": 9010,
      "Ġincent": 9011,
      "Ġspinal": 9012,
      "Ġsuddenly": 9013,
      "Ġdimensions": 9014,
      "ĠAndrew": 9015,
      "!!": 9016,
      "Ġinev": 9017,
      "Ġsubsc": 9018,
      "Ġapplies": 9019,
      "Ġminority": 9020,
      "Ġtill": 9021,
      "Ġdevelops": 9022,
      "onday": 9023,
      "Ġpractition": 9024,
      "ĠCommons": 9025,
      "Ġputs": 9026,
      "Ġquantities": 9027,
      "LC": 9028,
      "ĠFed": 9029,
      "ĠLater": 9030,
      "ĠOtt": 9031,
      "Ġminimal": 9032,
      "BI": 9033,
      "Gl": 9034,
      "ĠBal": 9035,
      "Ġoverview": 9036,
      "ĠProcess": 9037,
      "Ġelections": 9038,
      "host": 9039,
      "uity": 9040,
      "Ġdiarr": 9041,
      "Ġoptical": 9042,
      "ĠLine": 9043,
      "Ġblank": 9044,
      "Ġreturns": 9045,
      "EA": 9046,
      "function": 9047,
      "itting": 9048,
      "rue": 9049,
      "Ġuncle": 9050,
      "Ġmarg": 9051,
      "Ġenjoyed": 9052,
      "ĠAngeles": 9053,
      "Ġpandemic": 9054,
      "Ġsale": 9055,
      "encing": 9056,
      "ĠNeed": 9057,
      "Ġconversion": 9058,
      "havior": 9059,
      "Ġpartnership": 9060,
      "ĠMajor": 9061,
      "Ġposts": 9062,
      "sembly": 9063,
      "uis": 9064,
      "Ġbought": 9065,
      "ĠCode": 9066,
      "Ġvibr": 9067,
      "Ġclub": 9068,
      "Ġham": 9069,
      "Ġrod": 9070,
      "ĠArts": 9071,
      "ĠNext": 9072,
      "Ġownership": 9073,
      "ceive": 9074,
      "Ġbasically": 9075,
      "Ġbreaks": 9076,
      "ĠSmall": 9077,
      "Ġanalyzed": 9078,
      "fe": 9079,
      "Ġshr": 9080,
      "Ġshore": 9081,
      "Ġherself": 9082,
      "Ġcurve": 9083,
      "Ġalgorithms": 9084,
      "ĠAction": 9085,
      "Ġ(âĢľ": 9086,
      "Ġglobe": 9087,
      "Ġvillages": 9088,
      "lected": 9089,
      "ĠLevel": 9090,
      "Ġcited": 9091,
      "ĠLim": 9092,
      "ĠIndigenous": 9093,
      "Ġmerch": 9094,
      "Ġdiagram": 9095,
      "Ġprofound": 9096,
      "pectives": 9097,
      "ospel": 9098,
      "Ġinsights": 9099,
      "Ġmeetings": 9100,
      "ĠAmazon": 9101,
      "friend": 9102,
      "atoes": 9103,
      "ĠTibet": 9104,
      "igious": 9105,
      "Ġsculpt": 9106,
      "Ġadvances": 9107,
      "cut": 9108,
      "agnetic": 9109,
      "Ġaccurately": 9110,
      "TH": 9111,
      "eras": 9112,
      "ais": 9113,
      "ĠSus": 9114,
[...]
